/* Copyright 2020 The TensorFlow Authors. All Rights Reserved.

Licensed under the Apache License, Version 2.0 (the "License");
you may not use this file except in compliance with the License.
You may obtain a copy of the License at

    http://www.apache.org/licenses/LICENSE-2.0

Unless required by applicable law or agreed to in writing, software
distributed under the License is distributed on an "AS IS" BASIS,
WITHOUT WARRANTIES OR CONDITIONS OF ANY KIND, either express or implied.
See the License for the specific language governing permissions and
limitations under the License.
==============================================================================*/

// This is a standard TensorFlow Lite FlatBuffer model file that has been
// converted into a C data array, so it can be easily compiled into a binary
// for devices that don't have a file system. It was created using the command:
// xxd -i model.tflite > model.cc

#include "micro_features_model.h"

// We need to keep the data array aligned on some architectures.
#ifdef __has_attribute
#define HAVE_ATTRIBUTE(x) __has_attribute(x)
#else
#define HAVE_ATTRIBUTE(x) 0
#endif
#if HAVE_ATTRIBUTE(aligned) || (defined(__GNUC__) && !defined(__clang__))
#define DATA_ALIGN_ATTRIBUTE __attribute__((aligned(4)))
#else
#define DATA_ALIGN_ATTRIBUTE
#endif

const unsigned char g_model[] DATA_ALIGN_ATTRIBUTE = {
0x1c, 0x0, 0x0, 0x0, 0x54, 0x46, 0x4c, 0x33, 0x14, 0x0, 0x20, 0x0, 0x1c, 0x0, 0x18, 0x0, 0x14, 0x0, 0x10, 0x0, 
0xc, 0x0, 0x0, 0x0, 0x8, 0x0, 0x4, 0x0, 0x14, 0x0, 0x0, 0x0, 0x1c, 0x0, 0x0, 0x0, 0x88, 0x0, 0x0, 0x0, 
0xe0, 0x0, 0x0, 0x0, 0xd0, 0x8f, 0x0, 0x0, 0xe0, 0x8f, 0x0, 0x0, 0x38, 0xb2, 0x0, 0x0, 0x3, 0x0, 0x0, 0x0, 
0x1, 0x0, 0x0, 0x0, 0x4, 0x0, 0x0, 0x0, 0x52, 0x6f, 0xff, 0xff, 0xc, 0x0, 0x0, 0x0, 0x1c, 0x0, 0x0, 0x0, 
0x3c, 0x0, 0x0, 0x0, 0xf, 0x0, 0x0, 0x0, 0x73, 0x65, 0x72, 0x76, 0x69, 0x6e, 0x67, 0x5f, 0x64, 0x65, 0x66, 0x61, 
0x75, 0x6c, 0x74, 0x0, 0x1, 0x0, 0x0, 0x0, 0x4, 0x0, 0x0, 0x0, 0x94, 0xff, 0xff, 0xff, 0x1a, 0x0, 0x0, 0x0, 
0x4, 0x0, 0x0, 0x0, 0x8, 0x0, 0x0, 0x0, 0x64, 0x65, 0x6e, 0x73, 0x65, 0x5f, 0x33, 0x36, 0x0, 0x0, 0x0, 0x0, 
0x1, 0x0, 0x0, 0x0, 0x4, 0x0, 0x0, 0x0, 0xba, 0x70, 0xff, 0xff, 0x4, 0x0, 0x0, 0x0, 0x8, 0x0, 0x0, 0x0, 
0x69, 0x6e, 0x70, 0x75, 0x74, 0x5f, 0x31, 0x37, 0x0, 0x0, 0x0, 0x0, 0x2, 0x0, 0x0, 0x0, 0x34, 0x0, 0x0, 0x0, 
0x4, 0x0, 0x0, 0x0, 0xdc, 0xff, 0xff, 0xff, 0x1d, 0x0, 0x0, 0x0, 0x4, 0x0, 0x0, 0x0, 0x13, 0x0, 0x0, 0x0, 
0x43, 0x4f, 0x4e, 0x56, 0x45, 0x52, 0x53, 0x49, 0x4f, 0x4e, 0x5f, 0x4d, 0x45, 0x54, 0x41, 0x44, 0x41, 0x54, 0x41, 0x0, 
0x8, 0x0, 0xc, 0x0, 0x8, 0x0, 0x4, 0x0, 0x8, 0x0, 0x0, 0x0, 0x1c, 0x0, 0x0, 0x0, 0x4, 0x0, 0x0, 0x0, 
0x13, 0x0, 0x0, 0x0, 0x6d, 0x69, 0x6e, 0x5f, 0x72, 0x75, 0x6e, 0x74, 0x69, 0x6d, 0x65, 0x5f, 0x76, 0x65, 0x72, 0x73, 
0x69, 0x6f, 0x6e, 0x0, 0x1e, 0x0, 0x0, 0x0, 0xec, 0x8e, 0x0, 0x0, 0xe4, 0x8e, 0x0, 0x0, 0xcc, 0x8e, 0x0, 0x0, 
0xa4, 0x8e, 0x0, 0x0, 0x94, 0x8c, 0x0, 0x0, 0x84, 0x8a, 0x0, 0x0, 0x74, 0x2a, 0x0, 0x0, 0xe4, 0x29, 0x0, 0x0, 
0xd4, 0x5, 0x0, 0x0, 0x44, 0x5, 0x0, 0x0, 0x14, 0x4, 0x0, 0x0, 0x84, 0x3, 0x0, 0x0, 0x74, 0x2, 0x0, 0x0, 
0x44, 0x2, 0x0, 0x0, 0x6c, 0x1, 0x0, 0x0, 0x3c, 0x1, 0x0, 0x0, 0xe4, 0x0, 0x0, 0x0, 0xdc, 0x0, 0x0, 0x0, 
0xd4, 0x0, 0x0, 0x0, 0xcc, 0x0, 0x0, 0x0, 0xc4, 0x0, 0x0, 0x0, 0xbc, 0x0, 0x0, 0x0, 0xb4, 0x0, 0x0, 0x0, 
0xac, 0x0, 0x0, 0x0, 0xa4, 0x0, 0x0, 0x0, 0x9c, 0x0, 0x0, 0x0, 0x94, 0x0, 0x0, 0x0, 0x8c, 0x0, 0x0, 0x0, 
0x6c, 0x0, 0x0, 0x0, 0x4, 0x0, 0x0, 0x0, 0xaa, 0x71, 0xff, 0xff, 0x4, 0x0, 0x0, 0x0, 0x58, 0x0, 0x0, 0x0, 
0xc, 0x0, 0x0, 0x0, 0x8, 0x0, 0xe, 0x0, 0x8, 0x0, 0x4, 0x0, 0x8, 0x0, 0x0, 0x0, 0x10, 0x0, 0x0, 0x0, 
0x28, 0x0, 0x0, 0x0, 0x0, 0x0, 0x6, 0x0, 0x8, 0x0, 0x4, 0x0, 0x6, 0x0, 0x0, 0x0, 0x4, 0x0, 0x0, 0x0, 
0x1, 0x0, 0x0, 0x0, 0xeb, 0x3, 0x0, 0x0, 0x0, 0x0, 0xa, 0x0, 0x10, 0x0, 0xc, 0x0, 0x8, 0x0, 0x4, 0x0, 
0xa, 0x0, 0x0, 0x0, 0x2, 0x0, 0x0, 0x0, 0x2, 0x0, 0x0, 0x0, 0x4, 0x0, 0x0, 0x0, 0x6, 0x0, 0x0, 0x0, 
0x32, 0x2e, 0x31, 0x30, 0x2e, 0x31, 0x0, 0x0, 0xe, 0x72, 0xff, 0xff, 0x4, 0x0, 0x0, 0x0, 0x10, 0x0, 0x0, 0x0, 
0x31, 0x2e, 0x31, 0x34, 0x2e, 0x30, 0x0, 0x0, 0x0, 0x0, 0x0, 0x0, 0x0, 0x0, 0x0, 0x0, 0x74, 0x50, 0xff, 0xff, 
0x78, 0x50, 0xff, 0xff, 0x7c, 0x50, 0xff, 0xff, 0x80, 0x50, 0xff, 0xff, 0x84, 0x50, 0xff, 0xff, 0x88, 0x50, 0xff, 0xff, 
0x8c, 0x50, 0xff, 0xff, 0x90, 0x50, 0xff, 0xff, 0x94, 0x50, 0xff, 0xff, 0x98, 0x50, 0xff, 0xff, 0x9c, 0x50, 0xff, 0xff, 
0x56, 0x72, 0xff, 0xff, 0x4, 0x0, 0x0, 0x0, 0x48, 0x0, 0x0, 0x0, 0x34, 0x24, 0x22, 0x7f, 0xf0, 0xd6, 0x54, 0xc3, 
0x13, 0x34, 0xeb, 0x19, 0x5c, 0x81, 0xbe, 0xdb, 0xeb, 0x96, 0x19, 0x7, 0xe9, 0x3a, 0x81, 0xaa, 0x47, 0xe2, 0xc, 0xd2, 
0xc3, 0xf, 0x84, 0xed, 0x1b, 0x81, 0x35, 0x38, 0xc, 0xa, 0xc4, 0x7f, 0x37, 0x63, 0x12, 0x23, 0xf9, 0x34, 0xfe, 0xbb, 
0xb2, 0xfc, 0x5, 0xca, 0x61, 0x81, 0xef, 0x35, 0xac, 0xfb, 0xdf, 0x34, 0x7f, 0x56, 0x2c, 0xd4, 0x81, 0xbe, 0x5d, 0xfa, 
0x9a, 0x74, 0x77, 0xe2, 0xaa, 0x72, 0xff, 0xff, 0x4, 0x0, 0x0, 0x0, 0x20, 0x0, 0x0, 0x0, 0x82, 0x78, 0xff, 0xff, 
0x5c, 0x7b, 0x0, 0x0, 0x12, 0x37, 0x0, 0x0, 0x61, 0x89, 0x0, 0x0, 0x3, 0x4c, 0xff, 0xff, 0x6f, 0x5a, 0x0, 0x0, 
0xf1, 0x7e, 0xff, 0xff, 0x59, 0x25, 0x0, 0x0, 0xd6, 0x72, 0xff, 0xff, 0x4, 0x0, 0x0, 0x0, 0xc8, 0x0, 0x0, 0x0, 
0xe, 0xaa, 0x67, 0xef, 0x4, 0x68, 0xa, 0x41, 0x1c, 0x12, 0xda, 0x25, 0x36, 0x9c, 0xc6, 0x22, 0x6f, 0xe, 0xee, 0x3d, 
0xaa, 0xac, 0xc, 0x82, 0xcd, 0xf4, 0xe8, 0x9e, 0x39, 0x1e, 0x61, 0x38, 0x60, 0xf7, 0x30, 0x41, 0x48, 0x89, 0x30, 0xc5, 
0x25, 0x15, 0xbd, 0xd5, 0xf1, 0xc5, 0x21, 0xd9, 0x3b, 0x21, 0x91, 0x4e, 0xcd, 0x79, 0x89, 0xd0, 0x11, 0xbf, 0x68, 0x7f, 
0x4c, 0xd3, 0xb, 0x3c, 0x86, 0x11, 0x31, 0xaa, 0xfb, 0x5a, 0xc4, 0x8, 0x17, 0x81, 0xf6, 0xfa, 0xe9, 0xb0, 0x2a, 0x6e, 
0xfc, 0xbb, 0x2d, 0x3c, 0x81, 0x3f, 0x7, 0xdf, 0xfd, 0xb5, 0x7, 0xfa, 0xdb, 0x4a, 0xb4, 0x2, 0x63, 0xeb, 0xd7, 0x4e, 
0x22, 0x20, 0xa7, 0xd1, 0x95, 0x30, 0x2d, 0xa2, 0x15, 0xf4, 0xe7, 0x16, 0xa6, 0xca, 0x3c, 0x41, 0xe4, 0xf6, 0xd2, 0x4e, 
0x99, 0xa7, 0xe3, 0xe6, 0xc7, 0xa7, 0x30, 0xf2, 0x40, 0xd4, 0x22, 0xeb, 0xc6, 0x7f, 0x9, 0x7e, 0x24, 0x41, 0x27, 0x74, 
0xd0, 0x86, 0x81, 0x5d, 0xc8, 0xea, 0x5a, 0x3d, 0xf3, 0xd7, 0xdc, 0xfb, 0xd3, 0x23, 0x5, 0x9, 0x4e, 0xb7, 0x93, 0xcf, 
0x25, 0xd0, 0xf6, 0x51, 0x5f, 0x22, 0x66, 0x7a, 0x5b, 0x52, 0x65, 0x77, 0x4b, 0xd, 0xd8, 0x7f, 0xb9, 0x1b, 0xfd, 0x48, 
0x69, 0xde, 0xdc, 0xb0, 0xb7, 0x46, 0x7f, 0x7a, 0xda, 0xfa, 0xab, 0x6a, 0x7f, 0x1, 0x41, 0x4, 0x9, 0x4b, 0x69, 0x23, 
0xaa, 0x73, 0xff, 0xff, 0x4, 0x0, 0x0, 0x0, 0x20, 0x0, 0x0, 0x0, 0x75, 0xf5, 0xff, 0xff, 0x9d, 0x16, 0x0, 0x0, 
0xf6, 0xda, 0xff, 0xff, 0x4c, 0xcc, 0xff, 0xff, 0x88, 0xfe, 0xff, 0xff, 0x78, 0x3, 0x0, 0x0, 0xf8, 0x18, 0x0, 0x0, 
0x9f, 0xe1, 0xff, 0xff, 0xd6, 0x73, 0xff, 0xff, 0x4, 0x0, 0x0, 0x0, 0x0, 0x1, 0x0, 0x0, 0x7f, 0x47, 0x1d, 0x3, 
0x23, 0x34, 0xa1, 0xd5, 0x79, 0x9a, 0x6f, 0xb8, 0x35, 0xb4, 0x81, 0xeb, 0xaa, 0x50, 0x6b, 0xad, 0xc8, 0xd6, 0x7f, 0xd8, 
0xa0, 0x7f, 0xac, 0xc3, 0x3a, 0xde, 0xac, 0x46, 0x69, 0xce, 0xcd, 0x54, 0x2, 0xe1, 0x7f, 0xb1, 0x16, 0xb4, 0xd4, 0x66, 
0x81, 0xcc, 0x15, 0x24, 0x8, 0xc7, 0x81, 0xd4, 0x5e, 0x48, 0xc4, 0xff, 0x74, 0x6, 0xea, 0xef, 0x7b, 0x4d, 0x7f, 0x5e, 
0x45, 0x71, 0x14, 0xfa, 0x3e, 0xa5, 0xc8, 0x81, 0x98, 0x8e, 0x7e, 0x81, 0x73, 0x8e, 0x27, 0x92, 0xe1, 0x7e, 0x49, 0x89, 
0x81, 0x42, 0x73, 0xc9, 0x7f, 0xa2, 0xf9, 0x18, 0x8a, 0x13, 0xa3, 0xc1, 0xe, 0xa, 0xe6, 0x1c, 0x5f, 0x7, 0x7f, 0x1a, 
0x91, 0x4d, 0x81, 0x71, 0xfe, 0x30, 0x1d, 0x9e, 0x27, 0x81, 0xf0, 0xbb, 0x6e, 0x7c, 0x62, 0x52, 0x15, 0xd2, 0xe8, 0x81, 
0xb2, 0xe8, 0xd8, 0x1a, 0x73, 0xa2, 0xe9, 0xb1, 0x4c, 0x7f, 0x3d, 0xa1, 0x30, 0x46, 0xae, 0xb4, 0xd8, 0x86, 0x7f, 0xb7, 
0xde, 0x8, 0x4, 0x21, 0x81, 0x51, 0x7, 0x6, 0x21, 0xbe, 0xc4, 0x4c, 0xf4, 0x29, 0x81, 0xa9, 0xcd, 0xe0, 0xae, 0xf9, 
0xc9, 0xd8, 0xa7, 0x7f, 0x1f, 0x2a, 0x39, 0xbe, 0x72, 0x41, 0x89, 0x7f, 0xa5, 0x7f, 0xcd, 0xa5, 0xf3, 0x93, 0xf1, 0x4b, 
0x73, 0x5a, 0xd0, 0x48, 0x9a, 0x74, 0x81, 0xe5, 0x19, 0xb8, 0xc2, 0x60, 0xaf, 0xc3, 0x7f, 0x2f, 0x0, 0x9e, 0xce, 0x59, 
0x7f, 0x13, 0x9e, 0x6f, 0x61, 0xeb, 0x44, 0xdc, 0x81, 0xdf, 0xe6, 0xf6, 0xdb, 0xbc, 0xbe, 0xcd, 0x30, 0x95, 0x81, 0xf5, 
0x42, 0xae, 0x75, 0xf2, 0x50, 0x8a, 0x7f, 0x20, 0x50, 0xf, 0xa5, 0x7f, 0xd2, 0xbc, 0x8, 0x67, 0x97, 0x16, 0x7f, 0x78, 
0x45, 0x89, 0xc9, 0x73, 0xcc, 0x92, 0x98, 0x5e, 0xf2, 0x7f, 0xff, 0x8c, 0xe2, 0x74, 0xff, 0xff, 0x4, 0x0, 0x0, 0x0, 
0x80, 0x0, 0x0, 0x0, 0x18, 0xff, 0xff, 0xff, 0x98, 0x0, 0x0, 0x0, 0x83, 0xfe, 0xff, 0xff, 0xe8, 0xfd, 0xff, 0xff, 
0x82, 0x1, 0x0, 0x0, 0xc, 0xfe, 0xff, 0xff, 0x95, 0x0, 0x0, 0x0, 0xc1, 0xff, 0xff, 0xff, 0xa2, 0x0, 0x0, 0x0, 
0x96, 0xff, 0xff, 0xff, 0x75, 0xff, 0xff, 0xff, 0x44, 0x0, 0x0, 0x0, 0x5f, 0xff, 0xff, 0xff, 0x3f, 0xfd, 0xff, 0xff, 
0x70, 0x4, 0x0, 0x0, 0x0, 0x0, 0x0, 0x0, 0xf8, 0xf6, 0xff, 0xff, 0x55, 0xfc, 0xff, 0xff, 0x4, 0x0, 0x0, 0x0, 
0xea, 0xfe, 0xff, 0xff, 0xed, 0x0, 0x0, 0x0, 0x95, 0xfd, 0xff, 0xff, 0x46, 0x0, 0x0, 0x0, 0x25, 0x0, 0x0, 0x0, 
0xe7, 0x1, 0x0, 0x0, 0x4b, 0x2, 0x0, 0x0, 0x93, 0x0, 0x0, 0x0, 0xf0, 0xfe, 0xff, 0xff, 0x13, 0x4, 0x0, 0x0, 
0x3, 0x0, 0x0, 0x0, 0xb8, 0xfb, 0xff, 0xff, 0xfb, 0xff, 0xff, 0xff, 0x6e, 0x75, 0xff, 0xff, 0x4, 0x0, 0x0, 0x0, 
0x20, 0x1, 0x0, 0x0, 0x2b, 0x15, 0x81, 0x7f, 0xea, 0x4e, 0xb5, 0xbe, 0x25, 0x75, 0x8a, 0x7d, 0xf6, 0xee, 0x7, 0x81, 
0xd7, 0x59, 0xeb, 0x3a, 0xf2, 0xff, 0x5e, 0x36, 0x21, 0x81, 0x94, 0xf4, 0x44, 0x13, 0x18, 0x23, 0xff, 0x7f, 0x2, 0xfb, 
0xe, 0x19, 0xb8, 0x18, 0xcb, 0xef, 0x3d, 0x1f, 0xf4, 0x1d, 0x77, 0x6f, 0xc, 0x2a, 0xd1, 0xae, 0x44, 0xb8, 0xd8, 0x81, 
0x42, 0xfe, 0xf0, 0x59, 0xeb, 0x82, 0x45, 0xe6, 0x32, 0x12, 0x4d, 0xfa, 0x42, 0x7f, 0x99, 0x64, 0xcc, 0x84, 0xe, 0x81, 
0xb6, 0xf0, 0xe2, 0x54, 0xee, 0x6, 0x81, 0xc8, 0xe7, 0x1a, 0x29, 0x17, 0xeb, 0xbf, 0x26, 0x1f, 0xca, 0xe1, 0x62, 0x13, 
0xe4, 0x4, 0x83, 0x3c, 0x43, 0xbf, 0xf4, 0xb9, 0x4f, 0x19, 0x9, 0xc4, 0x12, 0xd7, 0x1e, 0xd2, 0x5e, 0x6f, 0xd, 0x79, 
0x9b, 0x16, 0x7f, 0xfd, 0x57, 0x13, 0xc1, 0x7b, 0x9f, 0x81, 0xad, 0xaf, 0x83, 0xd, 0xce, 0x39, 0xbd, 0xfb, 0x1c, 0x7f, 
0x30, 0x41, 0x7f, 0x54, 0x9, 0x2c, 0x90, 0x49, 0x9c, 0xa, 0x56, 0x81, 0x49, 0x44, 0x35, 0xc9, 0xc9, 0x10, 0xa7, 0x65, 
0x4c, 0x13, 0x9e, 0xab, 0x95, 0x3e, 0xf2, 0xae, 0xb3, 0xb9, 0x3c, 0x92, 0x53, 0x4e, 0x15, 0x58, 0x41, 0x7f, 0x7f, 0x3d, 
0x2a, 0xa3, 0x1b, 0xa7, 0x7f, 0x4, 0xc, 0x15, 0x22, 0xfb, 0xae, 0xa, 0x7f, 0x1e, 0x5f, 0x7f, 0xf1, 0x9a, 0x1b, 0x94, 
0x7f, 0x12, 0x19, 0x3e, 0xf2, 0xf3, 0x4, 0xff, 0x3, 0x5c, 0x41, 0x12, 0xdd, 0x86, 0x28, 0x63, 0xbd, 0x81, 0xc8, 0xf4, 
0xf4, 0x14, 0x7f, 0xc9, 0x53, 0x7, 0xc1, 0xb5, 0x7, 0x67, 0x11, 0xb8, 0x1e, 0xb5, 0x81, 0xcc, 0x81, 0xd6, 0x62, 0xff, 
0x7f, 0x26, 0x44, 0xfb, 0x72, 0x7f, 0xee, 0x2, 0xb9, 0x5b, 0x1b, 0x23, 0xf2, 0xc, 0xca, 0x81, 0xac, 0x22, 0x81, 0x1c, 
0x81, 0x11, 0xa, 0xd2, 0xae, 0x93, 0xae, 0xb9, 0xe4, 0x81, 0xc4, 0x55, 0x36, 0x33, 0xb, 0x8a, 0x7f, 0x98, 0x32, 0xea, 
0xbb, 0x59, 0x18, 0x7, 0x81, 0x35, 0xdb, 0x33, 0x19, 0x45, 0xe0, 0x36, 0x9a, 0x76, 0xff, 0xff, 0x4, 0x0, 0x0, 0x0, 
0x80, 0x0, 0x0, 0x0, 0xfc, 0xd, 0x0, 0x0, 0x90, 0xf2, 0xff, 0xff, 0x7f, 0x7, 0x0, 0x0, 0x52, 0x1, 0x0, 0x0, 
0xc0, 0xfd, 0xff, 0xff, 0x6a, 0x2, 0x0, 0x0, 0xfb, 0xc, 0x0, 0x0, 0xd, 0x2, 0x0, 0x0, 0x73, 0x0, 0x0, 0x0, 
0xd, 0x2, 0x0, 0x0, 0xef, 0xf8, 0xff, 0xff, 0x44, 0xf3, 0xff, 0xff, 0xf3, 0xf7, 0xff, 0xff, 0x29, 0xf6, 0xff, 0xff, 
0xf4, 0xf2, 0xff, 0xff, 0xd0, 0xfb, 0xff, 0xff, 0xb7, 0xfa, 0xff, 0xff, 0x3d, 0xfd, 0xff, 0xff, 0xd4, 0xfd, 0xff, 0xff, 
0x11, 0x3, 0x0, 0x0, 0x52, 0x0, 0x0, 0x0, 0x29, 0xfc, 0xff, 0xff, 0xad, 0xf2, 0xff, 0xff, 0xbb, 0x1, 0x0, 0x0, 
0x7f, 0x1, 0x0, 0x0, 0x48, 0x2, 0x0, 0x0, 0xa3, 0xd, 0x0, 0x0, 0x8, 0xf7, 0xff, 0xff, 0xd1, 0xfc, 0xff, 0xff, 
0x8c, 0x3, 0x0, 0x0, 0x87, 0x4, 0x0, 0x0, 0x59, 0xfe, 0xff, 0xff, 0x26, 0x77, 0xff, 0xff, 0x4, 0x0, 0x0, 0x0, 
0x0, 0x24, 0x0, 0x0, 0x28, 0xcc, 0xd8, 0x78, 0xdf, 0xd, 0x44, 0xec, 0x3a, 0x14, 0xe4, 0xb, 0x25, 0x1f, 0x20, 0x1e, 
0x14, 0xf7, 0xfa, 0xd3, 0x44, 0xdf, 0xe8, 0xf1, 0xa, 0xe, 0x6, 0x17, 0x23, 0xf4, 0xa8, 0xe5, 0xc5, 0xf6, 0x60, 0xe6, 
0xe9, 0x33, 0x1b, 0x28, 0xed, 0x1d, 0xf1, 0x4f, 0x11, 0xb3, 0xf, 0xf9, 0xfc, 0xf2, 0xf1, 0xd8, 0x2d, 0xe9, 0xfe, 0xe5, 
0xd5, 0xef, 0x37, 0xf2, 0x17, 0x3f, 0xf7, 0x8, 0xc5, 0xd2, 0x55, 0x11, 0x37, 0xd4, 0xc0, 0x63, 0xc1, 0xf6, 0x59, 0xe, 
0x23, 0xd8, 0xfb, 0xbd, 0xe1, 0xa5, 0xed, 0x7f, 0xf0, 0x2f, 0x2b, 0x28, 0xb7, 0x10, 0x66, 0xd9, 0xdb, 0xfd, 0xdd, 0x2d, 
0x5, 0xea, 0xe7, 0xc9, 0x20, 0xf2, 0x14, 0x11, 0x32, 0xd4, 0x31, 0xd, 0xf3, 0xea, 0x1a, 0xe5, 0xf4, 0xe7, 0xb, 0x2, 
0x38, 0xe2, 0x33, 0xd1, 0xc, 0x39, 0xf6, 0xab, 0xed, 0x2c, 0x3e, 0x33, 0xf7, 0xf5, 0x8, 0x0, 0xe3, 0x30, 0x1a, 0xe, 
0xf6, 0xf8, 0x9, 0xf8, 0x5b, 0xf0, 0x2d, 0x42, 0x26, 0xd, 0xff, 0xe5, 0x3e, 0xf6, 0xf3, 0x4b, 0xbd, 0xfc, 0x1a, 0x11, 
0x20, 0x1, 0xda, 0x28, 0xef, 0x10, 0x27, 0x48, 0x47, 0xe5, 0x25, 0xd7, 0x6, 0xcd, 0xcb, 0x49, 0xf8, 0x27, 0xc8, 0xf7, 
0x79, 0x9d, 0xce, 0xcb, 0xf5, 0x5, 0xcc, 0x20, 0x49, 0x1, 0x3c, 0xfc, 0x5, 0xcc, 0x5c, 0xe8, 0x16, 0xd, 0xe1, 0x21, 
0xfd, 0x4, 0x97, 0x7, 0x5f, 0x1d, 0x21, 0x14, 0xfd, 0xd4, 0x1c, 0xe8, 0x39, 0x24, 0x67, 0x2c, 0xee, 0xde, 0x1f, 0x9, 
0x4b, 0x7, 0xf1, 0xf, 0xe5, 0x1c, 0xca, 0xe3, 0xe0, 0xc3, 0x1f, 0x3, 0xfc, 0xda, 0xfb, 0xae, 0xec, 0x17, 0xe8, 0xaf, 
0xdf, 0x11, 0x3c, 0x1c, 0xd1, 0x27, 0xe5, 0xff, 0xd0, 0xdb, 0xba, 0xf2, 0xcb, 0xa9, 0x23, 0x17, 0xb, 0x2c, 0x9e, 0x1a, 
0xc8, 0x2, 0xdc, 0x1e, 0x28, 0xf9, 0xba, 0xdd, 0x2b, 0x30, 0xd3, 0xe0, 0xa, 0xc8, 0x6, 0x31, 0xf2, 0xed, 0x13, 0xf5, 
0xc2, 0x35, 0x28, 0xcb, 0x38, 0xd3, 0xd4, 0xc, 0x20, 0xe4, 0xd7, 0x1c, 0xfb, 0x5, 0x10, 0x25, 0x2f, 0x24, 0xfb, 0xe3, 
0x3, 0x9, 0xc2, 0x42, 0x55, 0x4b, 0xfe, 0x3e, 0xf6, 0x1c, 0xb2, 0xe9, 0x8, 0x16, 0x4a, 0x1b, 0x5b, 0xdd, 0xfc, 0x32, 
0xeb, 0xe5, 0xf6, 0xd5, 0x17, 0xc8, 0xee, 0x5c, 0xcf, 0xf1, 0x2c, 0x11, 0xe5, 0x3f, 0xd1, 0x10, 0xbd, 0x2c, 0x3d, 0xdb, 
0x5, 0x28, 0x12, 0xcf, 0xf9, 0x1e, 0x31, 0xfd, 0xf, 0xed, 0xab, 0xa, 0xdf, 0x17, 0x1c, 0x36, 0x36, 0xf5, 0xfd, 0x94, 
0x22, 0x11, 0xe5, 0xd0, 0xda, 0x1b, 0x3, 0x24, 0x19, 0xad, 0xfb, 0xe7, 0x14, 0xbd, 0xed, 0x6, 0xc, 0x5, 0x51, 0xe5, 
0x72, 0xeb, 0x4f, 0x6, 0xec, 0xba, 0x13, 0x30, 0xc, 0x34, 0xf7, 0xd4, 0x24, 0xe2, 0x26, 0x4, 0x15, 0x29, 0x9d, 0x20, 
0x34, 0xe, 0x44, 0xc4, 0xb5, 0xce, 0x2c, 0x2e, 0x1b, 0x1, 0x17, 0x10, 0x1e, 0xe6, 0xf4, 0xf6, 0xfb, 0xfd, 0x23, 0x13, 
0x21, 0x1b, 0xe4, 0xdf, 0x74, 0xd9, 0x3e, 0xd9, 0xf1, 0x25, 0x32, 0xf2, 0xd1, 0x24, 0x20, 0x13, 0xf1, 0x24, 0xd9, 0x2e, 
0xf1, 0x23, 0x2f, 0xcd, 0xf7, 0x23, 0x66, 0xd1, 0xfe, 0x6, 0xff, 0x1d, 0xd0, 0xdb, 0x35, 0x49, 0xfb, 0x28, 0xeb, 0x11, 
0xd1, 0xa0, 0x4b, 0xda, 0xfa, 0x42, 0xe1, 0x4, 0x3c, 0x98, 0xfd, 0xc8, 0x24, 0x17, 0x5, 0x6, 0x78, 0xfe, 0x30, 0x13, 
0xc2, 0xcf, 0x5c, 0xc5, 0x2d, 0xf6, 0xce, 0xb, 0xa, 0x2b, 0xe, 0xc4, 0xe5, 0x26, 0xd5, 0x2d, 0x7f, 0x23, 0x5b, 0x60, 
0x26, 0x3b, 0x4a, 0xeb, 0x52, 0xfd, 0x7, 0x1b, 0x6, 0xf9, 0x48, 0xca, 0xf8, 0x31, 0xca, 0x1f, 0xee, 0x9, 0x16, 0x35, 
0xae, 0x3a, 0x37, 0x9d, 0x36, 0x4a, 0xfb, 0xed, 0xfe, 0x25, 0xe5, 0xd, 0xa7, 0x9a, 0x1a, 0x1, 0x2d, 0xf2, 0x6, 0x21, 
0x3, 0x1e, 0x41, 0x1b, 0x26, 0x1e, 0xf8, 0xb8, 0x0, 0xd7, 0x31, 0xb, 0xa9, 0xd5, 0xde, 0xbb, 0xd3, 0x39, 0x22, 0x54, 
0xd7, 0xff, 0xf7, 0xf2, 0x7, 0xdd, 0xc6, 0x1a, 0x9a, 0x4b, 0xdf, 0xe7, 0xb5, 0x18, 0x23, 0x15, 0xd6, 0xfd, 0x10, 0xb, 
0x14, 0xe6, 0xfd, 0x6f, 0xf, 0xcd, 0x19, 0x36, 0xe, 0x53, 0x15, 0xf9, 0xf3, 0xd0, 0x13, 0x53, 0xed, 0xa, 0xf, 0xbd, 
0xf, 0xf0, 0x3d, 0xc3, 0xea, 0x31, 0xfe, 0xd, 0xdc, 0xe7, 0xed, 0x4, 0x7, 0xe8, 0xcc, 0x1c, 0xfd, 0xe6, 0xe4, 0xc, 
0xfb, 0xe6, 0xe8, 0xad, 0x26, 0x18, 0x3a, 0xc7, 0xe, 0x26, 0xda, 0x37, 0xce, 0x1c, 0xf5, 0x22, 0xe, 0xbb, 0xe0, 0xec, 
0x1e, 0xd, 0xb0, 0x23, 0xec, 0x2c, 0x1d, 0xd, 0xd2, 0x17, 0xe9, 0x3d, 0xa, 0x2e, 0x3, 0x37, 0x9e, 0x1, 0xdb, 0x2e, 
0x1b, 0xe5, 0x9, 0xaa, 0x0, 0x10, 0xf, 0xcf, 0x4, 0xd4, 0x9f, 0xb6, 0x9, 0x40, 0xd2, 0x2, 0x46, 0x5f, 0x19, 0x2b, 
0xf9, 0x1e, 0x49, 0x1c, 0x6, 0xf7, 0xf0, 0xb0, 0x14, 0x5f, 0x22, 0xf0, 0xf9, 0x60, 0x16, 0xca, 0x19, 0xf7, 0x1, 0xf1, 
0x2e, 0x7, 0xf5, 0x93, 0xd3, 0xdf, 0xd, 0xd5, 0x26, 0x9, 0xec, 0x5, 0xb2, 0x14, 0x1e, 0xf9, 0xe4, 0x3d, 0x24, 0xf0, 
0x2c, 0x49, 0x19, 0x2c, 0x51, 0x28, 0x2, 0xca, 0xf, 0xbc, 0xb3, 0xef, 0xc0, 0xea, 0x65, 0xcc, 0xc, 0xfc, 0xfe, 0xe8, 
0xc2, 0x51, 0x35, 0x3a, 0xf9, 0xc, 0xbd, 0xb6, 0x11, 0xf6, 0x37, 0x33, 0xb6, 0x3c, 0xb0, 0xd1, 0xe0, 0xce, 0xab, 0xd5, 
0x1c, 0xf8, 0x81, 0xa2, 0x48, 0xb8, 0xe6, 0x69, 0xee, 0x29, 0x37, 0xee, 0xff, 0x21, 0xf2, 0x6c, 0x6, 0xcb, 0xca, 0x35, 
0x32, 0xd7, 0xfc, 0x21, 0x61, 0xd2, 0x8, 0x39, 0xf1, 0xcf, 0x4d, 0x2c, 0x31, 0xcf, 0x50, 0xce, 0xda, 0xf2, 0x2d, 0x9, 
0xf8, 0x6, 0xf7, 0x10, 0xa5, 0x2a, 0xc4, 0x2f, 0xb2, 0xd8, 0xa, 0xf5, 0xf2, 0x8, 0x26, 0x2f, 0xd, 0xa7, 0x7, 0xf0, 
0xc9, 0xeb, 0x2, 0xa, 0xd2, 0xe1, 0x1e, 0xbb, 0xfb, 0xa, 0x11, 0xf7, 0xc3, 0x16, 0xc, 0x8d, 0x62, 0x10, 0xef, 0xea, 
0x27, 0x9c, 0xd8, 0xa3, 0x43, 0x22, 0x2, 0x1a, 0x27, 0xcd, 0xe9, 0xe4, 0xb9, 0x1a, 0xf, 0x43, 0xcc, 0xde, 0xfa, 0xea, 
0xf1, 0x19, 0xbe, 0xdd, 0xc, 0x26, 0x45, 0x28, 0xf, 0x8, 0x18, 0xed, 0x3f, 0x21, 0xeb, 0x13, 0xc, 0x1f, 0x0, 0xf0, 
0x0, 0xe, 0x30, 0x0, 0x4a, 0xf, 0x25, 0xec, 0xfa, 0x0, 0xa, 0xf1, 0x45, 0xfc, 0x32, 0xde, 0x6, 0x10, 0x5, 0x4, 
0xda, 0x33, 0xf4, 0xf9, 0x47, 0x58, 0xfd, 0x30, 0xc, 0xde, 0xbb, 0xff, 0x17, 0xf0, 0x14, 0xb6, 0x10, 0x0, 0xf4, 0xf, 
0x26, 0xf2, 0xf8, 0x11, 0xd, 0x8, 0xd2, 0xc, 0xc, 0xfa, 0xe6, 0xeb, 0xc5, 0xfc, 0xe5, 0x33, 0xf6, 0xd, 0xd0, 0xa, 
0x12, 0x15, 0xd5, 0xe7, 0xd1, 0x12, 0xa, 0xbe, 0x4, 0x30, 0xf7, 0x8, 0xe6, 0x16, 0xfe, 0x14, 0x35, 0xf9, 0x3e, 0xfd, 
0x4, 0x2, 0xca, 0xe9, 0xe8, 0x49, 0xf2, 0xe0, 0xc, 0xbe, 0xc, 0x12, 0xc0, 0x33, 0x9d, 0xf2, 0xdf, 0xfa, 0xe, 0x29, 
0x6, 0x0, 0xc7, 0x45, 0x14, 0x27, 0x3c, 0x23, 0x25, 0x1c, 0x2c, 0xdf, 0x2e, 0xfa, 0xcd, 0xd3, 0xde, 0x1, 0xfc, 0x13, 
0xc3, 0xf2, 0xf2, 0xe9, 0xf3, 0xfa, 0x31, 0x11, 0xc4, 0x11, 0xf4, 0xd9, 0x18, 0xa, 0xfe, 0xe9, 0xff, 0x34, 0xdb, 0xf9, 
0x1b, 0x3c, 0xa3, 0x15, 0xe2, 0xf2, 0x14, 0xea, 0x0, 0xc, 0x13, 0xfb, 0xe3, 0xf1, 0xef, 0xdf, 0x3c, 0x8, 0xbc, 0xeb, 
0x4, 0x35, 0x29, 0xf1, 0xdd, 0xf2, 0xf6, 0xfe, 0xcc, 0xe6, 0xed, 0xef, 0xd1, 0xf0, 0xf, 0x7, 0xc7, 0xea, 0x3c, 0xee, 
0xcd, 0xf, 0xfe, 0x14, 0xd2, 0x3b, 0xe2, 0xf7, 0x1c, 0x18, 0xc1, 0xe5, 0x31, 0x13, 0xe4, 0xd0, 0xeb, 0xc0, 0xd9, 0x12, 
0xe, 0x77, 0x9, 0xfc, 0x3c, 0x12, 0xb, 0x2a, 0xed, 0xf5, 0x4d, 0xc2, 0xe8, 0x2d, 0x1c, 0x7f, 0xc9, 0xe6, 0x14, 0x48, 
0x1f, 0xf9, 0x41, 0x1c, 0xc0, 0xc4, 0x4, 0xfb, 0x38, 0xf8, 0x41, 0xda, 0xcf, 0xf0, 0xc3, 0x16, 0xf6, 0x3c, 0xf, 0x60, 
0xd0, 0xe4, 0xd6, 0xf5, 0x30, 0xf3, 0xea, 0x1d, 0xff, 0x25, 0x3, 0xf8, 0x4b, 0x24, 0xfb, 0xe9, 0x3, 0x13, 0x16, 0xe9, 
0xcb, 0x33, 0x19, 0xd9, 0xf5, 0x1f, 0xb1, 0x3, 0xbf, 0xeb, 0xc6, 0x2c, 0x23, 0xc, 0xfc, 0xed, 0x17, 0x51, 0x1c, 0xe, 
0xa5, 0xba, 0x20, 0xd1, 0x51, 0xf0, 0x2b, 0xf4, 0xe0, 0x1a, 0x18, 0xf4, 0x9, 0xd3, 0x20, 0xa, 0xce, 0x3c, 0xad, 0xfa, 
0xf3, 0x16, 0xe, 0x53, 0xef, 0xd2, 0xe3, 0x3f, 0x4, 0x24, 0x33, 0xc, 0x2a, 0xf, 0xa, 0x2c, 0x18, 0x35, 0xc7, 0xe4, 
0xf4, 0xd8, 0xee, 0x11, 0xf0, 0x58, 0xd4, 0x5, 0xe5, 0x9, 0x2, 0xe4, 0xe2, 0x12, 0xe8, 0x1b, 0xf7, 0xf9, 0x1b, 0xe4, 
0xe3, 0xfe, 0xcc, 0xdf, 0xdd, 0xf2, 0x33, 0xa4, 0xb9, 0x18, 0xfc, 0x6, 0xef, 0xec, 0x25, 0xd7, 0x23, 0xf5, 0xaf, 0xf5, 
0xbb, 0x12, 0x37, 0x4, 0x31, 0x5f, 0x4, 0xe1, 0x13, 0x3, 0x1e, 0xcd, 0xd7, 0x12, 0xd1, 0x72, 0xc, 0xcb, 0x4, 0xc9, 
0x18, 0x29, 0x66, 0xc4, 0xe1, 0x14, 0xe4, 0x3f, 0x51, 0xd2, 0x2e, 0xd1, 0xb8, 0xca, 0x4, 0xe8, 0xf1, 0x9, 0xf8, 0x51, 
0x27, 0x2a, 0x5, 0x22, 0x3, 0xec, 0xe2, 0xf6, 0x2, 0x1f, 0x1b, 0x2, 0xf1, 0xe2, 0xf1, 0xb1, 0x5d, 0xb8, 0x2b, 0x10, 
0x17, 0x2c, 0xe8, 0xbf, 0xf8, 0xad, 0xcf, 0xe1, 0xb5, 0x25, 0x23, 0xde, 0xfb, 0x1e, 0x12, 0xf6, 0xd5, 0x25, 0x3, 0x97, 
0xe2, 0x5, 0xf6, 0x32, 0xd9, 0xff, 0xeb, 0xf9, 0x18, 0xe2, 0xd3, 0x18, 0x16, 0x2c, 0xe7, 0x1e, 0xf5, 0x26, 0xd1, 0xcc, 
0xfd, 0x11, 0xe3, 0x7, 0xa9, 0x1e, 0xf3, 0x25, 0x46, 0x2, 0x39, 0xfc, 0xf7, 0xc0, 0x39, 0xd7, 0xce, 0xe6, 0x86, 0xd5, 
0x20, 0x1b, 0x1, 0x0, 0xee, 0x9, 0x28, 0xd1, 0xe, 0xfe, 0xe6, 0x1f, 0xd7, 0x5e, 0xdd, 0xd2, 0xf9, 0xcb, 0xd2, 0x9, 
0xc, 0xe3, 0xf7, 0xf5, 0x43, 0xd, 0xcb, 0x15, 0xec, 0xc3, 0x3, 0xf6, 0xf9, 0x35, 0x10, 0x1, 0x0, 0x12, 0xec, 0xdf, 
0x45, 0xf0, 0xd4, 0xee, 0xdd, 0xfd, 0xf3, 0xf8, 0xd8, 0xd, 0xd9, 0xe7, 0xc2, 0x1c, 0xb1, 0xf, 0x64, 0x3b, 0x9a, 0xb, 
0xeb, 0xfe, 0x3, 0x2c, 0xc, 0x1a, 0xd, 0xb8, 0xf7, 0xd, 0x18, 0xe1, 0x1b, 0xf4, 0x5, 0x47, 0x23, 0xe8, 0x33, 0x7f, 
0xfc, 0xe7, 0x11, 0xd1, 0x4c, 0xc0, 0x1e, 0x19, 0x40, 0x32, 0xf3, 0xf, 0xf3, 0x26, 0xe2, 0x2d, 0x1, 0xf3, 0xff, 0x18, 
0xfc, 0x1b, 0x27, 0x32, 0x34, 0x14, 0xe7, 0xf7, 0xf, 0x4, 0x16, 0xdd, 0x29, 0xfb, 0x1b, 0xe9, 0x1e, 0xe8, 0xa, 0xea, 
0xf8, 0x6, 0xa, 0xa, 0x18, 0x21, 0x25, 0xc8, 0xee, 0xf3, 0x1c, 0xd6, 0x34, 0xe3, 0x1b, 0x2f, 0xe0, 0xed, 0x24, 0x7, 
0xcf, 0x3, 0xee, 0x4, 0xe7, 0x11, 0xc8, 0x2f, 0x7, 0xec, 0xa3, 0xe, 0xde, 0x0, 0xed, 0xfb, 0x2f, 0xc6, 0x11, 0xe8, 
0xe7, 0x1b, 0x10, 0x1d, 0x46, 0xf0, 0xfd, 0xf1, 0x2, 0x41, 0x2e, 0x22, 0xf8, 0x3, 0xf0, 0x10, 0xc6, 0x25, 0xd7, 0xda, 
0xf9, 0xd9, 0x4a, 0xd3, 0xfe, 0x25, 0x16, 0xe9, 0xbb, 0x1a, 0xea, 0x7b, 0x2, 0xb, 0xd5, 0x44, 0x18, 0xf4, 0xda, 0x3, 
0xf4, 0xc4, 0x11, 0x16, 0xf7, 0xe8, 0x17, 0xe7, 0xcb, 0xd6, 0xfd, 0x6, 0x39, 0xfd, 0xe, 0x44, 0xfb, 0xc2, 0xe2, 0xf5, 
0x8, 0x30, 0x13, 0xef, 0xe4, 0x16, 0xed, 0xd6, 0x41, 0x10, 0x24, 0xe0, 0x4d, 0x26, 0xea, 0xcc, 0x2b, 0xc, 0x1f, 0xda, 
0xf, 0xea, 0xdb, 0x23, 0x27, 0x14, 0xc, 0xe6, 0xef, 0xc9, 0x33, 0xec, 0xd, 0xf3, 0x8, 0xec, 0xef, 0x1a, 0xf, 0xf0, 
0x0, 0xe7, 0xfa, 0x12, 0xf9, 0xe2, 0xbb, 0x20, 0xd9, 0x1d, 0x25, 0x9, 0xd6, 0xfb, 0x5e, 0xef, 0xf, 0xec, 0x1c, 0xe9, 
0x1a, 0xcb, 0x3c, 0x30, 0x12, 0xfb, 0xce, 0x2, 0xbb, 0x1d, 0x2f, 0xf1, 0xf8, 0xd5, 0x1f, 0xe7, 0x1f, 0x16, 0xf5, 0x21, 
0xca, 0xb7, 0x2c, 0x1b, 0xc, 0xf6, 0x1a, 0xfd, 0x79, 0xc, 0xd4, 0xde, 0x32, 0x11, 0xf7, 0xed, 0xfb, 0xef, 0x1, 0xe0, 
0xe7, 0xdf, 0x2c, 0xa, 0x2e, 0xf, 0x18, 0x2, 0xc, 0x1f, 0x1e, 0x26, 0xe, 0x7, 0xb4, 0xfc, 0x4, 0xf, 0x0, 0x5, 
0xe9, 0xfe, 0xbf, 0xfa, 0x1f, 0xdd, 0x9, 0x4e, 0xf9, 0xd4, 0x11, 0xcc, 0x1e, 0x41, 0xc, 0x13, 0x1a, 0xef, 0x18, 0xbe, 
0x24, 0x48, 0xe6, 0xa3, 0xe4, 0x20, 0x4, 0xe8, 0x5, 0xee, 0x81, 0x8, 0xf9, 0xee, 0xf9, 0x42, 0x1, 0xb6, 0xcf, 0x47, 
0xce, 0x10, 0x25, 0x12, 0xd1, 0xe7, 0xdd, 0x2f, 0x32, 0xcf, 0xe, 0x1, 0xc6, 0x6, 0xec, 0xcf, 0x13, 0x1b, 0xcc, 0xfd, 
0x14, 0x2d, 0x1d, 0xd4, 0xd7, 0x3e, 0xfa, 0x0, 0xeb, 0x1b, 0x55, 0xcf, 0xf9, 0x26, 0xbe, 0xc, 0xe, 0xf9, 0xe, 0x3d, 
0xfb, 0x19, 0xa, 0xf4, 0x57, 0x20, 0xe8, 0x28, 0xda, 0x6, 0xd2, 0x20, 0xf2, 0x15, 0xeb, 0xdb, 0xc, 0xe1, 0xd6, 0xe6, 
0xb, 0xdc, 0x3, 0x1d, 0xb9, 0xda, 0xf6, 0x7, 0x33, 0xaf, 0xf, 0xe2, 0xe0, 0xe9, 0x30, 0x9, 0xdf, 0x11, 0xdc, 0xe9, 
0xe0, 0xf5, 0xa, 0x2c, 0xd7, 0x2b, 0xd0, 0x1e, 0x8, 0x4, 0xf3, 0x56, 0x3, 0xa3, 0x45, 0xa0, 0x32, 0x28, 0x6d, 0xf5, 
0x4a, 0xb3, 0x22, 0x7, 0x36, 0x27, 0xea, 0xeb, 0x1f, 0x1f, 0x16, 0xd2, 0xf8, 0x33, 0xa0, 0x16, 0x28, 0x2b, 0xc9, 0x4a, 
0x1e, 0xc6, 0x1b, 0xed, 0xc0, 0xc, 0x15, 0x40, 0xec, 0xb5, 0xe3, 0xd9, 0xa9, 0x73, 0xe2, 0x2, 0xfc, 0x1a, 0xff, 0xf2, 
0xea, 0x5, 0xda, 0x4f, 0xa8, 0x13, 0xf7, 0xdb, 0x1d, 0x16, 0x3c, 0x2d, 0x39, 0xae, 0x12, 0xd7, 0xf6, 0xf7, 0xe2, 0xf9, 
0x1d, 0x5a, 0x39, 0x32, 0x12, 0x22, 0xe8, 0x2e, 0x13, 0xdd, 0xde, 0xa8, 0x4, 0xee, 0x9, 0xea, 0x6, 0x1a, 0x2b, 0x7, 
0xbd, 0x2c, 0x17, 0x45, 0x22, 0x27, 0xe5, 0xd, 0x2a, 0xdd, 0xf6, 0x2a, 0x4, 0x1b, 0xfc, 0x1c, 0x26, 0x1e, 0xd4, 0xd1, 
0xb6, 0xc, 0xc9, 0x9, 0xd4, 0x81, 0xa9, 0xc7, 0x3f, 0xf, 0xd8, 0xed, 0xf3, 0xfd, 0x8, 0xeb, 0xdb, 0xc8, 0x1a, 0x35, 
0x48, 0xe0, 0x37, 0xf1, 0xa, 0xfc, 0xe4, 0x47, 0xbf, 0xea, 0x19, 0x2a, 0x15, 0xe4, 0x24, 0xaa, 0x29, 0xc9, 0xbe, 0xa, 
0x99, 0x33, 0xa, 0x14, 0xd7, 0xc0, 0x12, 0xbc, 0xf2, 0xae, 0xdc, 0x58, 0x23, 0x35, 0x17, 0xcf, 0x24, 0x17, 0xca, 0xae, 
0x20, 0x38, 0x8, 0xa, 0xf8, 0x1d, 0xf9, 0xb8, 0x26, 0xe9, 0xd0, 0xd0, 0xb0, 0x18, 0x40, 0xf3, 0x15, 0xd3, 0xea, 0x4d, 
0xd5, 0x13, 0xf2, 0xf5, 0xe1, 0xd, 0xe5, 0x42, 0x19, 0xd5, 0xfd, 0x66, 0xe1, 0x10, 0xe2, 0xeb, 0xdc, 0x1d, 0xf5, 0x13, 
0xec, 0xf8, 0xf5, 0xc, 0xce, 0xf, 0x22, 0xe9, 0xe5, 0x28, 0xf5, 0xd, 0xec, 0x1, 0xe2, 0x3, 0xcd, 0x32, 0xe0, 0xf5, 
0x3, 0x4f, 0xe, 0x26, 0xcb, 0x2b, 0xdc, 0xd1, 0xd4, 0xdf, 0x2a, 0xef, 0x1e, 0x4, 0x1f, 0x36, 0xda, 0xd6, 0xe4, 0xf8, 
0x19, 0x0, 0xed, 0xd2, 0xff, 0xaf, 0xe8, 0xd1, 0x50, 0x34, 0x1e, 0x3b, 0xea, 0x35, 0x15, 0x1e, 0x37, 0xe0, 0x1c, 0x2d, 
0x4c, 0x25, 0x25, 0x56, 0x3, 0x10, 0x1a, 0xe7, 0xb, 0xf3, 0xe9, 0xdd, 0x5, 0xe1, 0xe7, 0xd0, 0xf1, 0xe, 0xec, 0xc0, 
0xf0, 0x1b, 0x0, 0x2d, 0xfa, 0xb1, 0xc4, 0x3e, 0x1d, 0xfd, 0x1d, 0x5a, 0x48, 0xe5, 0x23, 0xc9, 0xf2, 0xfe, 0xf, 0xdc, 
0x2, 0x3a, 0x15, 0x22, 0xea, 0xeb, 0xed, 0xf3, 0xef, 0xdf, 0x1e, 0x1e, 0x1a, 0xde, 0xf3, 0x2c, 0xe2, 0x17, 0xea, 0xd5, 
0xe7, 0xda, 0x11, 0x27, 0x28, 0x6, 0x18, 0xee, 0x2e, 0x6, 0xdb, 0xd3, 0x10, 0x16, 0xf5, 0x2a, 0xf, 0x32, 0x18, 0x6, 
0x35, 0xe5, 0x28, 0x1f, 0x9, 0x1a, 0x3a, 0xf9, 0xe6, 0xd6, 0xef, 0x16, 0xc, 0xd3, 0x14, 0x2a, 0x10, 0xe3, 0x3b, 0xe2, 
0xf3, 0xdb, 0x12, 0xe5, 0xff, 0x18, 0xd1, 0x2b, 0xf, 0xf4, 0xed, 0x3f, 0x19, 0xf5, 0x21, 0x63, 0xed, 0xe3, 0xd0, 0x2, 
0xe7, 0xae, 0xca, 0x1, 0xcd, 0xe1, 0x24, 0xfe, 0xed, 0xa, 0x29, 0x2b, 0x39, 0xf3, 0xf4, 0x33, 0xf1, 0xea, 0x1f, 0x36, 
0xb, 0x1, 0x3e, 0xe0, 0xb, 0xe2, 0xd4, 0x4b, 0xf9, 0xf7, 0x4, 0x17, 0x2d, 0x17, 0x2d, 0x52, 0xe0, 0xd5, 0xd3, 0xf0, 
0xe2, 0x10, 0xfc, 0x3e, 0xd9, 0x1f, 0xee, 0x53, 0xd5, 0xfb, 0x13, 0x22, 0x12, 0x8, 0x1d, 0xdb, 0x26, 0xf0, 0x43, 0x20, 
0xe6, 0xd1, 0x21, 0x3a, 0x49, 0xa8, 0x7, 0xce, 0x4a, 0x8, 0x9, 0xf9, 0x2c, 0xdc, 0x27, 0x43, 0x81, 0x42, 0x1d, 0xda, 
0x32, 0xe3, 0xb, 0xb4, 0xf2, 0x1d, 0xe, 0x4, 0x2, 0xb5, 0x97, 0xe1, 0xf6, 0x7, 0x37, 0xf, 0x11, 0xf1, 0x2, 0xdd, 
0xc1, 0x0, 0x18, 0x16, 0xb, 0x3, 0x7, 0x1, 0x30, 0xf3, 0xf, 0xcb, 0x16, 0xdb, 0x1a, 0x37, 0xeb, 0x24, 0xe7, 0x0, 
0xd1, 0xec, 0xfc, 0x2, 0xe8, 0xf0, 0xc8, 0xf5, 0xdd, 0x11, 0xcd, 0x17, 0x23, 0xc8, 0x25, 0x1f, 0x9a, 0xc5, 0xf4, 0xf4, 
0xe0, 0x39, 0xe2, 0xe0, 0x4c, 0x2d, 0xfd, 0xf4, 0xd9, 0x11, 0x1e, 0x2, 0x14, 0x5, 0xe8, 0xfa, 0x15, 0xdc, 0xf9, 0xfc, 
0xdf, 0xdb, 0xfc, 0xee, 0x2c, 0xe0, 0xdc, 0xce, 0xd1, 0xa4, 0xf8, 0x46, 0x21, 0xe, 0xf8, 0x34, 0xd7, 0xe9, 0xf5, 0xfb, 
0xe0, 0x3a, 0x27, 0x23, 0x30, 0x7, 0xd, 0xec, 0x29, 0x3e, 0x10, 0xdf, 0x17, 0x16, 0x0, 0x0, 0xf9, 0x33, 0x1f, 0x42, 
0xe, 0x30, 0xf5, 0xf, 0xcf, 0x1b, 0xef, 0x40, 0x1e, 0x19, 0x34, 0xf4, 0xdf, 0x5, 0x3f, 0x3, 0xe1, 0xba, 0xc4, 0xf8, 
0x26, 0xe1, 0x2c, 0x35, 0x1c, 0xef, 0xf5, 0x44, 0xf, 0xf7, 0x24, 0x55, 0x34, 0xf5, 0x41, 0xe6, 0x47, 0xaa, 0x3, 0x43, 
0xa, 0x1, 0x3c, 0x11, 0x35, 0xec, 0xd1, 0x14, 0xf1, 0xf1, 0x53, 0xfe, 0x7a, 0xb, 0x3c, 0x46, 0xc5, 0xe2, 0xcb, 0x50, 
0x7b, 0x9a, 0xa, 0xd1, 0xf2, 0xac, 0xf6, 0x2d, 0xce, 0x61, 0xc9, 0x5, 0xc8, 0x2a, 0xe0, 0xe9, 0x4, 0xaf, 0xed, 0xff, 
0xda, 0x40, 0xf8, 0xf5, 0xd7, 0xcd, 0xe9, 0x17, 0xb2, 0xca, 0xd4, 0xf0, 0x8, 0x1e, 0xc6, 0xa3, 0xe3, 0x2, 0x25, 0x7, 
0xf4, 0xd2, 0xe8, 0xc6, 0xee, 0x48, 0xdc, 0x26, 0x1, 0xe1, 0xe7, 0x24, 0x3f, 0xc9, 0xee, 0x3a, 0xb5, 0xb, 0x1, 0xd3, 
0x11, 0xd4, 0xbc, 0xd, 0x24, 0x1a, 0x3f, 0x2c, 0xe4, 0x2d, 0xf0, 0xde, 0xe0, 0xed, 0x0, 0xdc, 0x9a, 0xe4, 0xcf, 0xc1, 
0x3e, 0xf4, 0x3, 0xea, 0xeb, 0x17, 0x10, 0x21, 0x29, 0xd8, 0xe0, 0xcd, 0xfe, 0xd, 0x81, 0xc, 0x22, 0x31, 0xf7, 0x18, 
0x45, 0xa2, 0x3, 0xd7, 0x1d, 0x22, 0xf, 0xe7, 0x2e, 0xed, 0x12, 0x6, 0xdd, 0xe0, 0xeb, 0xf, 0xf7, 0x21, 0x5, 0xf, 
0x0, 0x5, 0x10, 0x1c, 0x10, 0x7, 0xf1, 0xe3, 0xf5, 0xf, 0x4, 0xf2, 0x0, 0xef, 0xf1, 0x25, 0xfb, 0x20, 0xd4, 0x39, 
0x8, 0xee, 0x32, 0xf0, 0xfa, 0x3a, 0xfb, 0xb8, 0x14, 0xeb, 0xe3, 0xf, 0xb5, 0xfb, 0xfc, 0x0, 0xd7, 0x1, 0xce, 0x27, 
0xf5, 0x6, 0xf4, 0xe0, 0xe1, 0xea, 0x21, 0xe4, 0xfd, 0xf1, 0xef, 0xf0, 0xe2, 0x3, 0x16, 0x6, 0x0, 0x19, 0x5, 0xe4, 
0xd3, 0x3, 0x7, 0xd4, 0x38, 0xed, 0x16, 0xbc, 0x1e, 0x8d, 0x0, 0xe8, 0x18, 0xf5, 0xee, 0xd, 0x4b, 0xe5, 0xf6, 0xf9, 
0x10, 0x40, 0xf9, 0x25, 0x2c, 0xd1, 0xdb, 0x2e, 0xe6, 0xd8, 0xdd, 0xd, 0x32, 0xfb, 0xd9, 0x3, 0xf3, 0x17, 0x19, 0x11, 
0x7, 0xf3, 0xe2, 0xe1, 0x42, 0x10, 0x6, 0xf3, 0x31, 0xe6, 0x2e, 0x3, 0x10, 0x48, 0xcb, 0x4, 0x17, 0x8, 0x26, 0x18, 
0xe5, 0xfd, 0xb3, 0x44, 0xfa, 0x7, 0xd7, 0xca, 0xe2, 0xfb, 0x1f, 0x11, 0xea, 0xdc, 0xe6, 0xf3, 0xc6, 0x3b, 0xf1, 0xe7, 
0xe1, 0x35, 0x1b, 0x1c, 0xc5, 0xfc, 0xf6, 0x1d, 0xeb, 0xfa, 0xc2, 0xf0, 0x26, 0xc4, 0x31, 0xfb, 0xcf, 0x18, 0xd3, 0x2e, 
0xa, 0xe8, 0xce, 0xfa, 0x6, 0xf2, 0xfa, 0xf6, 0x11, 0xec, 0xfd, 0x0, 0x21, 0x1a, 0xf5, 0x13, 0xfd, 0xab, 0xf1, 0xcd, 
0x2d, 0xc7, 0x8, 0xe3, 0xf9, 0xe8, 0xe3, 0xf3, 0xca, 0x7, 0x1e, 0xde, 0xe0, 0x12, 0x22, 0xf5, 0x0, 0xde, 0x16, 0xb, 
0x11, 0x4, 0x10, 0x11, 0xf1, 0xa, 0xd8, 0xd1, 0x81, 0xde, 0x2c, 0xea, 0xdf, 0xe8, 0x4, 0xf9, 0xeb, 0xd7, 0xfb, 0x6, 
0xd9, 0x37, 0xef, 0x18, 0x14, 0xe7, 0x2c, 0x9, 0xc5, 0x20, 0x17, 0xe3, 0x39, 0xf8, 0xe7, 0x26, 0x16, 0xe8, 0xee, 0xd2, 
0xca, 0x17, 0x1b, 0xe4, 0xf1, 0xdb, 0x39, 0x46, 0x12, 0xfe, 0xdc, 0xd4, 0xd, 0xd7, 0xee, 0x1d, 0xec, 0x5, 0x7, 0xdc, 
0xfc, 0x16, 0xe5, 0x2, 0xf0, 0xf2, 0xb8, 0xfd, 0xeb, 0xe4, 0x4, 0xe6, 0x3, 0xe8, 0x6, 0xf8, 0xee, 0xe6, 0x22, 0xdc, 
0xf1, 0xd3, 0xf2, 0x4, 0xd2, 0xf3, 0xd2, 0xf0, 0xc, 0x19, 0xf4, 0xf9, 0x10, 0x2d, 0xf0, 0x18, 0x33, 0xb, 0xfd, 0x12, 
0xfa, 0x1, 0xd4, 0xdc, 0x57, 0x5, 0x3e, 0xeb, 0xf8, 0xf4, 0x11, 0xec, 0x18, 0xdf, 0x17, 0xff, 0xcb, 0x8, 0xe5, 0xf3, 
0x2f, 0x3e, 0x92, 0x36, 0x27, 0xdc, 0xfc, 0x16, 0x3f, 0x28, 0xfd, 0xaf, 0x91, 0x1f, 0x37, 0x31, 0xe, 0x15, 0x4, 0xca, 
0xe5, 0xe1, 0x24, 0xe, 0xf2, 0x1a, 0xfb, 0xf1, 0xf7, 0x10, 0xb7, 0x34, 0xed, 0x4d, 0x31, 0xa8, 0xe9, 0xf9, 0x8, 0xd9, 
0x4, 0xe0, 0x21, 0x27, 0xb, 0xe1, 0x37, 0x44, 0xdf, 0x9e, 0xbe, 0xc1, 0x2, 0xfd, 0x10, 0xd8, 0xb, 0x11, 0xfc, 0xbf, 
0x2c, 0x1d, 0xe3, 0xc5, 0x34, 0x2, 0xed, 0x53, 0x32, 0xcb, 0xf2, 0x3e, 0x19, 0xaa, 0x9, 0x1f, 0xf3, 0x3c, 0x2f, 0x9, 
0xc7, 0xff, 0x29, 0xcc, 0xa, 0x1e, 0xf3, 0xd4, 0x31, 0x2f, 0xf, 0xb8, 0xfa, 0xe, 0xf0, 0x45, 0xea, 0x6, 0xd1, 0xc7, 
0xd, 0xef, 0xdf, 0xdd, 0xeb, 0x57, 0xe, 0x3, 0x46, 0x9d, 0x1f, 0x32, 0x5b, 0xf0, 0xd7, 0xc4, 0xed, 0x2b, 0x48, 0x2a, 
0x27, 0x40, 0xdb, 0xff, 0x36, 0xd5, 0x6, 0x12, 0xd, 0x1e, 0x3, 0x3a, 0x51, 0x12, 0xdb, 0x38, 0x50, 0xdc, 0x3c, 0xd3, 
0x3c, 0xb, 0x2c, 0x33, 0xd3, 0xf7, 0x20, 0xf9, 0xe4, 0x30, 0xb, 0xff, 0x17, 0x1f, 0xb0, 0xf5, 0x40, 0xd6, 0xd9, 0x6, 
0x0, 0x1a, 0xcc, 0xef, 0xd, 0xcb, 0x0, 0xd, 0x26, 0xde, 0xd3, 0x36, 0xdc, 0x1f, 0x33, 0x9f, 0xaf, 0xdb, 0xd4, 0xd, 
0x2d, 0x3e, 0x50, 0x23, 0x22, 0xf3, 0x19, 0x30, 0x67, 0xd1, 0x5, 0x1a, 0x93, 0xe9, 0xe4, 0x14, 0xf0, 0x93, 0x6, 0xf1, 
0xde, 0xea, 0xec, 0x18, 0xcc, 0xef, 0xed, 0x7, 0xfa, 0xd2, 0x36, 0x93, 0xec, 0xfa, 0x2f, 0xec, 0x47, 0x32, 0x2f, 0xfa, 
0x9, 0xa2, 0xe3, 0x45, 0x7f, 0xad, 0xdf, 0xd4, 0xdc, 0x0, 0x8, 0xff, 0x15, 0xd5, 0xed, 0xf6, 0x6, 0x47, 0x17, 0xea, 
0x26, 0xb, 0x21, 0xa2, 0x39, 0xb, 0x6, 0xf1, 0x16, 0xe7, 0xf0, 0xe, 0x56, 0xfd, 0xe0, 0x11, 0xbe, 0x1c, 0xf1, 0xcc, 
0x3a, 0xfd, 0xf5, 0xeb, 0xeb, 0x18, 0x2f, 0xd0, 0xb2, 0x18, 0x23, 0xb5, 0x17, 0xd3, 0xff, 0xec, 0x43, 0x4e, 0x14, 0xdf, 
0x13, 0x3, 0x2a, 0xde, 0x8, 0xc8, 0xa, 0xa, 0x2d, 0x22, 0xfe, 0x27, 0xf1, 0xa, 0x1c, 0x31, 0x25, 0x23, 0xd3, 0xe4, 
0x2e, 0x38, 0x34, 0xca, 0xff, 0xd7, 0x5, 0xba, 0xef, 0xe5, 0xb, 0xe7, 0xdf, 0xfc, 0x21, 0xdd, 0xf7, 0xb0, 0x2f, 0x15, 
0x4a, 0xfe, 0xe4, 0xda, 0xe3, 0xd7, 0xec, 0x5e, 0xfe, 0x6, 0xf1, 0xe4, 0xb9, 0xbd, 0xe2, 0x48, 0x14, 0x28, 0xe9, 0xbb, 
0xee, 0xec, 0x19, 0x2, 0x5, 0x3f, 0xf7, 0xf8, 0x38, 0xf7, 0x9, 0x25, 0x20, 0x25, 0x5, 0xf, 0xd9, 0xe5, 0xe9, 0xc1, 
0xeb, 0xee, 0xd9, 0xce, 0xb, 0xed, 0xfa, 0xa, 0xfa, 0xff, 0x37, 0x1, 0x18, 0xea, 0x33, 0xf9, 0xd8, 0x9, 0x29, 0x13, 
0x7f, 0xd9, 0xf4, 0xd2, 0xee, 0xcd, 0xed, 0xcd, 0xe4, 0xf1, 0xfb, 0xdd, 0x1d, 0x45, 0xe9, 0x14, 0x35, 0x20, 0xe, 0xe4, 
0xee, 0x15, 0xf5, 0xee, 0x4, 0x27, 0xe5, 0xf4, 0x7, 0xfc, 0x21, 0xe0, 0x50, 0xda, 0xb0, 0xff, 0xe6, 0xe, 0xd1, 0xf7, 
0x1b, 0xd7, 0x1, 0x4, 0x7, 0x31, 0x24, 0x49, 0xfa, 0xff, 0xe6, 0xc0, 0xb, 0xf3, 0xf0, 0xfa, 0xc9, 0x27, 0xe6, 0x40, 
0xf6, 0x48, 0xf6, 0x1c, 0x11, 0xaf, 0xf7, 0x4c, 0x10, 0x79, 0xec, 0xdd, 0x24, 0x4b, 0x3f, 0xfc, 0xf0, 0x11, 0x1, 0x66, 
0xc, 0xf6, 0xe4, 0xde, 0x3b, 0xda, 0x15, 0xfe, 0x30, 0xe2, 0xaf, 0x2c, 0xf6, 0x1d, 0xd, 0x11, 0x19, 0xdf, 0xef, 0xc, 
0xb9, 0x13, 0xfa, 0xc3, 0xfa, 0xf0, 0x2, 0xcf, 0xfa, 0x3, 0xa, 0x32, 0xe9, 0x3b, 0x20, 0xd0, 0xba, 0x1, 0x1b, 0x14, 
0xc, 0xdd, 0x1d, 0xee, 0xfe, 0x43, 0xf3, 0x3a, 0x8, 0xf, 0xe5, 0x52, 0x35, 0xbe, 0x1a, 0x16, 0xe4, 0x1b, 0x14, 0x98, 
0xfd, 0xe1, 0xe3, 0xf5, 0xf4, 0x21, 0xf6, 0xf, 0x28, 0xec, 0xf0, 0x24, 0xed, 0xb, 0x13, 0xa7, 0x1d, 0x38, 0xe8, 0xc, 
0xef, 0xf, 0x4, 0xf8, 0xd8, 0xf, 0xec, 0x28, 0xe, 0xe2, 0xe2, 0xd5, 0x5, 0x21, 0xe7, 0xd6, 0xd2, 0x8, 0xf6, 0x17, 
0xd0, 0x1a, 0xf3, 0xee, 0x8, 0x6, 0x9, 0xd9, 0x15, 0xc0, 0xfa, 0xd0, 0x3, 0x1e, 0x2f, 0x2b, 0xef, 0x7, 0x24, 0xe9, 
0x36, 0x10, 0xeb, 0x1, 0xe3, 0xda, 0xe9, 0xf1, 0xe4, 0x15, 0xdd, 0xd2, 0x16, 0xee, 0x1a, 0x24, 0xd0, 0xe0, 0xef, 0x24, 
0x1a, 0x21, 0x2c, 0xc, 0x9, 0x24, 0xf2, 0xf5, 0x1e, 0xf6, 0xe7, 0xfd, 0x14, 0xcf, 0x5, 0x26, 0x2b, 0xff, 0x1a, 0x2, 
0x16, 0x15, 0xf1, 0xed, 0x27, 0x2a, 0xfa, 0x1, 0xf2, 0x2, 0xe0, 0xf0, 0x29, 0xf7, 0xe7, 0xe3, 0x8, 0xf6, 0xd1, 0xf7, 
0x2e, 0xe5, 0x1e, 0xfd, 0x3a, 0xd1, 0xf8, 0x3a, 0xef, 0x3c, 0xec, 0xfe, 0xe2, 0xc, 0xe, 0xf7, 0x20, 0xf5, 0x11, 0xfa, 
0x12, 0x5, 0xd3, 0xf9, 0xfb, 0xf2, 0xec, 0xff, 0xf1, 0x2, 0xff, 0xec, 0x2, 0x14, 0x5, 0x35, 0xb7, 0x0, 0xd4, 0xf2, 
0xb, 0x0, 0xed, 0xdf, 0x2, 0xd, 0xd1, 0x54, 0xdd, 0x28, 0x4b, 0xe3, 0x40, 0x20, 0x2b, 0xdc, 0xfe, 0xe9, 0xf8, 0x28, 
0xe6, 0xf7, 0xe7, 0x3, 0xef, 0x4, 0xf3, 0x30, 0xd5, 0x1f, 0xf, 0xba, 0xcb, 0xbe, 0xf4, 0x5, 0xef, 0x38, 0xed, 0x3, 
0xda, 0xe2, 0x32, 0xf6, 0xd1, 0xb4, 0xf0, 0xbb, 0xd, 0x1f, 0xc, 0xf0, 0x19, 0xe5, 0xf3, 0xe1, 0xf7, 0xd0, 0x7, 0xa6, 
0xe5, 0xf6, 0xec, 0xe9, 0x3f, 0x2b, 0x4, 0x11, 0xe, 0x7, 0xf2, 0x19, 0x35, 0x27, 0xda, 0x1b, 0x5, 0x4, 0x3a, 0xf4, 
0x23, 0xe0, 0xb2, 0x1, 0xef, 0x15, 0xf5, 0x34, 0x18, 0x13, 0xdd, 0x21, 0xed, 0xc, 0xd2, 0x7f, 0xfa, 0xcb, 0xda, 0x39, 
0x10, 0xbd, 0x1c, 0xd0, 0x1b, 0xf8, 0x1e, 0xd3, 0xdb, 0xe1, 0xf8, 0x2e, 0xe8, 0xfe, 0xe4, 0xf1, 0xf2, 0xe8, 0x2b, 0x1e, 
0x7, 0xe2, 0xb6, 0xcb, 0xb9, 0xc2, 0xe3, 0x43, 0x34, 0xcd, 0xf4, 0xf3, 0xe9, 0x8, 0x26, 0x16, 0x17, 0xf1, 0x6, 0xcb, 
0x4, 0xd2, 0xe7, 0xc7, 0x24, 0x7, 0xf8, 0xd, 0x31, 0xe7, 0xf7, 0x12, 0xae, 0x1b, 0x5, 0xf6, 0xa, 0xfc, 0x7, 0xe3, 
0x7, 0x4, 0x1c, 0x6, 0x20, 0xa2, 0x19, 0x1f, 0x3, 0x16, 0x1e, 0x1c, 0x1, 0xe9, 0x21, 0x25, 0x17, 0xd3, 0xfd, 0x2c, 
0x2a, 0xbe, 0xe5, 0xe5, 0xe0, 0xea, 0x4, 0x1, 0x6, 0x81, 0x1b, 0xc6, 0xde, 0x22, 0x5, 0xf8, 0xcd, 0x4, 0x18, 0x24, 
0x5, 0xe, 0x32, 0xd2, 0xd2, 0xeb, 0x9, 0xef, 0xe0, 0xf7, 0x13, 0xc2, 0x3c, 0x10, 0xe2, 0xd6, 0x13, 0xec, 0x30, 0xf, 
0xd0, 0xfe, 0xb, 0xdc, 0xd8, 0xd, 0xf9, 0x23, 0xe, 0xd, 0x27, 0x3c, 0xf, 0x16, 0xfc, 0x14, 0x6, 0x23, 0xb5, 0xca, 
0xc9, 0x7, 0x27, 0x14, 0x2a, 0xfd, 0x30, 0xc, 0xe5, 0xdf, 0xd8, 0x4, 0xd6, 0x23, 0xe6, 0xdc, 0xde, 0xe1, 0x17, 0x15, 
0xde, 0x10, 0xd6, 0xfb, 0xfc, 0xeb, 0xcd, 0x7, 0x15, 0xf3, 0xf1, 0x19, 0xc8, 0x1f, 0xa, 0xf7, 0x3f, 0xc5, 0x13, 0x2, 
0xf6, 0x11, 0x56, 0x8, 0xb6, 0xe9, 0xe4, 0xb, 0xfb, 0x34, 0x21, 0xe8, 0x9, 0xe7, 0xfb, 0x14, 0x16, 0x8, 0x11, 0x0, 
0xe2, 0xec, 0xa, 0xc8, 0xea, 0x37, 0x1f, 0xe6, 0xed, 0xd2, 0xe2, 0x0, 0xb7, 0x33, 0x2f, 0x1, 0x4, 0x1b, 0x10, 0x2e, 
0x3a, 0x4, 0xfd, 0xe, 0x6, 0xf2, 0x2b, 0xc7, 0x2, 0xff, 0x1c, 0xf5, 0x25, 0xc1, 0xf7, 0x8, 0xd1, 0xf2, 0x1c, 0x10, 
0xe4, 0xff, 0xdb, 0xef, 0xf5, 0xf9, 0xd4, 0x9, 0xf2, 0xee, 0x25, 0x15, 0xed, 0xf9, 0x13, 0x1a, 0xd5, 0xf4, 0x1c, 0x21, 
0xe1, 0x32, 0x36, 0x34, 0x3, 0x30, 0xff, 0x27, 0xfe, 0xd0, 0xf1, 0xdc, 0x13, 0xce, 0xe4, 0xe6, 0xe3, 0xea, 0xde, 0x4a, 
0x8, 0xc6, 0xd, 0xe9, 0xf6, 0xfd, 0x29, 0xf3, 0x17, 0x27, 0xdd, 0xc3, 0x28, 0x23, 0xe6, 0x7, 0xe, 0x12, 0x42, 0xdc, 
0xf9, 0x28, 0x20, 0xd0, 0x26, 0xf2, 0xb9, 0xa, 0xae, 0xf6, 0xf7, 0x20, 0xff, 0x2b, 0xf4, 0xde, 0xf1, 0xc, 0xe, 0x62, 
0x0, 0x5f, 0xc7, 0xfb, 0x1a, 0x4, 0x31, 0x15, 0xde, 0xcd, 0x17, 0xd2, 0xb, 0x2d, 0xea, 0x4, 0xe1, 0xf, 0x2b, 0xf2, 
0xe1, 0xdf, 0xc0, 0x1a, 0x25, 0x3b, 0x6, 0xb4, 0xfd, 0xf7, 0x14, 0xf1, 0x4, 0xff, 0x96, 0x40, 0xbd, 0x24, 0xf, 0x1e, 
0x10, 0x37, 0x4b, 0xf2, 0xd8, 0x10, 0x1a, 0x27, 0x21, 0xdc, 0xc5, 0xd8, 0x56, 0x4b, 0xe5, 0x2e, 0x12, 0x3, 0x21, 0x9, 
0xf3, 0xdb, 0x14, 0xcd, 0x0, 0xeb, 0xe3, 0x49, 0xf1, 0x2a, 0x7, 0xa, 0xde, 0xca, 0xfc, 0xa9, 0xe9, 0xc2, 0x4d, 0xfc, 
0xf2, 0xe0, 0x41, 0xfe, 0x31, 0xff, 0x0, 0x1f, 0xa, 0xb, 0x30, 0xe1, 0xe8, 0xc, 0x1a, 0xb6, 0x9, 0x2b, 0x17, 0xf4, 
0xbd, 0x36, 0x6, 0x24, 0xb3, 0x1c, 0xab, 0xf1, 0xee, 0xe1, 0xd2, 0x51, 0xc1, 0x38, 0x18, 0x1f, 0xcf, 0xe4, 0xd0, 0xf0, 
0xf6, 0x2e, 0x29, 0x2e, 0x47, 0x1a, 0xe3, 0xef, 0x56, 0xb8, 0x2b, 0x27, 0xfc, 0xfd, 0x25, 0xd8, 0x18, 0xc2, 0x7, 0x1, 
0x32, 0x9c, 0x2a, 0x2f, 0xfd, 0xf8, 0x55, 0xd8, 0x31, 0xcd, 0x35, 0x1c, 0xcc, 0x26, 0xf, 0xe4, 0x4c, 0xdd, 0xef, 0xe1, 
0xf0, 0x1c, 0xdc, 0xf7, 0xf1, 0x1a, 0x1f, 0xda, 0x37, 0xe2, 0xea, 0xca, 0xa8, 0x54, 0xb9, 0x19, 0x34, 0xba, 0xc8, 0x29, 
0xe4, 0xe2, 0xf1, 0x2e, 0xc7, 0x14, 0x7, 0x4a, 0xd4, 0x3b, 0x1c, 0xd5, 0x6, 0x20, 0x10, 0x16, 0xe8, 0xa, 0x8, 0xff, 
0xc2, 0xf8, 0x1b, 0xed, 0x20, 0x6, 0xf8, 0x69, 0xfd, 0xf0, 0x44, 0x46, 0x18, 0xdd, 0xf3, 0x39, 0xe, 0xc5, 0xc6, 0xcd, 
0x2b, 0x21, 0xd9, 0xd3, 0x3c, 0xd7, 0x30, 0x26, 0x7f, 0xe3, 0xea, 0xb6, 0x32, 0x2e, 0x28, 0xfc, 0x14, 0xab, 0xf3, 0xf6, 
0xa6, 0xee, 0x12, 0x35, 0x91, 0x1d, 0x6, 0xe, 0xfa, 0xcb, 0xbc, 0x3a, 0x29, 0xbc, 0xf3, 0x8, 0xf8, 0xec, 0x40, 0x1c, 
0x35, 0xe0, 0x1b, 0x3, 0xda, 0x58, 0xc1, 0xf6, 0xe2, 0xfa, 0xce, 0xe, 0x30, 0xdb, 0xe9, 0xdf, 0xd0, 0xcd, 0x1f, 0x10, 
0x8, 0x24, 0x22, 0x30, 0x44, 0x14, 0xd9, 0xd, 0xaf, 0xe4, 0x14, 0x24, 0x2, 0xc6, 0xd5, 0xe9, 0xc7, 0xdf, 0xe5, 0xa7, 
0xc4, 0x2, 0xb8, 0x5, 0x4b, 0xbe, 0x11, 0x3b, 0xca, 0x13, 0x17, 0x1e, 0xb8, 0xba, 0xdf, 0xf8, 0x3, 0xfb, 0xe9, 0xe7, 
0x7, 0x31, 0x27, 0xe3, 0xe, 0xdf, 0xcf, 0xe9, 0xfd, 0x3e, 0x65, 0xb, 0x41, 0x15, 0xa9, 0x7, 0x4c, 0xec, 0xc6, 0xe9, 
0x31, 0x1b, 0x3f, 0x0, 0x7, 0xda, 0xeb, 0xf3, 0x28, 0xc4, 0x4, 0xd0, 0x1, 0x28, 0xe, 0x20, 0x3d, 0xfd, 0x12, 0xfc, 
0xb4, 0x49, 0x44, 0xbd, 0xf7, 0x2e, 0xe2, 0xde, 0xea, 0xf0, 0xdc, 0xd8, 0xcb, 0xf2, 0x41, 0x2, 0x67, 0x2e, 0xb3, 0xd4, 
0x6, 0xab, 0x39, 0xdc, 0xbf, 0x4c, 0xdd, 0x2b, 0x20, 0x15, 0xf5, 0xbf, 0xe4, 0xf9, 0x4e, 0xec, 0x2a, 0xb8, 0xde, 0xd9, 
0x8, 0x16, 0x39, 0xfd, 0xca, 0xf8, 0xfc, 0xe5, 0x6, 0x88, 0xa9, 0x13, 0xf7, 0xcf, 0x42, 0x25, 0x3d, 0xeb, 0x2d, 0xbc, 
0xba, 0x1c, 0xc5, 0x5f, 0x45, 0xc4, 0xb0, 0xea, 0x50, 0xf7, 0x2, 0x1, 0xd, 0xc0, 0xb4, 0xee, 0x2, 0xf4, 0xf4, 0x1d, 
0xe8, 0x35, 0xf, 0x8, 0xd, 0xc2, 0xb, 0xe5, 0xd7, 0xf8, 0x3f, 0x3e, 0xd7, 0x1, 0xf5, 0xc2, 0xc5, 0xd7, 0xed, 0xb3, 
0x39, 0x55, 0x1, 0x33, 0xce, 0x95, 0x2c, 0xf5, 0x4, 0xdb, 0xe8, 0x2f, 0xf9, 0xd8, 0xf, 0x43, 0x6, 0xd4, 0x22, 0xcf, 
0x17, 0xed, 0xdf, 0x86, 0x3b, 0xfe, 0xff, 0xf1, 0x39, 0xff, 0xad, 0x18, 0x2b, 0xc, 0x27, 0xe3, 0xf6, 0xe0, 0x49, 0xff, 
0x8e, 0xb6, 0x33, 0x28, 0x18, 0xb3, 0xcf, 0x33, 0x42, 0xe6, 0x8, 0x35, 0xf5, 0x98, 0x2f, 0xe3, 0xc6, 0x21, 0xf0, 0x4a, 
0x9, 0xf4, 0xc9, 0xf0, 0xd8, 0xde, 0xff, 0xd6, 0x20, 0xcc, 0x42, 0xdd, 0xfc, 0xd7, 0x56, 0xbd, 0x30, 0xed, 0xed, 0x3e, 
0xd, 0xfe, 0xe4, 0x1c, 0x1d, 0xd5, 0x24, 0xf, 0xeb, 0xad, 0x1e, 0x30, 0xe3, 0xdb, 0x17, 0xf, 0x42, 0xfd, 0xe8, 0xe1, 
0x26, 0x24, 0x1a, 0xf2, 0xc7, 0x5, 0xd1, 0x81, 0xcf, 0x11, 0xd0, 0xe8, 0xde, 0xf0, 0x2f, 0xe9, 0xf5, 0x94, 0xd6, 0xe8, 
0x11, 0xfc, 0xe6, 0xcd, 0xe3, 0xd1, 0xe9, 0x12, 0xe2, 0xda, 0x1, 0xc2, 0xe0, 0x3d, 0x24, 0xd6, 0xd7, 0xfd, 0xb, 0x1f, 
0xdf, 0xb9, 0x9, 0xf4, 0xe5, 0x8, 0xe3, 0xfd, 0x11, 0xeb, 0xb7, 0xff, 0x1a, 0x1d, 0x1c, 0xe1, 0xd3, 0xed, 0xef, 0xf5, 
0x1d, 0x37, 0x16, 0x2, 0xd, 0xe9, 0x6, 0x8, 0x81, 0x1c, 0xf5, 0x4, 0x33, 0xf, 0xc, 0x14, 0x5, 0xd6, 0xee, 0x40, 
0x2c, 0xf, 0xfe, 0x14, 0x3c, 0x1, 0x1, 0xe4, 0xe2, 0x19, 0xde, 0xb, 0x2f, 0x1c, 0x39, 0xbf, 0x41, 0x16, 0xb6, 0x1e, 
0x2b, 0x2f, 0x17, 0xb3, 0xd5, 0x1, 0x13, 0xa1, 0x12, 0xbe, 0xed, 0xec, 0x8, 0x2b, 0xe8, 0x25, 0x16, 0xe9, 0xee, 0x14, 
0x87, 0xfb, 0x1a, 0xf, 0x20, 0x1f, 0xe8, 0xf0, 0xe2, 0x6, 0x1c, 0x6, 0x2c, 0xea, 0xb5, 0xeb, 0xed, 0xf2, 0x68, 0xdc, 
0xb1, 0xea, 0xe2, 0xeb, 0x6, 0xc1, 0xca, 0x3b, 0x1, 0x9, 0xe3, 0x29, 0x2c, 0x12, 0x23, 0x3, 0xfa, 0x1b, 0x19, 0xf8, 
0x40, 0x1b, 0xc7, 0x16, 0xd, 0x22, 0xb, 0xf1, 0xe3, 0xc8, 0x39, 0x44, 0xfd, 0xfd, 0x18, 0x3b, 0xe3, 0x3f, 0xff, 0x31, 
0x14, 0x7, 0xf4, 0xf4, 0xe6, 0x13, 0xad, 0x3b, 0xda, 0xeb, 0x28, 0x2a, 0x40, 0xc3, 0xca, 0x18, 0x3e, 0x11, 0x0, 0xe3, 
0xdc, 0xc0, 0xe1, 0xc9, 0x57, 0xf9, 0x3a, 0x23, 0xbd, 0x17, 0x2, 0xd, 0xdc, 0x4a, 0x2c, 0x15, 0xe7, 0xd4, 0x12, 0x14, 
0x32, 0xc9, 0xf3, 0x22, 0xd0, 0x43, 0x2c, 0xf, 0xe8, 0x17, 0xfd, 0xd5, 0xf7, 0xff, 0x0, 0x14, 0xfe, 0xfb, 0x1a, 0xe8, 
0xca, 0xde, 0xd7, 0xdf, 0xae, 0x0, 0xee, 0xc9, 0x60, 0x2c, 0xa7, 0x3, 0xf2, 0xdf, 0x2b, 0xdb, 0xb, 0x6, 0x4c, 0xf8, 
0xdb, 0xbc, 0x5, 0x4, 0xfb, 0xfe, 0xe7, 0x37, 0x3a, 0xfc, 0xe7, 0x30, 0xbb, 0xe3, 0x22, 0x7, 0x12, 0x6, 0x6, 0x1, 
0x15, 0xf5, 0xca, 0xed, 0x1, 0xe2, 0xe6, 0xff, 0x22, 0xf7, 0x21, 0xef, 0x12, 0xeb, 0xc, 0xb, 0x25, 0xed, 0x24, 0x6, 
0x26, 0x8f, 0x37, 0xfa, 0xf3, 0xf9, 0xfe, 0x24, 0x16, 0x3b, 0x1c, 0xd8, 0xd8, 0xe8, 0x9, 0xa, 0x2c, 0xa, 0xc2, 0xf7, 
0xf5, 0xf8, 0x38, 0xd1, 0x22, 0x9, 0xfe, 0xa7, 0xf3, 0xfe, 0xff, 0xdc, 0xea, 0x2b, 0x31, 0xd6, 0xdd, 0x1, 0xb9, 0xef, 
0xf1, 0xe2, 0x42, 0xf6, 0x21, 0x21, 0xd, 0x3, 0xfa, 0x6c, 0x3c, 0xe1, 0xe1, 0x3a, 0xf4, 0xf7, 0x59, 0xf3, 0x2a, 0x1d, 
0xee, 0x1a, 0x3f, 0xd, 0xf6, 0xbf, 0x2a, 0x19, 0x21, 0x2b, 0xd5, 0x31, 0x15, 0xdc, 0xfb, 0x8, 0x14, 0x13, 0xc3, 0x4d, 
0xe6, 0x63, 0xdf, 0xdd, 0x11, 0xe6, 0xf9, 0x9e, 0xbd, 0x1d, 0xf5, 0x6, 0x51, 0xe, 0xf, 0x17, 0x2, 0x17, 0xc0, 0xf2, 
0xe8, 0x95, 0x1b, 0xd1, 0x11, 0xed, 0x3, 0xc4, 0x37, 0xe3, 0x1c, 0xb4, 0xdf, 0x2d, 0x2b, 0xf9, 0x1d, 0xc7, 0x8, 0xfa, 
0xfe, 0x3d, 0x38, 0x1c, 0xd8, 0x25, 0xcd, 0x33, 0x25, 0x5, 0x4f, 0xe6, 0xe4, 0x3b, 0x14, 0x41, 0xe, 0xfc, 0x2d, 0x1d, 
0x29, 0xd9, 0x3d, 0xf5, 0x1c, 0x14, 0x1c, 0x3c, 0xe2, 0x27, 0xfc, 0xd8, 0x2d, 0xe0, 0xdf, 0x18, 0x2, 0xc2, 0xb8, 0x1e, 
0xdf, 0xed, 0x2c, 0xbc, 0x3e, 0x4b, 0xc, 0x36, 0xe1, 0x1b, 0xf1, 0xbf, 0xe3, 0xc, 0x5f, 0xb7, 0x1c, 0xc2, 0xec, 0x35, 
0x38, 0x12, 0xeb, 0x1f, 0xf, 0x11, 0xea, 0x7, 0x1e, 0x3c, 0x43, 0xf9, 0xc2, 0xe6, 0x1f, 0x17, 0xa, 0x27, 0x8, 0xd7, 
0xb4, 0x30, 0xfb, 0x5, 0xd0, 0xb9, 0xe2, 0xee, 0x2a, 0xf0, 0xbd, 0x1f, 0xf4, 0xe7, 0x30, 0xfb, 0xda, 0xeb, 0xdf, 0x3d, 
0xfd, 0xb, 0x10, 0x12, 0x5d, 0xba, 0xdb, 0xec, 0xf1, 0x4, 0x34, 0xbd, 0x24, 0x1e, 0x2d, 0xc9, 0x5, 0x30, 0xe8, 0xd5, 
0x38, 0xec, 0x2, 0x2e, 0xa3, 0x2f, 0x1f, 0x5, 0xf1, 0xa, 0xfa, 0x18, 0xd2, 0xed, 0xff, 0x26, 0xde, 0xdb, 0xc8, 0x8e, 
0xd2, 0xc6, 0xe, 0xc3, 0x36, 0x3, 0xf, 0xf3, 0x2d, 0x1a, 0xb4, 0xe9, 0x42, 0x25, 0x29, 0x1f, 0xcb, 0xea, 0x46, 0x40, 
0x20, 0xec, 0x2f, 0x40, 0xfd, 0x61, 0x10, 0x1, 0xe, 0xf2, 0xf0, 0x18, 0xe1, 0xf9, 0x11, 0xa, 0x2d, 0x49, 0xd1, 0x40, 
0x8, 0x1d, 0x1, 0xf8, 0xe0, 0x7f, 0x0, 0x43, 0xf3, 0xe1, 0xed, 0xf7, 0x4e, 0x6, 0x19, 0xef, 0x44, 0x11, 0xae, 0xf1, 
0x6, 0x14, 0x12, 0xce, 0x21, 0xd, 0x1f, 0x9, 0x3a, 0x4, 0x48, 0xe7, 0xe0, 0x2c, 0x16, 0xf, 0x19, 0x21, 0x19, 0x1e, 
0x4, 0x2f, 0x31, 0xde, 0x11, 0xe4, 0xe3, 0xe5, 0x18, 0x5, 0xa, 0xef, 0x6, 0x36, 0xe8, 0xb6, 0x1c, 0xdb, 0xed, 0xfb, 
0xc7, 0xef, 0x4, 0xcb, 0x1b, 0xfd, 0xf4, 0xf, 0xc0, 0xe9, 0xe8, 0xe8, 0x11, 0x16, 0xe9, 0x16, 0x27, 0xf8, 0xf6, 0xff, 
0xfb, 0x21, 0x72, 0xfd, 0xf, 0xea, 0xfb, 0x15, 0xce, 0xc, 0x17, 0x22, 0xff, 0x20, 0xca, 0xff, 0x99, 0xc7, 0xc2, 0x12, 
0x29, 0x1a, 0x19, 0x28, 0xb, 0xeb, 0xe, 0x49, 0x2, 0xef, 0x22, 0x15, 0x47, 0x3, 0xfc, 0x24, 0xfc, 0x4, 0xe6, 0xec, 
0x8, 0x3a, 0xff, 0x26, 0x20, 0x30, 0xd5, 0x15, 0xf8, 0xf2, 0x16, 0xa, 0xd7, 0x59, 0x32, 0x51, 0x1e, 0x15, 0x3, 0xfb, 
0x2d, 0xa, 0xf4, 0xe5, 0x6, 0xf7, 0x4, 0xd8, 0x18, 0x4f, 0x9, 0x16, 0xb2, 0x2e, 0xed, 0xe4, 0x21, 0x39, 0x35, 0x7, 
0x31, 0x38, 0x16, 0x1, 0xdc, 0xb5, 0xce, 0xc4, 0xbc, 0x32, 0x13, 0xc4, 0x24, 0xef, 0xb, 0x6, 0xce, 0x14, 0xee, 0x26, 
0xde, 0xd8, 0x1f, 0xf5, 0x9, 0xa7, 0xf3, 0x27, 0xfd, 0x2b, 0xff, 0xc6, 0xc9, 0x2a, 0x9d, 0xcc, 0xa, 0xfd, 0xd6, 0x29, 
0xff, 0x5, 0xf6, 0xc3, 0xc0, 0x11, 0xe3, 0xc, 0x27, 0xf8, 0xf1, 0xfd, 0xf, 0xfc, 0xfc, 0xd8, 0xe1, 0xa6, 0x8, 0x24, 
0x3d, 0xf3, 0xc7, 0xa3, 0x11, 0x13, 0x32, 0xda, 0x28, 0xe, 0x7f, 0xc, 0xde, 0x23, 0xa6, 0xdf, 0xb4, 0x31, 0xe7, 0x3a, 
0xe7, 0x4b, 0x26, 0xd, 0x25, 0xd4, 0x10, 0x10, 0x24, 0x3e, 0x2a, 0x19, 0xfd, 0x1d, 0xeb, 0xc1, 0x52, 0xd2, 0xf9, 0xf5, 
0xe9, 0x16, 0xdb, 0xb, 0xa, 0x10, 0xea, 0x40, 0xde, 0xeb, 0x11, 0xbe, 0xf8, 0xc8, 0x1e, 0xef, 0xed, 0xc1, 0x9, 0xea, 
0xe4, 0xb, 0x10, 0x18, 0x31, 0x1c, 0xf2, 0x2a, 0xf9, 0xd0, 0xd3, 0x1e, 0x2, 0x37, 0x6, 0xf, 0xfe, 0x3c, 0xea, 0xed, 
0x17, 0xec, 0xe5, 0x16, 0xe2, 0x96, 0xd9, 0xaf, 0xe9, 0xf4, 0x1d, 0x2, 0xf2, 0x1, 0x1b, 0xe9, 0xb, 0x8, 0xf3, 0xed, 
0x66, 0xba, 0x18, 0xea, 0x1c, 0x5, 0xf7, 0xf4, 0xeb, 0xfe, 0x22, 0x32, 0x1d, 0xf6, 0x2f, 0xb5, 0xe7, 0xb, 0x3, 0xf0, 
0x25, 0x7f, 0xdd, 0x2f, 0xfd, 0xd8, 0xf9, 0xf1, 0xd0, 0xee, 0xf3, 0x2a, 0x3e, 0xd4, 0x56, 0x1f, 0xba, 0x4, 0xfe, 0x36, 
0xd0, 0xd0, 0xd0, 0x4d, 0xac, 0xe6, 0xd2, 0xce, 0xc2, 0xdc, 0x4a, 0xd2, 0xb7, 0x54, 0xe, 0xc0, 0x1c, 0xe9, 0xba, 0xe1, 
0xcf, 0xf5, 0xfe, 0x9, 0xee, 0xe7, 0x29, 0xd3, 0x9, 0x30, 0x18, 0xc0, 0xf1, 0xd, 0x13, 0x8, 0x2d, 0xf7, 0xfc, 0xf4, 
0xaa, 0xc4, 0x96, 0x48, 0xd9, 0xd8, 0x1, 0xe4, 0x48, 0x30, 0xfc, 0x42, 0xed, 0xd, 0xf2, 0xfe, 0xc1, 0x37, 0x33, 0x22, 
0xfd, 0x1a, 0xe, 0x6f, 0xf8, 0x2c, 0xb2, 0xe0, 0xb3, 0xcf, 0xfe, 0x7e, 0x17, 0xe1, 0xd5, 0x3f, 0x27, 0xe, 0xfb, 0xa, 
0xd1, 0xfd, 0x8, 0x4b, 0xdc, 0xd3, 0x3, 0xc5, 0xcd, 0x45, 0xef, 0xe1, 0xfb, 0x3a, 0xa7, 0x5, 0x10, 0x2f, 0x9, 0xec, 
0x57, 0xc5, 0x36, 0xec, 0xfd, 0x40, 0xe5, 0x57, 0xfe, 0x7, 0xb, 0xe, 0xae, 0xf0, 0xe4, 0x6, 0xcf, 0x35, 0xdd, 0xce, 
0x88, 0x1a, 0x5, 0xd6, 0xd7, 0xe9, 0x6, 0xf9, 0xe7, 0xb, 0x39, 0xfb, 0xb6, 0xd5, 0x2, 0xcd, 0xf2, 0xdc, 0x15, 0x5, 
0xf4, 0xd8, 0xbb, 0xfd, 0xcc, 0xff, 0x2, 0xe3, 0xf1, 0x7, 0x1d, 0xde, 0x48, 0x1c, 0x22, 0xfa, 0xc4, 0xfa, 0xfc, 0xff, 
0x2, 0xdb, 0xa, 0xf3, 0x16, 0xce, 0x1c, 0x2d, 0x54, 0x42, 0xdd, 0xf9, 0x4, 0xd6, 0xf6, 0xa, 0xd0, 0x1, 0xd2, 0xda, 
0xfc, 0xdd, 0x27, 0x22, 0x16, 0x22, 0xee, 0xe4, 0xf7, 0x64, 0x3c, 0x7, 0xfb, 0xb0, 0xe9, 0xf2, 0x1, 0xea, 0xf9, 0xe2, 
0xd8, 0x2b, 0xb3, 0x29, 0xf8, 0xcd, 0x1c, 0xae, 0x91, 0x2a, 0xac, 0x1c, 0x83, 0xc3, 0xcc, 0xd1, 0x0, 0x2e, 0xd4, 0xab, 
0xf0, 0x8, 0x20, 0x15, 0xf8, 0xfa, 0xf4, 0x0, 0xec, 0xcc, 0x36, 0x2d, 0x10, 0xaf, 0xde, 0xfa, 0xf9, 0xf6, 0xea, 0xa, 
0x15, 0x4e, 0x22, 0xa3, 0xff, 0xe6, 0xcc, 0xe6, 0x1, 0x4, 0x25, 0x1c, 0xd0, 0xc6, 0xee, 0xf9, 0x1f, 0xe6, 0x15, 0xd5, 
0x12, 0x1e, 0xe0, 0xb, 0xe6, 0xaf, 0xed, 0x9, 0xbb, 0xf3, 0xd1, 0x6, 0x27, 0xda, 0xf0, 0x19, 0xc7, 0xd6, 0x8, 0xd9, 
0xc5, 0x26, 0x2b, 0xca, 0xc, 0xf6, 0x2, 0x8d, 0x3d, 0xee, 0xe3, 0x24, 0xe6, 0xde, 0x28, 0xec, 0x15, 0xf6, 0x1, 0xd6, 
0xb6, 0x1d, 0xfe, 0x28, 0xff, 0xb, 0x15, 0xd8, 0x3, 0xe8, 0x2, 0x9, 0xf3, 0xff, 0xf0, 0xc8, 0x3e, 0x6d, 0xf9, 0x7f, 
0x34, 0x2d, 0xf0, 0xe2, 0xf6, 0xff, 0x11, 0xa8, 0xe9, 0xe7, 0xe7, 0xc4, 0x19, 0xa0, 0x44, 0x19, 0xc8, 0xd, 0xe2, 0x1c, 
0xda, 0xe0, 0x23, 0xc1, 0xd8, 0x25, 0xe9, 0x0, 0x3d, 0xd5, 0xed, 0xb9, 0xfd, 0xd4, 0xe7, 0x33, 0xea, 0x1f, 0x1d, 0x6, 
0xd4, 0xa, 0x0, 0xf0, 0x7, 0x54, 0x9, 0xeb, 0x1a, 0xd5, 0xce, 0x34, 0xea, 0xd5, 0xf, 0x1e, 0x1, 0xe2, 0x4c, 0xf, 
0x1a, 0xde, 0x1f, 0x13, 0xef, 0x0, 0xf4, 0xf5, 0x42, 0xd5, 0x21, 0x18, 0x54, 0xe6, 0xeb, 0x34, 0x2f, 0xf6, 0xd8, 0xfa, 
0x2, 0xed, 0x2b, 0xd0, 0x2d, 0xfb, 0xf2, 0x6, 0xea, 0x18, 0xe6, 0x13, 0x30, 0xf9, 0xf8, 0x3b, 0x5, 0x45, 0x9, 0xe4, 
0x34, 0x8, 0xe1, 0xd5, 0xc3, 0x2d, 0x0, 0x34, 0x4e, 0x39, 0x8, 0x9, 0x9, 0x28, 0xf8, 0x17, 0xec, 0x6, 0x15, 0x7, 
0xeb, 0xfc, 0xe8, 0x3e, 0x2c, 0xea, 0xf2, 0x4, 0x3b, 0xc9, 0x10, 0xef, 0xc4, 0x6, 0xf5, 0xfb, 0x32, 0xf3, 0xf2, 0xd7, 
0x27, 0xfa, 0xc2, 0x19, 0xe6, 0xda, 0xbe, 0x12, 0xe, 0x2, 0xf3, 0xac, 0xd4, 0xff, 0x46, 0x8, 0x13, 0x22, 0x2b, 0xfc, 
0xf4, 0xe9, 0xeb, 0x2e, 0xd2, 0x5, 0xfe, 0xc2, 0xe9, 0xe8, 0xc1, 0x16, 0xe8, 0x40, 0xa, 0x1c, 0x20, 0xd6, 0xdc, 0xe0, 
0xe5, 0x17, 0xb, 0xcd, 0x26, 0xde, 0xda, 0x2, 0xf, 0xf1, 0xe9, 0x1a, 0x27, 0xf4, 0xfa, 0xe7, 0xd, 0xf4, 0x13, 0xd, 
0xdb, 0x1d, 0x1, 0xfe, 0xfc, 0x24, 0xea, 0xf9, 0xf5, 0xf0, 0xca, 0xfd, 0x16, 0x25, 0xdc, 0x12, 0xfa, 0x14, 0xdd, 0xf4, 
0xf7, 0x2, 0xd4, 0xfc, 0xfa, 0xe8, 0xe0, 0x29, 0x28, 0x13, 0x20, 0x6, 0x9, 0xd3, 0xe4, 0x1d, 0xc8, 0x1d, 0x13, 0xfe, 
0x2b, 0xf3, 0xc4, 0x25, 0xee, 0xf1, 0x10, 0xbb, 0xdb, 0xcf, 0x2, 0xe6, 0xf0, 0xe8, 0x32, 0xe4, 0x7, 0xf3, 0xbb, 0xe1, 
0xe7, 0x4, 0x38, 0x8, 0x1a, 0x81, 0x27, 0xf3, 0xd9, 0x1, 0xd9, 0xb6, 0xa, 0x6, 0xda, 0x37, 0x0, 0xb, 0x4, 0xc8, 
0xff, 0xfe, 0xfd, 0x10, 0xef, 0xd9, 0xf2, 0x2b, 0x8, 0xfc, 0x11, 0x4a, 0xfe, 0x31, 0x36, 0x1f, 0x2, 0xff, 0x23, 0x8, 
0x4a, 0xf5, 0x34, 0xea, 0x14, 0xf2, 0xed, 0x1a, 0xf8, 0x27, 0xef, 0x2, 0xf0, 0xa, 0x20, 0xf2, 0x17, 0xf3, 0x69, 0xf8, 
0x37, 0x2c, 0xdb, 0x8, 0xf, 0x1b, 0x28, 0xd, 0xbd, 0xa7, 0xe3, 0xdc, 0x3c, 0x1, 0xa, 0xf2, 0xe3, 0xe8, 0xa, 0x5, 
0xa1, 0xfe, 0x1, 0xeb, 0x7, 0xa, 0xf5, 0xe3, 0xf5, 0x30, 0x59, 0x9, 0x3, 0xfa, 0xfd, 0x1, 0x20, 0xde, 0xf8, 0x3f, 
0x1e, 0xe2, 0xe7, 0xdf, 0xeb, 0xf0, 0x3, 0xf8, 0xfd, 0xef, 0xc0, 0x20, 0x11, 0x4, 0x1a, 0xdb, 0x2c, 0x1c, 0x17, 0xb, 
0x8, 0x17, 0x0, 0x7, 0xf4, 0xe9, 0xdf, 0xa9, 0x5, 0xce, 0xfd, 0xf2, 0xc, 0xdc, 0x19, 0x2a, 0x8, 0x9, 0xed, 0x23, 
0xcb, 0xf6, 0xe2, 0x10, 0x12, 0xf8, 0x29, 0xf1, 0xa8, 0xfd, 0xe9, 0x33, 0xd, 0x1b, 0xc1, 0xc1, 0xf0, 0xd3, 0x14, 0x4, 
0xe9, 0xe2, 0x18, 0x1d, 0x3c, 0x4a, 0x2b, 0xd0, 0xeb, 0x15, 0xa, 0xeb, 0xc, 0xf5, 0xce, 0xc6, 0x1, 0xc, 0xf6, 0x2e, 
0xef, 0x29, 0x24, 0xef, 0xf5, 0x1a, 0x14, 0x1, 0x19, 0xe1, 0xbc, 0xf1, 0xe9, 0xdd, 0xda, 0xbe, 0x19, 0xd8, 0xe0, 0x3e, 
0x2, 0xe7, 0xf8, 0x4b, 0x19, 0x8, 0x4, 0xf2, 0x6, 0x22, 0x1f, 0xd, 0xe6, 0x1c, 0xf5, 0x3d, 0x17, 0xf9, 0x29, 0xc4, 
0x37, 0x24, 0x5, 0x37, 0xe5, 0xf4, 0x11, 0xfd, 0x0, 0x9e, 0xd7, 0xf9, 0xd4, 0x66, 0xf9, 0x2b, 0x16, 0x48, 0x9, 0x27, 
0xd, 0xcc, 0x19, 0xbc, 0x3, 0xd3, 0xe5, 0xf2, 0x7, 0xeb, 0x3b, 0x35, 0xec, 0x0, 0xbb, 0x7e, 0x34, 0x41, 0x22, 0xbd, 
0xf, 0x11, 0xd, 0x39, 0x9, 0xc6, 0xf1, 0x2c, 0xf, 0x5, 0xeb, 0x92, 0x34, 0x1c, 0x1e, 0xdd, 0x6, 0xec, 0xf1, 0xdf, 
0x6, 0xe8, 0xdc, 0xd4, 0xc5, 0xe9, 0xdd, 0x95, 0x6f, 0xe8, 0x54, 0xf6, 0xf7, 0x3f, 0xdb, 0x29, 0xcf, 0x35, 0xd, 0xd9, 
0x14, 0xd6, 0xd7, 0xf9, 0xe4, 0x49, 0xec, 0xb9, 0x10, 0x14, 0x3d, 0xe, 0x1e, 0x10, 0xfe, 0x9, 0x35, 0xc8, 0xbb, 0x47, 
0x18, 0x2f, 0xe2, 0xd1, 0x5a, 0xcb, 0xf9, 0x6, 0x34, 0xe9, 0x11, 0x33, 0x27, 0xf9, 0xf, 0xe0, 0xf6, 0x15, 0x9, 0xf, 
0x24, 0xec, 0x31, 0xfd, 0x20, 0x35, 0xfb, 0xf4, 0xdd, 0x1c, 0xfe, 0xee, 0x2e, 0xdf, 0x39, 0x9, 0xf3, 0xfb, 0xfb, 0x14, 
0xeb, 0x6, 0xf1, 0xfc, 0xa, 0xc6, 0x12, 0xb8, 0xc, 0xe4, 0x4e, 0x1c, 0xdf, 0x3b, 0x2b, 0x4, 0xbb, 0xe6, 0x65, 0xef, 
0x33, 0x1d, 0xe5, 0x0, 0x3f, 0xf6, 0x1d, 0x19, 0x19, 0xb1, 0xd3, 0x2d, 0x32, 0x25, 0xf0, 0xb5, 0xde, 0xe5, 0xb9, 0xe7, 
0xde, 0xe0, 0xd2, 0x99, 0x7f, 0xce, 0x50, 0xfe, 0xfd, 0xa5, 0x15, 0xe0, 0x57, 0xfd, 0x2a, 0xd6, 0x25, 0x8, 0x15, 0xc7, 
0x13, 0xb8, 0xeb, 0x13, 0xa6, 0xf8, 0x11, 0xdd, 0xf4, 0x56, 0x28, 0xf6, 0xfd, 0xfb, 0x0, 0x21, 0xea, 0x12, 0xd, 0xcf, 
0x3b, 0xd2, 0xb4, 0xd1, 0x16, 0x28, 0xdb, 0x2f, 0xca, 0xe7, 0x22, 0xb2, 0xf0, 0x17, 0xce, 0x6, 0x46, 0x35, 0x1f, 0x2d, 
0xe2, 0x37, 0xf5, 0x1b, 0xe3, 0xf8, 0x1b, 0xbb, 0xe9, 0xd9, 0x34, 0xe6, 0xf5, 0x6, 0xda, 0xfd, 0xc, 0x1e, 0x6, 0x14, 
0x36, 0xa4, 0xa2, 0x12, 0xf8, 0xa0, 0xd2, 0x13, 0xfb, 0x31, 0x1b, 0x2b, 0x4a, 0x3c, 0x15, 0x8a, 0xdf, 0x88, 0x50, 0x19, 
0x23, 0xc, 0x9, 0x41, 0xf1, 0xdb, 0x3f, 0xe8, 0x1c, 0x3c, 0x42, 0x1c, 0x40, 0xfa, 0x20, 0xef, 0x1a, 0xd3, 0xfb, 0x1c, 
0x27, 0x24, 0x13, 0xf7, 0x2a, 0x1f, 0x5d, 0xf8, 0xbd, 0x11, 0xd1, 0xb2, 0xb9, 0x46, 0x13, 0xb, 0xd4, 0x1f, 0xf8, 0xe9, 
0x13, 0xef, 0xcb, 0xbc, 0xcc, 0x1d, 0x2e, 0x23, 0xfe, 0xd9, 0x27, 0xdb, 0xf8, 0x10, 0x6, 0x2e, 0xc2, 0xb, 0xd4, 0x7, 
0xf1, 0xbe, 0x34, 0x3f, 0x21, 0x2e, 0x12, 0x30, 0xdb, 0xe1, 0x39, 0xb, 0x10, 0xf6, 0x5, 0xeb, 0x1f, 0x1d, 0xdb, 0xbc, 
0xed, 0xe9, 0xfa, 0x40, 0xed, 0xcd, 0xc9, 0xa4, 0xaf, 0xd5, 0xf, 0xb, 0x1d, 0xd6, 0xf8, 0xc9, 0x3d, 0xd3, 0xec, 0xf6, 
0x13, 0x2b, 0x17, 0xe0, 0xfd, 0xce, 0x2e, 0x7, 0x32, 0xc9, 0x1f, 0xb5, 0xa2, 0x3a, 0xcb, 0x27, 0xd1, 0xf2, 0xfe, 0x1d, 
0x31, 0xae, 0xeb, 0xe2, 0xc2, 0x1c, 0x1d, 0xd5, 0xde, 0xd5, 0xff, 0x4, 0x2b, 0xe4, 0xe8, 0x1e, 0x3, 0xe6, 0xec, 0x1e, 
0xd2, 0xe9, 0x1e, 0x48, 0x15, 0xd6, 0xd3, 0xf2, 0xff, 0x1a, 0xf2, 0xb1, 0xec, 0x24, 0xd1, 0xd1, 0xf4, 0x42, 0x19, 0x4, 
0x9, 0xe5, 0x7b, 0xd5, 0xdb, 0xd7, 0xeb, 0xee, 0xf4, 0x12, 0xd8, 0xda, 0xae, 0x10, 0xf, 0xe9, 0x49, 0x56, 0x2c, 0x13, 
0x42, 0x16, 0xfd, 0x1e, 0x31, 0x5d, 0x2e, 0xaa, 0xa, 0x20, 0x22, 0xf, 0xd7, 0xdf, 0xff, 0x13, 0x35, 0xb4, 0x27, 0x15, 
0x58, 0x2e, 0x1f, 0xcf, 0xf8, 0xe0, 0x4, 0x18, 0xf8, 0xe6, 0xcf, 0xdd, 0xf0, 0x3, 0xe5, 0xcc, 0xa6, 0xba, 0xb, 0xdd, 
0x24, 0xf5, 0x34, 0x34, 0xb0, 0x6, 0x4, 0x30, 0xb2, 0xda, 0x53, 0x3a, 0x24, 0xea, 0x7, 0x90, 0xce, 0xd4, 0xc1, 0x25, 
0x29, 0xbf, 0xf8, 0x35, 0x0, 0xd, 0x28, 0x1, 0x16, 0xc6, 0xfc, 0xf9, 0xee, 0xfd, 0x4a, 0xee, 0xf8, 0x2a, 0x8f, 0x66, 
0x39, 0x59, 0x11, 0x1e, 0xf, 0x40, 0xb, 0xb4, 0xf7, 0x8, 0x2f, 0x10, 0x81, 0xd0, 0x22, 0xca, 0xf1, 0xe2, 0xbf, 0x7, 
0x6, 0xe8, 0x26, 0xfb, 0x11, 0x2e, 0xd5, 0xfc, 0x1, 0xd, 0xb3, 0xc2, 0x3c, 0xf2, 0xfb, 0x55, 0xd5, 0x44, 0x2a, 0x33, 
0xec, 0x2d, 0xea, 0x15, 0xf3, 0x31, 0xdd, 0xde, 0xef, 0xe, 0x27, 0xf9, 0xde, 0x36, 0xfe, 0xef, 0x23, 0x18, 0xfc, 0xe1, 
0x1d, 0x1b, 0x1e, 0x1a, 0xfd, 0xd, 0x14, 0xcd, 0xed, 0x25, 0xe3, 0x0, 0xdd, 0x1, 0xfc, 0xe9, 0x1, 0xd0, 0x39, 0x50, 
0x29, 0xbe, 0xc, 0xe3, 0xc8, 0xf4, 0xc6, 0x38, 0xfe, 0xe5, 0xf9, 0x37, 0xdc, 0xb4, 0xb9, 0xe, 0xe1, 0x30, 0x1c, 0x25, 
0xc5, 0x21, 0xf5, 0xd1, 0xf9, 0x8, 0x32, 0x14, 0xb4, 0x3b, 0xbc, 0x29, 0xd7, 0xd4, 0x0, 0xe3, 0x1e, 0xee, 0xa9, 0xd8, 
0xe4, 0x10, 0xf1, 0x20, 0xea, 0xb2, 0xfd, 0xaa, 0xd4, 0x2b, 0xe6, 0xeb, 0xd1, 0xe8, 0xd, 0x16, 0xff, 0xe, 0x12, 0xe0, 
0xe3, 0x7, 0x20, 0xc4, 0x2f, 0x29, 0x2a, 0x3d, 0xc, 0x54, 0xd4, 0xf, 0x27, 0xf1, 0xf, 0xe1, 0xc0, 0xd9, 0x23, 0x46, 
0x1e, 0xcc, 0x39, 0x7, 0xf7, 0x32, 0x2c, 0x33, 0x4e, 0xf7, 0xf7, 0x20, 0xfe, 0x20, 0xdf, 0x77, 0x0, 0xdc, 0xe8, 0xd6, 
0xe9, 0xc9, 0x17, 0xd, 0xe3, 0xe2, 0xee, 0xd2, 0xb6, 0x49, 0x12, 0x11, 0xcd, 0xa, 0x21, 0xe7, 0x11, 0x3e, 0x13, 0x34, 
0xb2, 0xe0, 0xa5, 0xde, 0x97, 0x25, 0x1c, 0xf7, 0xff, 0xf1, 0x3d, 0xf6, 0x28, 0xee, 0xc4, 0x5, 0x29, 0xff, 0x2, 0x1b, 
0x27, 0x2e, 0x42, 0xed, 0xef, 0xe, 0xdf, 0xbc, 0xe6, 0xcd, 0xa3, 0xdd, 0xb3, 0xf3, 0x3d, 0x0, 0xfd, 0x6, 0xd3, 0x16, 
0xff, 0x1d, 0x33, 0xb5, 0x29, 0x3, 0xa, 0x1b, 0xda, 0xed, 0x25, 0xe3, 0xf8, 0x2b, 0xf5, 0xba, 0xfd, 0x1d, 0xbf, 0xe4, 
0x81, 0x39, 0x3d, 0xc8, 0xf6, 0xf7, 0xe3, 0x2f, 0xdf, 0x4a, 0xb5, 0xfe, 0xb0, 0x3d, 0x28, 0x9, 0x14, 0xa, 0xe0, 0xd5, 
0x15, 0x5b, 0x4, 0xf0, 0x29, 0x16, 0xfc, 0xed, 0xee, 0xd2, 0xe2, 0x40, 0xa1, 0xf, 0xdb, 0xb, 0x3, 0x2b, 0xc9, 0xa, 
0xe6, 0x4f, 0x1e, 0xf4, 0xad, 0x60, 0xde, 0xd4, 0x20, 0xaf, 0xeb, 0xbd, 0xd7, 0xc1, 0xd1, 0xec, 0xd, 0xd0, 0x2, 0x30, 
0xed, 0xf2, 0x19, 0xb2, 0xfc, 0x30, 0x0, 0xda, 0x3, 0x4, 0xd2, 0xf7, 0xd4, 0x21, 0x2, 0x26, 0xce, 0x21, 0xe9, 0xd0, 
0xd6, 0x17, 0x30, 0xf3, 0xfa, 0x4, 0x27, 0xbc, 0x1, 0x3, 0x24, 0x5, 0xc8, 0xc7, 0xdc, 0x7, 0x4, 0x19, 0x1, 0x47, 
0xc4, 0xc, 0x18, 0x1b, 0xea, 0x1d, 0x27, 0xe8, 0xe1, 0xd2, 0xa, 0xf5, 0x27, 0x9, 0x3f, 0x33, 0xaf, 0xe9, 0xaa, 0x29, 
0xfa, 0xfb, 0xa7, 0x50, 0xed, 0xf2, 0x14, 0x2f, 0xf3, 0x34, 0xf3, 0x47, 0x2b, 0x0, 0x2d, 0x1f, 0xfc, 0x15, 0xd3, 0xf7, 
0x2f, 0xf4, 0xfd, 0x12, 0x4, 0xe2, 0xeb, 0x13, 0x2, 0xdf, 0xf4, 0x32, 0xd4, 0x8, 0xe4, 0x3a, 0xfe, 0xf4, 0x27, 0xb8, 
0x2, 0x1c, 0x2, 0x48, 0x28, 0xde, 0xc9, 0x3, 0xc4, 0x2, 0x32, 0x15, 0xdf, 0x38, 0xec, 0xd, 0xfa, 0xb4, 0xde, 0xec, 
0xc7, 0xd0, 0x7, 0x1, 0x19, 0xf6, 0xf1, 0x40, 0x15, 0x1a, 0x27, 0x11, 0xf4, 0x1a, 0xec, 0x1e, 0x18, 0xf0, 0x1d, 0xcd, 
0x22, 0xf5, 0xb, 0xd5, 0xcc, 0x11, 0xe9, 0x26, 0x1f, 0xde, 0x12, 0xe9, 0x1c, 0xc, 0x9d, 0xc, 0x15, 0x12, 0xba, 0x1d, 
0xcf, 0xde, 0xcc, 0x51, 0x58, 0x6, 0xef, 0xd6, 0x13, 0x17, 0x14, 0xed, 0x25, 0xe1, 0xff, 0xca, 0xa, 0x1, 0x1a, 0x7f, 
0x18, 0x1f, 0xf8, 0xcb, 0xfb, 0x2b, 0xf5, 0x4, 0xe1, 0x12, 0xa, 0xea, 0xe, 0x8, 0x8, 0xeb, 0xe4, 0xb, 0x10, 0x2f, 
0xf8, 0xe0, 0xc, 0xd7, 0x15, 0xd0, 0xe, 0x78, 0xef, 0xe4, 0xa7, 0x14, 0x52, 0xfb, 0x27, 0xe7, 0xe, 0xa, 0xd3, 0xeb, 
0xf8, 0xf3, 0xb0, 0x26, 0xc, 0x16, 0x19, 0xf9, 0x1, 0xcf, 0xee, 0x29, 0xd, 0xc, 0x7, 0x29, 0x57, 0xb3, 0xfc, 0xf2, 
0xef, 0xfd, 0xe4, 0xd3, 0xbc, 0x1, 0xe1, 0xf3, 0xa, 0xcc, 0xed, 0xca, 0xf, 0xf2, 0xda, 0xff, 0xe5, 0x24, 0xd2, 0x33, 
0xfc, 0x7, 0x1c, 0x7, 0x38, 0xf1, 0xf5, 0xe1, 0xec, 0xfc, 0xb3, 0xe0, 0x28, 0xd0, 0x34, 0x7, 0xd5, 0xd1, 0x30, 0x9, 
0x3f, 0xcd, 0x18, 0xeb, 0x8, 0x27, 0x34, 0xd5, 0x3, 0xe9, 0x6, 0xfd, 0x13, 0x20, 0x20, 0xc8, 0x0, 0x15, 0x17, 0x66, 
0xed, 0x1c, 0xc5, 0x51, 0xad, 0xdc, 0x2d, 0xac, 0x27, 0xc6, 0xce, 0x1e, 0x1b, 0xc9, 0x19, 0x2c, 0x1b, 0xf, 0x1b, 0xd3, 
0xf9, 0xf0, 0x3d, 0x2a, 0x2b, 0x4, 0xd6, 0xf2, 0xba, 0xc3, 0xd6, 0xbd, 0x4, 0x5a, 0xb9, 0xef, 0xd6, 0x4e, 0x18, 0x7, 
0x95, 0xd9, 0xb8, 0x2a, 0xff, 0xfb, 0xd8, 0x54, 0xec, 0xd3, 0x13, 0xbe, 0x30, 0x5d, 0xef, 0x2d, 0xc, 0xb, 0xe8, 0x0, 
0xd3, 0x12, 0xee, 0xf3, 0xc0, 0xbd, 0x33, 0x69, 0x15, 0x60, 0xfd, 0x12, 0x2d, 0xff, 0x4, 0xd0, 0x4c, 0xe, 0xe, 0xe4, 
0x39, 0x2, 0x48, 0x5, 0x5, 0xfd, 0xcb, 0x4f, 0xd7, 0x3e, 0x61, 0x4, 0x2e, 0x44, 0xcd, 0x9d, 0x3, 0xbc, 0x93, 0x26, 
0x5, 0x30, 0xb, 0x45, 0xe5, 0x31, 0xfc, 0xe7, 0x15, 0xec, 0x50, 0xea, 0xf2, 0xf4, 0xfd, 0x11, 0xf4, 0x2e, 0x15, 0xc2, 
0x3e, 0x1c, 0xbc, 0xfc, 0x18, 0x1, 0xea, 0xc0, 0xea, 0x2e, 0xe9, 0x6c, 0x46, 0xb4, 0x23, 0x11, 0xf9, 0x12, 0x41, 0x1f, 
0xdd, 0x10, 0xb5, 0xff, 0x35, 0xcc, 0x81, 0x66, 0x33, 0xfe, 0xa7, 0x63, 0x41, 0x24, 0xf, 0x2c, 0x33, 0xd, 0xfa, 0x4, 
0xea, 0x0, 0xf, 0x66, 0xc3, 0x1a, 0xdd, 0xe2, 0xfd, 0x2c, 0xff, 0xda, 0xba, 0x1b, 0x4e, 0x10, 0xdd, 0xe9, 0x11, 0xf7, 
0xc5, 0x23, 0xc8, 0x4a, 0xf7, 0xc1, 0x47, 0xf9, 0x36, 0x33, 0xb3, 0x98, 0x3d, 0xff, 0xa, 0xf2, 0x47, 0xef, 0xc8, 0xfb, 
0x17, 0xb9, 0xf6, 0x99, 0x68, 0x1f, 0xfe, 0xc7, 0x13, 0xcf, 0x66, 0x0, 0xce, 0xfe, 0xc, 0x7, 0x51, 0x21, 0xd5, 0x15, 
0xcc, 0x2, 0x2a, 0xf3, 0xcc, 0x0, 0xfa, 0xc1, 0xd1, 0xec, 0xf3, 0x1c, 0xe0, 0xf1, 0x2, 0xf3, 0xd3, 0xc8, 0xfc, 0x22, 
0x5, 0x2f, 0x2e, 0xf5, 0xfc, 0xf6, 0x2b, 0x3, 0xe6, 0xbd, 0x69, 0x3, 0xec, 0xb9, 0xf4, 0xec, 0x1, 0xc1, 0x45, 0xf9, 
0xd3, 0x3e, 0x1b, 0xe9, 0xbe, 0xd3, 0xde, 0xf5, 0x19, 0x5c, 0x26, 0xba, 0xc5, 0x4a, 0xf4, 0xdc, 0x3b, 0xac, 0x59, 0x14, 
0xc, 0xd6, 0x1a, 0xea, 0x7f, 0xf5, 0xb, 0xec, 0xf, 0xfd, 0xc9, 0xc2, 0xf3, 0x48, 0xeb, 0xf6, 0xea, 0x1c, 0xfc, 0xe5, 
0x22, 0x14, 0x20, 0xe5, 0x24, 0xdb, 0xfa, 0x1c, 0xc, 0x3d, 0x11, 0xe, 0x29, 0x34, 0x4a, 0xc2, 0xc1, 0xec, 0xc1, 0x3e, 
0xdd, 0xdc, 0x8, 0xde, 0x3a, 0x3e, 0x9, 0x13, 0x8d, 0xee, 0xf5, 0xd4, 0xef, 0xf0, 0x25, 0x34, 0x7, 0x19, 0xd5, 0x27, 
0x6, 0x29, 0xb, 0xe0, 0xe5, 0xc, 0xeb, 0xf2, 0x3f, 0xd5, 0xfe, 0xd6, 0x10, 0x13, 0xcc, 0x1e, 0xed, 0x4c, 0xf7, 0xf7, 
0x2c, 0x4, 0xef, 0x32, 0xf, 0xe5, 0xd1, 0xfa, 0x16, 0xf4, 0xf2, 0xdf, 0x10, 0x4, 0x0, 0x12, 0x36, 0xb0, 0x15, 0xe1, 
0xf5, 0xf5, 0x2d, 0xdf, 0x20, 0xc1, 0xa, 0xe1, 0x24, 0x20, 0x2f, 0xfc, 0xfa, 0x39, 0xcd, 0x2f, 0xeb, 0xf1, 0xec, 0xd, 
0x28, 0x11, 0x12, 0x2c, 0xd3, 0xfd, 0x5, 0xc7, 0xff, 0x20, 0xd0, 0x52, 0xff, 0xd3, 0xd, 0x57, 0xf1, 0x41, 0xf0, 0x31, 
0x31, 0x19, 0xfa, 0xf9, 0xea, 0x19, 0xd6, 0xc8, 0x9, 0xd8, 0xab, 0x8, 0xf, 0x4a, 0xf, 0x11, 0x4, 0xae, 0xf6, 0x2c, 
0x1b, 0xf, 0xf3, 0x22, 0xc5, 0xe5, 0x8, 0x96, 0xf2, 0xce, 0xc9, 0xd3, 0xea, 0xf0, 0xee, 0xf2, 0xf6, 0xe9, 0x11, 0xf2, 
0xbc, 0x8b, 0xfd, 0x74, 0xe1, 0xf1, 0xe1, 0xcd, 0xfa, 0xb, 0x27, 0xab, 0x26, 0xc2, 0xf2, 0xbf, 0xe2, 0x1f, 0xfb, 0x2d, 
0xf1, 0xf3, 0x22, 0x2f, 0xfe, 0x6, 0x28, 0xc6, 0x12, 0xf0, 0x17, 0xf4, 0xa9, 0x1a, 0xd8, 0x2, 0xf0, 0x0, 0x1a, 0xf8, 
0xf5, 0x2c, 0xf7, 0x1b, 0x1, 0x2c, 0xdc, 0x9c, 0xd1, 0xf7, 0xe3, 0xfa, 0x25, 0x23, 0xd, 0x14, 0x29, 0xf3, 0xf6, 0xe4, 
0xd7, 0x25, 0x14, 0xc8, 0x0, 0xe8, 0x21, 0xe9, 0xf8, 0x12, 0xec, 0x53, 0xe2, 0xb, 0xf8, 0xe4, 0xf5, 0xc3, 0x1a, 0x28, 
0x24, 0xf7, 0x24, 0xbd, 0xd2, 0xe2, 0x42, 0xee, 0x7, 0xbb, 0xd6, 0x4f, 0xf2, 0xdc, 0x3, 0xee, 0x42, 0xf9, 0xf6, 0x24, 
0xcb, 0x2d, 0x37, 0x27, 0xa, 0x4, 0x21, 0x1, 0xe, 0xe9, 0x29, 0xcd, 0xee, 0xfe, 0xf9, 0xc, 0xec, 0xb, 0x1f, 0x31, 
0x4, 0x4, 0xa, 0x9a, 0x1e, 0x21, 0x1f, 0xf6, 0x9, 0x11, 0xdb, 0xe1, 0x2a, 0x3, 0xfa, 0xf7, 0x2, 0xfd, 0x38, 0xcd, 
0xec, 0x4, 0xca, 0x32, 0xf7, 0xfd, 0xe4, 0x2, 0xfa, 0x1c, 0x2e, 0x6, 0x26, 0xc0, 0xf7, 0x46, 0x13, 0xe5, 0xec, 0x30, 
0x24, 0x2d, 0xd9, 0xfc, 0xc8, 0xd9, 0x4, 0x9, 0xec, 0xf9, 0x39, 0xf2, 0xf7, 0xed, 0xec, 0x30, 0x25, 0xec, 0xa, 0x7, 
0x10, 0xfe, 0xfc, 0x1, 0x23, 0xd7, 0x31, 0xfd, 0x27, 0x1e, 0xf6, 0x26, 0x26, 0x18, 0xb9, 0x13, 0xda, 0xf6, 0x9, 0xf1, 
0x2b, 0xf2, 0xd3, 0x4c, 0xb6, 0x16, 0xf2, 0x13, 0xce, 0x1d, 0xf3, 0x0, 0x4, 0x2d, 0x15, 0xe8, 0x29, 0xe9, 0xde, 0xdd, 
0xf6, 0xe1, 0xf9, 0x38, 0x1d, 0xf9, 0x9, 0x36, 0x2a, 0xf7, 0xf6, 0xfb, 0x23, 0x1f, 0xee, 0xc5, 0xdb, 0x1a, 0xcf, 0xff, 
0xdd, 0x23, 0xff, 0xf6, 0xeb, 0xf2, 0x5, 0x2e, 0xe4, 0x9, 0xf7, 0xf2, 0x21, 0x3, 0xb, 0x1c, 0x2d, 0x27, 0xfb, 0xf3, 
0xe0, 0x0, 0x6, 0x11, 0xf9, 0xdb, 0x16, 0x10, 0x11, 0x14, 0xca, 0x11, 0xa, 0xe5, 0x10, 0xd3, 0x0, 0xc7, 0xf7, 0xf2, 
0x10, 0xc5, 0x2b, 0x1f, 0x2a, 0x17, 0xf, 0x26, 0xf5, 0xe9, 0x2e, 0x15, 0x18, 0x20, 0xf5, 0xa1, 0xdd, 0x29, 0xd2, 0x1a, 
0xdf, 0x10, 0xcd, 0x1e, 0x20, 0x2e, 0xdb, 0xff, 0xa5, 0x2a, 0x33, 0x4, 0xfd, 0x32, 0xb, 0x16, 0xea, 0xee, 0x23, 0x36, 
0x14, 0xc, 0x23, 0x1d, 0x11, 0xe8, 0x5, 0xe, 0xb5, 0xe9, 0x3, 0xb1, 0x3, 0xd, 0xd1, 0x57, 0x29, 0xc3, 0xc8, 0xca, 
0x6, 0x2a, 0xc4, 0x7f, 0xf8, 0xf0, 0x17, 0x2, 0xef, 0xe9, 0xf8, 0xa0, 0xbc, 0xc, 0xb3, 0xb, 0xe2, 0x5, 0x17, 0xf0, 
0xf6, 0xec, 0x7, 0x2a, 0x26, 0xe7, 0xdc, 0xfd, 0xcd, 0xec, 0x25, 0xdb, 0xc, 0xec, 0xd1, 0xbe, 0x2c, 0x20, 0x1c, 0xd, 
0xd7, 0x25, 0xb8, 0x1, 0xf2, 0xef, 0x1d, 0xf1, 0xe6, 0x1d, 0x29, 0xe5, 0xeb, 0xf, 0xef, 0xe4, 0xf9, 0xfd, 0x3b, 0xfd, 
0x24, 0x28, 0x44, 0x9, 0x0, 0x3e, 0x1, 0xa9, 0xf1, 0x25, 0xd5, 0x48, 0xd9, 0x6, 0x11, 0x36, 0xf5, 0xfd, 0x1e, 0xdf, 
0x1b, 0x1d, 0xf1, 0xda, 0xd8, 0xcd, 0x10, 0xe1, 0xd3, 0x17, 0xe0, 0x2f, 0xe1, 0x6, 0x7, 0x2, 0xd7, 0xf7, 0xd0, 0x49, 
0xda, 0xee, 0xc7, 0xde, 0xad, 0x0, 0x2e, 0xbc, 0x4e, 0x3e, 0xea, 0xa5, 0x24, 0xd0, 0x6, 0x4c, 0xc7, 0xd8, 0xe0, 0xe3, 
0x23, 0x2, 0x96, 0x66, 0x46, 0x2, 0x2a, 0x17, 0x7f, 0x23, 0xc, 0x40, 0x2a, 0x23, 0x5, 0x7, 0xde, 0xf0, 0xef, 0xf8, 
0xd, 0x67, 0x1e, 0xf9, 0xd, 0xe4, 0xda, 0x20, 0xb4, 0x2d, 0x92, 0x8, 0x37, 0xdc, 0x22, 0x4, 0xcd, 0x58, 0x33, 0xfe, 
0xbd, 0xe, 0xee, 0x44, 0x24, 0x12, 0x67, 0xf4, 0x7a, 0x25, 0xd2, 0xd0, 0xf6, 0x2b, 0x9d, 0xf, 0x36, 0xd2, 0xa6, 0x33, 
0x5c, 0xe2, 0xf3, 0x12, 0xec, 0x2c, 0xc1, 0xf9, 0x29, 0xf3, 0x10, 0xe2, 0x16, 0xc, 0xf7, 0x42, 0x1a, 0xf3, 0xe5, 0x26, 
0xb1, 0xc1, 0xef, 0xab, 0x23, 0x14, 0xff, 0xf0, 0x1e, 0x0, 0xde, 0x40, 0x8, 0xc, 0xff, 0x1c, 0xd7, 0xb, 0xdf, 0xdc, 
0xcd, 0xc5, 0x14, 0xf, 0xdb, 0xf5, 0xd8, 0xcc, 0x8, 0x97, 0x14, 0x15, 0x4, 0x53, 0x18, 0x21, 0x10, 0x6, 0xf3, 0xd, 
0x9, 0xd1, 0x9c, 0xe2, 0x44, 0x16, 0x43, 0xf9, 0xd1, 0xfb, 0x9, 0xf0, 0x28, 0xf7, 0xe3, 0xd7, 0xfc, 0x4b, 0x23, 0x34, 
0xf0, 0x1f, 0xf7, 0x3d, 0x68, 0xee, 0xd8, 0xc9, 0xcd, 0x4f, 0x1d, 0x28, 0x1d, 0xe1, 0xa, 0x39, 0xeb, 0xab, 0x21, 0xdf, 
0x1a, 0x5d, 0xb8, 0x13, 0xb5, 0xd6, 0xa9, 0xff, 0x12, 0xeb, 0x3c, 0xef, 0xd7, 0xa8, 0x14, 0xcc, 0x58, 0x4c, 0xb6, 0x39, 
0xda, 0xf3, 0xf4, 0xe4, 0x5, 0x31, 0x44, 0x9, 0x4d, 0xc, 0x0, 0x22, 0x15, 0x7, 0x31, 0x51, 0x9b, 0xc0, 0xf2, 0x8b, 
0x0, 0x14, 0x22, 0x65, 0x6, 0x32, 0x46, 0xe2, 0xcf, 0x3, 0x3a, 0xcd, 0xde, 0xd0, 0xa7, 0xb8, 0xc1, 0x31, 0xd, 0xc3, 
0xd0, 0xb, 0xf4, 0x9a, 0xe2, 0xef, 0xe1, 0x4d, 0xea, 0xe2, 0xb3, 0x26, 0xd4, 0xe0, 0xd8, 0xdd, 0x32, 0x14, 0x17, 0x29, 
0xe6, 0xbf, 0xe1, 0xcf, 0xdc, 0x3c, 0x5, 0x19, 0xd9, 0x37, 0x10, 0x33, 0xfa, 0x2c, 0x1d, 0x9a, 0x5, 0x44, 0xc7, 0x3a, 
0x9, 0xf6, 0xe7, 0x45, 0x55, 0x19, 0x2f, 0x10, 0xce, 0x81, 0x34, 0x3, 0xe1, 0xee, 0xf4, 0x31, 0x41, 0xc, 0xd5, 0xd0, 
0x1, 0xfc, 0xf9, 0x1b, 0xfa, 0x7, 0x3, 0xd2, 0xf5, 0xcc, 0x19, 0xfe, 0x23, 0x23, 0x5, 0xf, 0xf6, 0x5, 0xb7, 0x7, 
0xfb, 0x32, 0xd7, 0x1d, 0xf7, 0x31, 0xcd, 0x3f, 0x9, 0xc8, 0xc6, 0xc3, 0xcf, 0xed, 0xd1, 0xd8, 0xd7, 0x15, 0xb5, 0x6e, 
0x30, 0xb, 0xd9, 0x57, 0x13, 0x30, 0x64, 0xe9, 0x23, 0x3, 0xb8, 0x3f, 0xf, 0x32, 0x11, 0xfb, 0x3a, 0xe7, 0xd7, 0xe3, 
0xf2, 0xd2, 0x7, 0x6e, 0x1, 0xf1, 0x2f, 0x3b, 0x33, 0xef, 0x29, 0x1f, 0x7, 0x1f, 0xd3, 0x28, 0x1d, 0x21, 0x8, 0xb8, 
0xea, 0x20, 0xf6, 0x66, 0x6e, 0x25, 0x21, 0x37, 0xfe, 0xde, 0x3a, 0xda, 0x4a, 0xff, 0xfd, 0xd3, 0x31, 0xa, 0xfd, 0xb, 
0xf8, 0xe, 0xc6, 0xfc, 0xf1, 0xba, 0xe7, 0xf, 0x5d, 0xf0, 0xb8, 0xd1, 0xf1, 0xdb, 0xc2, 0x5, 0x10, 0xfd, 0xf6, 0x8, 
0x6, 0x2a, 0x2d, 0x28, 0x1, 0xe, 0xf, 0x32, 0xb3, 0x8, 0x42, 0xd8, 0xf0, 0xe5, 0xe2, 0xc8, 0x79, 0xe4, 0x21, 0x13, 
0xe1, 0xf4, 0xf, 0x1, 0x98, 0xd4, 0x43, 0x1a, 0xee, 0x21, 0xc, 0x37, 0x24, 0x5b, 0x30, 0x5, 0xfe, 0x1a, 0xd2, 0xb4, 
0x10, 0x21, 0x2f, 0xe4, 0xf0, 0x2, 0xb2, 0x58, 0x10, 0x7, 0x20, 0xfc, 0xc5, 0x4d, 0x0, 0x25, 0xe8, 0xeb, 0xf4, 0xc9, 
0xe8, 0x42, 0xde, 0xc8, 0xf5, 0xed, 0xe8, 0xf6, 0xe1, 0x23, 0x13, 0xcf, 0xcc, 0xeb, 0xe2, 0x1, 0x15, 0x34, 0x4, 0x2, 
0xa4, 0xc6, 0x7, 0x27, 0xd0, 0xe6, 0x5c, 0xfc, 0xd9, 0x8f, 0x9, 0x4b, 0xea, 0xeb, 0xfc, 0xe2, 0xf6, 0xdb, 0xc9, 0xf1, 
0xc8, 0x3, 0x46, 0xdb, 0x10, 0xd4, 0xd1, 0x2e, 0x10, 0x21, 0x11, 0xc7, 0x13, 0x44, 0xf9, 0xd8, 0x22, 0xed, 0xfc, 0xe2, 
0x3b, 0xfa, 0x2c, 0xb3, 0xe0, 0x22, 0xe0, 0x10, 0x33, 0x1b, 0x1, 0x2, 0xe3, 0xf0, 0xdc, 0x2e, 0x2e, 0x8, 0x4, 0x1f, 
0x16, 0xf, 0xc, 0x24, 0xf5, 0x1, 0x1b, 0x16, 0xa, 0xeb, 0x8, 0xfa, 0xfe, 0x1d, 0xda, 0xed, 0xef, 0xea, 0x7, 0x1e, 
0x12, 0x17, 0xcc, 0xe6, 0xf3, 0x2a, 0xed, 0x14, 0xef, 0x6, 0xb, 0x20, 0x15, 0xe8, 0xe7, 0xb, 0xd9, 0x16, 0x12, 0xf6, 
0x59, 0xd, 0xcc, 0xc6, 0x2d, 0xd3, 0x9, 0xf, 0x10, 0xf4, 0xe, 0xff, 0xf8, 0xee, 0x6, 0xaf, 0xc, 0xa, 0xd5, 0xea, 
0xd1, 0xf7, 0xca, 0x23, 0xef, 0xe9, 0x18, 0xd4, 0x1c, 0xf2, 0xc7, 0xd, 0xb0, 0xbc, 0x29, 0xff, 0x2c, 0x16, 0xf6, 0xe1, 
0x26, 0x28, 0xf5, 0x30, 0xe1, 0x42, 0x42, 0xda, 0x19, 0xf8, 0x16, 0x1, 0xd9, 0xd3, 0xcf, 0x35, 0x5, 0x1d, 0xd0, 0x12, 
0xd7, 0xf8, 0xe6, 0xde, 0x11, 0x8, 0x44, 0xdb, 0xd6, 0xe0, 0xf9, 0xe1, 0xd4, 0xd1, 0x2, 0x6, 0x1a, 0xff, 0xfb, 0xea, 
0xfd, 0xf9, 0x0, 0x20, 0xd9, 0xb, 0xcf, 0xe7, 0x1f, 0xee, 0x2e, 0x1c, 0x92, 0x2, 0xed, 0xc7, 0xa, 0x27, 0xd9, 0x17, 
0xec, 0x35, 0xde, 0xf4, 0xde, 0xfa, 0xf1, 0xf7, 0x38, 0x32, 0x2d, 0x9d, 0x3b, 0xfa, 0xf2, 0xeb, 0x47, 0x2a, 0x42, 0x28, 
0xdf, 0x15, 0xf5, 0x32, 0x1d, 0xef, 0xec, 0xe1, 0x1, 0xd1, 0xed, 0xe3, 0xcb, 0x1f, 0xbf, 0x1f, 0xdb, 0x18, 0x3, 0xfb, 
0x3b, 0xd2, 0x45, 0xd3, 0xdf, 0x3, 0x16, 0xe3, 0x13, 0x4b, 0xf8, 0xd7, 0xf1, 0xe5, 0xde, 0x21, 0xd7, 0x16, 0xa5, 0xe0, 
0x22, 0x8, 0x1b, 0x19, 0x8, 0xb, 0xd7, 0xed, 0x0, 0x6b, 0xd4, 0xf7, 0x19, 0x27, 0xfa, 0x12, 0xcf, 0x3f, 0x0, 0xb1, 
0xf3, 0xef, 0x1, 0xf, 0x12, 0x16, 0x8, 0x14, 0xd3, 0x1f, 0xe6, 0x0, 0xe9, 0x2e, 0x97, 0xf1, 0xc9, 0xd1, 0x19, 0xed, 
0xf0, 0x7f, 0xe8, 0x6, 0xe3, 0xd9, 0xeb, 0xa3, 0x46, 0xd8, 0xf4, 0xf7, 0x18, 0xaa, 0x2b, 0x3b, 0xf2, 0xd5, 0xe2, 0xf2, 
0x32, 0x9b, 0xff, 0xff, 0x4, 0x0, 0x0, 0x0, 0x80, 0x0, 0x0, 0x0, 0x27, 0xe4, 0xff, 0xff, 0x6d, 0xdf, 0xff, 0xff, 
0xfe, 0xff, 0xff, 0xff, 0xca, 0xfd, 0xff, 0xff, 0x2c, 0x9, 0x0, 0x0, 0x9d, 0xec, 0xff, 0xff, 0xbc, 0x2, 0x0, 0x0, 
0x24, 0xe4, 0xff, 0xff, 0x80, 0xff, 0xff, 0xff, 0xdc, 0x1c, 0x0, 0x0, 0x9e, 0xf1, 0xff, 0xff, 0x10, 0x1, 0x0, 0x0, 
0xc1, 0xc, 0x0, 0x0, 0x96, 0x12, 0x0, 0x0, 0xee, 0xf8, 0xff, 0xff, 0xa4, 0x29, 0x0, 0x0, 0x65, 0x2, 0x0, 0x0, 
0x9d, 0xe5, 0xff, 0xff, 0xee, 0xed, 0xff, 0xff, 0xba, 0x1d, 0x0, 0x0, 0xb0, 0x14, 0x0, 0x0, 0x79, 0xc, 0x0, 0x0, 
0x61, 0xf5, 0xff, 0xff, 0x86, 0xe, 0x0, 0x0, 0xfd, 0xa, 0x0, 0x0, 0xb2, 0xfa, 0xff, 0xff, 0xd, 0xf9, 0xff, 0xff, 
0x9d, 0xb, 0x0, 0x0, 0x90, 0xff, 0xff, 0xff, 0xdf, 0xf6, 0xff, 0xff, 0xfc, 0xf4, 0xff, 0xff, 0xc2, 0xa, 0x0, 0x0, 
0xbe, 0x9b, 0xff, 0xff, 0x4, 0x0, 0x0, 0x0, 0x0, 0x60, 0x0, 0x0, 0x34, 0x1d, 0xc, 0x1b, 0x9, 0xcc, 0x20, 0x17, 
0xfa, 0x54, 0xe9, 0xe9, 0x0, 0xdd, 0xc8, 0x12, 0xe0, 0x3, 0xfe, 0x20, 0xa, 0xdf, 0xf6, 0xf0, 0x1e, 0xdc, 0xe6, 0x14, 
0xe, 0xd8, 0x11, 0xa, 0xc6, 0x31, 0xe, 0x9, 0xf3, 0x14, 0xca, 0x15, 0xee, 0xd, 0x3, 0x12, 0xe7, 0xcd, 0x24, 0x1c, 
0xcf, 0xe2, 0xff, 0x1d, 0x16, 0xe9, 0xd5, 0xd9, 0x15, 0xb7, 0x33, 0x29, 0x17, 0x1b, 0x15, 0x3d, 0x1a, 0xc, 0xf4, 0x4, 
0x21, 0xaf, 0x1d, 0xfe, 0x19, 0x28, 0x5, 0xf5, 0xdd, 0xd0, 0xc3, 0x36, 0x14, 0xf6, 0xd, 0xe7, 0xe7, 0xc9, 0x3d, 0x13, 
0x2f, 0xdd, 0x15, 0xd, 0xe7, 0xdd, 0xd5, 0x49, 0x23, 0x19, 0xd4, 0xd1, 0xe7, 0x20, 0xd4, 0x8, 0xe2, 0xf0, 0x33, 0x11, 
0xdb, 0x36, 0xea, 0x6, 0xea, 0x1, 0xd1, 0xde, 0x1, 0xa, 0x27, 0x3d, 0xe3, 0x20, 0xee, 0xd4, 0x12, 0xaf, 0x1b, 0xf6, 
0xef, 0x4a, 0x1b, 0xe, 0xf1, 0xfb, 0x0, 0xda, 0xf5, 0x17, 0xdc, 0xd9, 0xc, 0xeb, 0x8, 0xdd, 0xd3, 0xe5, 0x19, 0xdd, 
0x2a, 0x17, 0xf0, 0xf0, 0x2c, 0xf2, 0x29, 0xb, 0x3f, 0x16, 0xee, 0x21, 0xfc, 0xf1, 0x22, 0xec, 0xfe, 0x19, 0xf, 0xaf, 
0xd5, 0x45, 0xd9, 0x14, 0xe7, 0x5, 0x5, 0xcf, 0x3, 0xc2, 0xaf, 0x2a, 0xf4, 0xe9, 0x16, 0x31, 0x21, 0xee, 0xfd, 0x2f, 
0xf8, 0x18, 0xee, 0xb, 0x39, 0xf2, 0xe5, 0xc2, 0xcf, 0xd3, 0xf8, 0x22, 0x46, 0x3b, 0x3, 0x4b, 0x3a, 0x20, 0x2, 0xef, 
0x7, 0xf6, 0x27, 0x5, 0x14, 0x13, 0x12, 0x12, 0xe2, 0xc9, 0x3a, 0xe0, 0x1, 0x18, 0x1e, 0x2, 0xdb, 0x1a, 0xf, 0xf3, 
0x20, 0xe5, 0xe6, 0xc8, 0xe9, 0x19, 0x2, 0x3f, 0x26, 0x28, 0xe9, 0xf1, 0x49, 0xe2, 0xfd, 0x19, 0xc3, 0x6, 0xe8, 0x1a, 
0x10, 0xf, 0xfa, 0xd8, 0x1c, 0xce, 0xf8, 0xe4, 0x1d, 0x38, 0x27, 0x32, 0x3, 0x9, 0xff, 0x16, 0xe1, 0xc, 0x26, 0xe3, 
0xda, 0xef, 0x16, 0xef, 0xf3, 0xf6, 0xd1, 0xd1, 0x2a, 0x25, 0x1d, 0xd8, 0x19, 0xdf, 0x4, 0x23, 0xe4, 0x0, 0x39, 0xe7, 
0x38, 0x1b, 0x4e, 0x1d, 0x1b, 0xe5, 0xf1, 0x4, 0x4, 0xc3, 0x5, 0x5e, 0x45, 0xc, 0x5d, 0x6, 0xd9, 0x1c, 0xf7, 0xfa, 
0xef, 0x2b, 0x12, 0xec, 0x67, 0xc2, 0xc, 0xca, 0xc9, 0xf8, 0x1, 0xd8, 0x1, 0xa, 0xc6, 0xf6, 0xc7, 0x1f, 0x2, 0xf7, 
0xfa, 0xc8, 0xfe, 0xf2, 0xfd, 0xe4, 0x1e, 0xed, 0x24, 0x3, 0xfc, 0x4, 0x9, 0xee, 0x9, 0xc7, 0xf1, 0x43, 0x0, 0xfc, 
0x6, 0x41, 0xc5, 0xa, 0x8, 0x13, 0x7, 0xe7, 0x15, 0x1b, 0x25, 0xfd, 0xe1, 0xff, 0xf3, 0x19, 0xe5, 0xf4, 0xcd, 0x15, 
0xc2, 0x2f, 0xe2, 0xf8, 0x1, 0x25, 0xd3, 0x39, 0xc9, 0x3a, 0x34, 0xf4, 0xf4, 0x17, 0x16, 0xdd, 0x6, 0x39, 0xf8, 0x3a, 
0x1f, 0xc4, 0xf7, 0xe9, 0xef, 0xe1, 0xe5, 0xec, 0x1e, 0xd6, 0x1c, 0xa, 0x2b, 0x16, 0xde, 0x14, 0xf2, 0x28, 0xc3, 0xbc, 
0xef, 0x47, 0xe0, 0xd2, 0xe1, 0xf, 0xfe, 0x5, 0x2e, 0xf7, 0xe7, 0xfc, 0xe0, 0xd1, 0x8, 0x2e, 0xff, 0xdc, 0xc2, 0xe8, 
0xfc, 0x3, 0x11, 0xf7, 0x17, 0x6, 0xcc, 0x14, 0x2a, 0xe1, 0x1b, 0x1c, 0x29, 0x34, 0x22, 0x1c, 0x6, 0xf1, 0xf2, 0x33, 
0x2f, 0xf6, 0xe5, 0xe3, 0xd4, 0xfd, 0xef, 0x18, 0xd7, 0xf4, 0xdc, 0x4, 0xdd, 0xe7, 0x2d, 0xd7, 0xd8, 0xf1, 0xe, 0x17, 
0x1c, 0xf1, 0x2, 0x1d, 0xef, 0xd3, 0x13, 0xe3, 0xd4, 0x1f, 0x19, 0xe6, 0xf9, 0xda, 0xd7, 0x24, 0x5, 0xa, 0x32, 0xd4, 
0xc1, 0x1b, 0xd1, 0xf5, 0x5, 0x14, 0x0, 0xfc, 0xf5, 0xd6, 0xf, 0xfe, 0xd, 0x2, 0xed, 0xe, 0xf7, 0xf3, 0x38, 0x33, 
0xe6, 0x3, 0xde, 0x13, 0xe9, 0xfc, 0x1d, 0x14, 0xf4, 0x1f, 0x19, 0x6, 0xe9, 0x10, 0xfb, 0xc, 0xe7, 0x10, 0xb, 0x2b, 
0x30, 0x1e, 0x4, 0x20, 0xbc, 0x3f, 0x45, 0x2c, 0xce, 0x35, 0xfa, 0xdc, 0xd3, 0x7, 0x23, 0x1e, 0xd9, 0xd6, 0x1c, 0x9, 
0xd4, 0xd3, 0xfe, 0x1f, 0xe6, 0xd0, 0x8, 0xed, 0xf7, 0xb, 0xe9, 0x1, 0xe, 0xf, 0xe1, 0x10, 0x1f, 0x2, 0xcc, 0xce, 
0x30, 0xff, 0xe1, 0x26, 0x18, 0xd1, 0xd9, 0xee, 0x0, 0x17, 0x15, 0x42, 0x15, 0x16, 0xc9, 0x38, 0xc8, 0xdd, 0x1, 0xf5, 
0xd6, 0x1, 0xf4, 0xca, 0x16, 0xde, 0x22, 0x9, 0xd3, 0xfd, 0xea, 0x13, 0xd5, 0x3e, 0xce, 0xc5, 0xd9, 0xa, 0xf1, 0xc8, 
0x23, 0x18, 0xf7, 0x9, 0x1c, 0xcd, 0xfe, 0xf2, 0xf9, 0x17, 0xcc, 0xdc, 0xdd, 0xd0, 0xe9, 0x35, 0xc5, 0x8, 0x18, 0xc8, 
0xed, 0xc5, 0x1f, 0xfe, 0xfb, 0x17, 0xca, 0xb6, 0x0, 0xa, 0x1c, 0x4, 0xe9, 0xd5, 0x0, 0xe1, 0x10, 0xed, 0xf9, 0x2, 
0xee, 0xfc, 0xd3, 0x4, 0x1c, 0xe1, 0xc, 0xc9, 0x6, 0x15, 0x2e, 0xe2, 0xde, 0x9e, 0xc0, 0xec, 0xcf, 0xff, 0xe6, 0xd4, 
0x12, 0x1e, 0xfa, 0x18, 0xfc, 0xfe, 0xf4, 0x9, 0xe6, 0x30, 0xb, 0xf4, 0xec, 0xc9, 0x28, 0xca, 0xd0, 0xef, 0xff, 0xdb, 
0x1f, 0xf3, 0xfa, 0x15, 0x1, 0xe0, 0xe3, 0xde, 0xf2, 0xe1, 0xf6, 0xde, 0x28, 0xea, 0xf, 0x23, 0x1c, 0x1f, 0x15, 0x14, 
0x2e, 0xe5, 0xd, 0x16, 0x23, 0x7, 0x26, 0xf3, 0xe3, 0x15, 0xfe, 0x4, 0xc5, 0xc, 0x18, 0xed, 0x10, 0xe9, 0x3f, 0x13, 
0x2d, 0x0, 0xe2, 0xe9, 0xf7, 0x15, 0xb, 0x23, 0xd5, 0xa2, 0xef, 0xee, 0xbe, 0x1a, 0xe9, 0xd9, 0xc7, 0xf8, 0xea, 0xec, 
0x32, 0x34, 0xe3, 0xcb, 0x33, 0xd2, 0x1b, 0x13, 0xc6, 0x12, 0xe3, 0xde, 0x12, 0xdb, 0xd, 0xe6, 0x1a, 0xea, 0xd9, 0x13, 
0xe3, 0xc, 0x1, 0xe, 0xf, 0xfd, 0xb, 0x16, 0xdb, 0xe5, 0x11, 0xe, 0xfc, 0xb, 0xfa, 0xe8, 0xfd, 0x1b, 0x1c, 0x2d, 
0xe5, 0xeb, 0xce, 0xc8, 0x5, 0x1, 0xd6, 0xdf, 0xcc, 0xd3, 0x16, 0xec, 0xff, 0x2b, 0xda, 0xe5, 0xf, 0xf1, 0x28, 0xdc, 
0xfd, 0xf4, 0xdf, 0xee, 0xd, 0x2e, 0xf, 0xe7, 0x8, 0xe, 0x2d, 0xff, 0xfd, 0x1c, 0x9, 0x2e, 0xe3, 0x0, 0xa, 0xd8, 
0x1d, 0xbc, 0x1e, 0xd, 0xd4, 0xf4, 0xd0, 0x11, 0xf6, 0xe1, 0xdf, 0x1a, 0x0, 0xda, 0x9, 0xe3, 0xdb, 0xd9, 0xc, 0xf0, 
0xf3, 0x2f, 0x2f, 0xdf, 0x0, 0x24, 0xde, 0xe, 0x1, 0x9, 0xf6, 0xb, 0x6, 0xd, 0xf8, 0xe8, 0xb3, 0xe4, 0xa, 0x3f, 
0x25, 0x2d, 0x32, 0xcb, 0xe7, 0x2e, 0xb3, 0x16, 0xe9, 0xdf, 0xfb, 0xe9, 0xea, 0x10, 0xdb, 0xfd, 0x7, 0x1f, 0xe5, 0x2d, 
0x36, 0xe5, 0x15, 0xc, 0x18, 0x25, 0xce, 0x30, 0x43, 0xf0, 0x0, 0x1, 0x2, 0x1d, 0xf6, 0x2f, 0x16, 0x26, 0x2f, 0x2, 
0x15, 0xd5, 0x8, 0x1f, 0x7, 0xfb, 0xfb, 0x22, 0xd, 0x1e, 0xfa, 0x24, 0xe6, 0xfd, 0xf1, 0xf0, 0xf, 0xf6, 0x39, 0x8, 
0xf4, 0x3a, 0xfc, 0xc0, 0xab, 0xdb, 0xef, 0x13, 0xef, 0x14, 0x23, 0x12, 0x1a, 0xfe, 0x1b, 0x2a, 0xf1, 0xfa, 0x30, 0xf2, 
0x2b, 0x29, 0xff, 0xdc, 0x8, 0x0, 0x21, 0x8, 0xf6, 0x3, 0x21, 0xc8, 0xf5, 0x1e, 0xd6, 0x24, 0x11, 0xe, 0xe, 0xcf, 
0x8, 0xdd, 0xf5, 0xdf, 0x1e, 0xf2, 0x13, 0x1, 0xcb, 0xec, 0xd, 0x2c, 0x25, 0x22, 0xfd, 0xee, 0x2a, 0x24, 0xd7, 0x2a, 
0xd9, 0xcd, 0xc4, 0x9, 0x24, 0xec, 0x29, 0xfc, 0xfd, 0x12, 0xef, 0x37, 0xca, 0x26, 0xd2, 0xe7, 0xd8, 0x0, 0x12, 0x1c, 
0xca, 0xc9, 0xf3, 0x1e, 0x27, 0xca, 0x11, 0x28, 0xed, 0xd4, 0x29, 0xd9, 0xd3, 0xc, 0x2a, 0xc, 0xff, 0x5, 0xde, 0xfe, 
0xf4, 0xeb, 0xf8, 0x18, 0xee, 0xe9, 0xeb, 0xed, 0x19, 0xf7, 0xf3, 0xe, 0xe4, 0xeb, 0xcc, 0xe9, 0x1e, 0xc9, 0xf4, 0xfd, 
0xe, 0x19, 0x13, 0x38, 0xd8, 0xfc, 0x10, 0x10, 0xe8, 0xfd, 0xc4, 0x17, 0x10, 0x38, 0x28, 0xec, 0xcd, 0x2b, 0xe6, 0xcf, 
0xc3, 0xeb, 0xdd, 0x18, 0x22, 0xe9, 0xe0, 0xc, 0xd5, 0xd6, 0xd6, 0xf2, 0xe9, 0x8, 0xb, 0x3a, 0xdb, 0xfe, 0x11, 0xfe, 
0x13, 0xf, 0xf8, 0xca, 0xf5, 0x15, 0xe, 0xb, 0xe8, 0x4f, 0x20, 0xe6, 0x5, 0xfe, 0xcb, 0xd2, 0xe, 0x33, 0xe8, 0xf5, 
0x6, 0x2d, 0x6, 0x43, 0xf4, 0x16, 0x1, 0xb, 0xea, 0xd5, 0x13, 0x2b, 0xd1, 0xce, 0x2a, 0xf8, 0xeb, 0xa3, 0x16, 0xf8, 
0xc4, 0x2c, 0x27, 0xe3, 0x22, 0xd5, 0xd, 0x8, 0xf7, 0x14, 0x1a, 0x7, 0x19, 0xd, 0xda, 0xe3, 0x32, 0xeb, 0xcc, 0x7, 
0x9, 0x7, 0x13, 0x18, 0x3e, 0x5, 0xd8, 0xc5, 0xd0, 0x8, 0xf1, 0xf2, 0xfc, 0xff, 0x6, 0xee, 0xef, 0xde, 0x0, 0xec, 
0xe1, 0xf4, 0xfd, 0x1f, 0xfb, 0xff, 0xee, 0xff, 0xff, 0xde, 0x36, 0x5, 0x8, 0x4, 0xe2, 0xea, 0xe1, 0x32, 0x8, 0xdf, 
0xe9, 0x0, 0xd7, 0xfb, 0xf2, 0xea, 0x2c, 0x14, 0xed, 0x1d, 0xfa, 0x1c, 0xe, 0xe7, 0xf0, 0x31, 0xdd, 0x9, 0x13, 0xf4, 
0x0, 0xf3, 0x23, 0xd6, 0xb, 0x10, 0x19, 0x1b, 0x11, 0x2b, 0xc, 0xe4, 0x23, 0xfa, 0x32, 0xcc, 0xfc, 0xe1, 0xf9, 0x13, 
0x15, 0xd2, 0x6, 0xd7, 0xe5, 0xe5, 0xe9, 0xc6, 0xe9, 0xeb, 0x36, 0xe7, 0xfd, 0x34, 0x3, 0xe5, 0x1c, 0xa, 0x10, 0x53, 
0x27, 0x2c, 0xc7, 0xfb, 0x4, 0x1, 0xe4, 0xf2, 0xd0, 0xf7, 0xc, 0x0, 0x1e, 0xeb, 0xfe, 0xe9, 0x6, 0x1d, 0xf9, 0xce, 
0x23, 0xf1, 0xed, 0xee, 0xc8, 0x19, 0xfe, 0xfc, 0xdc, 0xfa, 0xe6, 0x3, 0x10, 0xf7, 0x26, 0xd9, 0xf2, 0x1e, 0xb, 0x2b, 
0xfc, 0xc7, 0xe6, 0xc, 0x1d, 0xc, 0xf9, 0xe6, 0x40, 0xe7, 0x16, 0x11, 0xfe, 0xc7, 0xce, 0xf, 0xe5, 0x24, 0xdd, 0x2, 
0xf2, 0xef, 0x23, 0xd2, 0x1d, 0xa, 0x3a, 0x1c, 0xd9, 0xd7, 0xe4, 0xca, 0x1, 0xe0, 0xe4, 0x28, 0x5, 0xb, 0x1f, 0xd9, 
0x6, 0xd, 0x20, 0x32, 0x27, 0xe2, 0x22, 0xfd, 0x15, 0x2e, 0x21, 0x1a, 0xd4, 0xf8, 0xbf, 0xe9, 0xd6, 0xff, 0x19, 0x2d, 
0x1b, 0x25, 0x2b, 0xce, 0xca, 0x25, 0xee, 0x20, 0x2a, 0x8, 0x4, 0xf0, 0xbb, 0xf9, 0xeb, 0x10, 0xe9, 0xd2, 0xed, 0xde, 
0xea, 0x9, 0x8, 0xdd, 0xf6, 0xcd, 0xcb, 0x11, 0x11, 0xc4, 0xec, 0x18, 0xdb, 0xc6, 0xd9, 0xce, 0xe9, 0x20, 0x15, 0xdd, 
0xeb, 0x1, 0xf9, 0x2f, 0xe5, 0xa, 0x1b, 0xf7, 0x1f, 0xf8, 0x2, 0x2b, 0xe6, 0xb2, 0xc7, 0xe6, 0xf9, 0x14, 0xa, 0x25, 
0xdc, 0xef, 0xe2, 0xda, 0x25, 0xe7, 0x35, 0xd9, 0xee, 0x2d, 0xde, 0x10, 0xcf, 0x22, 0x37, 0xf9, 0x11, 0xf2, 0xac, 0x32, 
0x1f, 0xf4, 0x27, 0x29, 0x22, 0x9, 0xf9, 0xea, 0x4, 0xce, 0x19, 0x47, 0xe5, 0xe4, 0xd4, 0xc7, 0x35, 0x2d, 0x3, 0xc8, 
0x2, 0x18, 0xdd, 0xd4, 0xc6, 0x8, 0xe1, 0xf4, 0xff, 0x18, 0xf4, 0xed, 0x17, 0x15, 0xe8, 0xda, 0xfd, 0x2b, 0x28, 0x31, 
0xa, 0xf7, 0xd4, 0x36, 0x26, 0xd0, 0x2, 0x10, 0x5, 0xdb, 0xe3, 0xd7, 0xbb, 0xee, 0xf, 0xe4, 0x26, 0x7, 0xed, 0x5, 
0xf1, 0xef, 0xe1, 0x2e, 0x5, 0xf9, 0xd, 0xfd, 0x1b, 0x16, 0xda, 0xea, 0xa7, 0xf5, 0x5, 0x2, 0xd0, 0xd6, 0x15, 0xfb, 
0xf8, 0xeb, 0xed, 0xe2, 0xe6, 0x2a, 0xd2, 0xe3, 0x2e, 0xef, 0xdf, 0x14, 0xe8, 0xda, 0x9, 0xd6, 0x28, 0xf7, 0xf7, 0xfb, 
0x10, 0xe1, 0x1c, 0x2a, 0xfb, 0xcd, 0xd2, 0xed, 0xc7, 0x11, 0xe9, 0x29, 0x31, 0x2, 0xef, 0x9, 0xb, 0xc0, 0x3, 0xb7, 
0xc2, 0xb5, 0x5, 0x21, 0x20, 0xb3, 0x18, 0xc6, 0xdf, 0xf7, 0xd9, 0xfc, 0x1d, 0x22, 0xcf, 0x1d, 0x28, 0xe3, 0xf1, 0xf8, 
0x25, 0xea, 0x14, 0x1f, 0xa, 0x24, 0x35, 0x1c, 0xff, 0xfd, 0x3, 0xf7, 0x9, 0xdf, 0xfa, 0x33, 0x8, 0x3e, 0xe6, 0xdc, 
0xe, 0x26, 0x9, 0xfc, 0xdc, 0xc5, 0xea, 0xde, 0x15, 0x10, 0x2b, 0x25, 0xe2, 0xf8, 0xf2, 0xdf, 0x8, 0xc5, 0x1d, 0xeb, 
0xc8, 0x9, 0x30, 0x5, 0xde, 0xfd, 0x0, 0x17, 0x22, 0xcc, 0xfe, 0xee, 0x2e, 0xed, 0xcc, 0xf6, 0xdb, 0xdf, 0x34, 0x1d, 
0xfd, 0x1, 0x8, 0xeb, 0xf0, 0xc5, 0xee, 0x2e, 0xf4, 0x16, 0x3f, 0xdc, 0xc6, 0x3f, 0xf7, 0xd9, 0xb, 0xd7, 0xe9, 0xe2, 
0xfb, 0x15, 0xeb, 0xe2, 0x16, 0xbb, 0xe4, 0xf3, 0xf3, 0x37, 0x37, 0xfa, 0x2, 0x63, 0x2c, 0x36, 0x2d, 0x1e, 0x30, 0xf5, 
0x21, 0xeb, 0x2c, 0xfb, 0xe9, 0xc, 0xf7, 0x14, 0xe, 0x18, 0xf6, 0x29, 0xe, 0xf3, 0xe4, 0xf8, 0xc5, 0x2b, 0x20, 0x2, 
0x1a, 0x2b, 0x6, 0xda, 0x0, 0xd, 0x38, 0x12, 0xd5, 0xd2, 0x3, 0xf5, 0xc4, 0xbf, 0xb, 0xee, 0xd4, 0x3, 0x2b, 0xe8, 
0x27, 0xef, 0xc, 0xe, 0x3c, 0xdf, 0xfb, 0xde, 0x12, 0x12, 0x7, 0xff, 0x2a, 0xc6, 0xfa, 0x28, 0x18, 0xa, 0xc8, 0xa, 
0xe2, 0xfa, 0x3, 0x26, 0x34, 0x30, 0xc, 0xd6, 0xa8, 0xde, 0xd5, 0xae, 0xf0, 0x0, 0xd1, 0xa, 0x2b, 0xc5, 0x4, 0xf7, 
0x16, 0x2c, 0xf6, 0x8, 0xf1, 0x17, 0xb2, 0xd1, 0xe0, 0x13, 0xdf, 0x16, 0xf7, 0x1a, 0x15, 0xda, 0xef, 0xe8, 0xe9, 0x15, 
0xe9, 0x6, 0x4, 0xcf, 0xda, 0xfc, 0xd7, 0x1c, 0xd9, 0xf5, 0xf7, 0xff, 0x2e, 0xdc, 0x38, 0x34, 0xe0, 0xd, 0x1e, 0x20, 
0x2, 0xfe, 0xe9, 0xfe, 0xd4, 0xf8, 0x25, 0x28, 0xeb, 0x1e, 0x3, 0x9, 0x3, 0xe4, 0xdf, 0x6, 0x23, 0x2, 0xbc, 0x7, 
0xc, 0xe5, 0xd, 0xdc, 0xdf, 0x15, 0xe9, 0xe5, 0xfd, 0xe4, 0x15, 0xf4, 0xcc, 0x21, 0xd1, 0x2e, 0xe, 0xf6, 0xdb, 0xdc, 
0x24, 0x9, 0xd4, 0x14, 0xf, 0xb, 0xff, 0xcd, 0xe8, 0x12, 0xfa, 0xef, 0xff, 0xf9, 0x54, 0x29, 0xe9, 0xf2, 0x10, 0x2d, 
0xd6, 0xf9, 0x8, 0x4e, 0xc4, 0x26, 0xf4, 0xf2, 0xd8, 0xf4, 0x17, 0xb, 0x1a, 0x6, 0x2f, 0x14, 0xef, 0x10, 0xf6, 0x1f, 
0xe4, 0x35, 0xfe, 0xe7, 0xac, 0x43, 0xfa, 0x3d, 0xf7, 0x8, 0x41, 0x51, 0xd1, 0xc6, 0xde, 0xfb, 0xfd, 0xcf, 0x32, 0x2c, 
0xd0, 0xec, 0x1b, 0xdc, 0x28, 0xde, 0x32, 0xf0, 0xb, 0x2f, 0xee, 0x1a, 0x2, 0x1f, 0x19, 0xdd, 0xfe, 0xec, 0xe5, 0xe3, 
0x3a, 0x1b, 0x1b, 0xea, 0xf4, 0x0, 0xaf, 0xde, 0xe2, 0xd1, 0x2, 0x2b, 0x17, 0xf7, 0x20, 0xc5, 0x14, 0x8, 0x26, 0xd4, 
0xd0, 0xe1, 0x22, 0x1d, 0xcf, 0x2, 0xd7, 0xf4, 0xf, 0x17, 0xfe, 0x10, 0xda, 0x1, 0xff, 0xe2, 0xdf, 0x1, 0x7, 0x21, 
0x1d, 0xf3, 0xc, 0xcc, 0x14, 0xfe, 0xff, 0x21, 0xe8, 0xe1, 0xa, 0x1d, 0x12, 0xdf, 0x28, 0xe2, 0xf3, 0x1a, 0x29, 0x2, 
0x21, 0xde, 0x23, 0x1a, 0x10, 0xfb, 0xf3, 0x4, 0x6, 0x1c, 0xe6, 0x10, 0xde, 0xf7, 0x22, 0x6, 0x11, 0xe9, 0x5, 0xd8, 
0x29, 0xd5, 0xf3, 0xb, 0xea, 0xe5, 0xd, 0xf1, 0xd8, 0xf0, 0xd9, 0xf8, 0x10, 0xf6, 0xf3, 0xf2, 0xe2, 0xff, 0xe2, 0xd5, 
0xda, 0x26, 0x1c, 0xf6, 0xe2, 0xea, 0xef, 0xb, 0xee, 0xfc, 0xe3, 0xb, 0xf4, 0x19, 0xec, 0xe4, 0xd9, 0x1a, 0xd6, 0xf6, 
0xc6, 0x1a, 0x11, 0xd3, 0xd2, 0x13, 0xee, 0x19, 0xf5, 0x1a, 0xa, 0x8, 0x28, 0xd1, 0xf9, 0xde, 0x24, 0xdf, 0xde, 0xe9, 
0x1e, 0x1e, 0x27, 0x9, 0xf0, 0xd4, 0x0, 0xca, 0xd6, 0x9, 0xef, 0xf6, 0xf9, 0xfd, 0xfd, 0xef, 0x1d, 0xf2, 0xe7, 0x8, 
0xa, 0xdf, 0xff, 0xf6, 0xa, 0x21, 0x1e, 0xd0, 0xf6, 0x26, 0xef, 0xef, 0x1a, 0xdf, 0xeb, 0xcd, 0xe7, 0x3, 0xe6, 0xda, 
0xfe, 0xda, 0xf7, 0x20, 0xde, 0xd7, 0x18, 0xef, 0xe9, 0xf2, 0xe7, 0xe4, 0xfc, 0xfe, 0xda, 0x24, 0xff, 0xdc, 0xf8, 0xfd, 
0x11, 0xd9, 0x28, 0x2, 0x12, 0x16, 0x22, 0xc5, 0xd0, 0x7, 0x2e, 0x13, 0xd4, 0xf3, 0x15, 0x13, 0x1, 0x35, 0x1, 0xd8, 
0xcf, 0xfe, 0xfb, 0x0, 0xf3, 0xd, 0xc8, 0x22, 0xdf, 0xf5, 0x14, 0xe6, 0xf0, 0x7, 0xe9, 0xeb, 0x21, 0xef, 0xdd, 0xb1, 
0x21, 0xeb, 0x25, 0xe0, 0x47, 0x1a, 0x31, 0x29, 0xf0, 0xec, 0xdf, 0x1a, 0xdb, 0xe9, 0x8, 0x14, 0xff, 0x10, 0x4, 0xe, 
0x45, 0xd0, 0xd7, 0x2b, 0xcc, 0x24, 0xf9, 0x10, 0x34, 0x0, 0xc3, 0xb, 0x28, 0xf2, 0xd2, 0x2d, 0x0, 0xa, 0xfb, 0x1, 
0x25, 0x32, 0x27, 0x14, 0x29, 0xf2, 0xf9, 0x7, 0xf2, 0xdc, 0xdb, 0x27, 0xec, 0xe9, 0xf7, 0x7, 0x43, 0x23, 0x5, 0xba, 
0x9, 0xd7, 0xe8, 0x1, 0x3, 0xe3, 0xf5, 0xda, 0xc, 0x2c, 0xd0, 0xeb, 0xeb, 0xd7, 0xff, 0x1a, 0xea, 0x3, 0xd1, 0x6, 
0x1d, 0xd1, 0xd2, 0xf7, 0xeb, 0xee, 0xda, 0xfc, 0xd2, 0xd6, 0x4, 0xd5, 0x11, 0xfb, 0xeb, 0xe8, 0xfe, 0xea, 0x5, 0xa, 
0xd, 0x5, 0x14, 0x13, 0xd9, 0x9, 0xbe, 0x10, 0xeb, 0xcb, 0x1d, 0xe4, 0xf4, 0xf3, 0xdd, 0xc2, 0xcc, 0x8, 0x11, 0xee, 
0xd2, 0xc4, 0xb8, 0xe8, 0x14, 0x1c, 0xf7, 0xf4, 0x10, 0xff, 0x19, 0x20, 0xd, 0x38, 0x5, 0xf1, 0xfa, 0x0, 0xf0, 0x31, 
0x1c, 0xf4, 0x2c, 0xc4, 0xfe, 0xd0, 0x1d, 0x1, 0xfe, 0xe3, 0xfd, 0xf, 0x2d, 0xe6, 0xf6, 0x20, 0x34, 0xde, 0xea, 0x1d, 
0x13, 0xe8, 0x11, 0x2, 0xe4, 0xe3, 0x30, 0xca, 0x36, 0xe2, 0x14, 0xd5, 0x23, 0xfd, 0x4, 0xd0, 0xd8, 0xec, 0x34, 0xe5, 
0x29, 0x42, 0xe9, 0xea, 0x1c, 0xdb, 0x2e, 0x2e, 0x1d, 0x13, 0xfb, 0x2f, 0x15, 0x19, 0xdd, 0xfb, 0xe2, 0x4, 0xfb, 0x2, 
0x0, 0xce, 0xec, 0xf4, 0xd0, 0xff, 0xe6, 0xe1, 0x2d, 0xea, 0xf2, 0xf4, 0x1f, 0xb, 0xdf, 0x16, 0xea, 0xdf, 0x6, 0x12, 
0xd3, 0x1c, 0xf3, 0xe0, 0xff, 0x1d, 0xd8, 0xfe, 0xf6, 0xc, 0xef, 0xd, 0xf3, 0xf1, 0x1, 0x22, 0x1a, 0xfd, 0x29, 0xed, 
0xe2, 0xe0, 0x1a, 0x22, 0xed, 0xde, 0x2, 0x7, 0xe2, 0xe8, 0x20, 0x1e, 0x22, 0xf3, 0xb3, 0xed, 0xf, 0xd, 0x1a, 0x20, 
0xfa, 0x3b, 0xe4, 0x16, 0xfa, 0xe1, 0xf1, 0xdc, 0x12, 0xda, 0xdc, 0xd8, 0xb8, 0xf8, 0xe5, 0x5, 0x22, 0x12, 0xf8, 0xf7, 
0x4a, 0xeb, 0xfa, 0x13, 0xe6, 0x6, 0x2c, 0x29, 0x1a, 0x2e, 0x28, 0xfa, 0x5, 0x43, 0xd4, 0xfc, 0x16, 0xe8, 0x2c, 0x12, 
0xe4, 0x1c, 0x12, 0x20, 0xea, 0x1b, 0xfa, 0xfd, 0xfd, 0xd6, 0xf8, 0xe9, 0xe8, 0x22, 0x27, 0xe, 0xfc, 0xfd, 0x20, 0x6, 
0x1c, 0xcc, 0x27, 0xe5, 0x11, 0x13, 0x1, 0xca, 0xf9, 0xe2, 0xca, 0xf9, 0xa, 0xce, 0x3, 0x13, 0xdf, 0xe7, 0xfc, 0xeb, 
0x43, 0x2, 0xf4, 0x8, 0x35, 0xcb, 0xf7, 0x5b, 0xf0, 0x2f, 0x2, 0x12, 0x3b, 0x17, 0xe5, 0xde, 0xec, 0xe7, 0xe6, 0xfd, 
0xeb, 0xaf, 0xfe, 0x2, 0xd4, 0x1a, 0x1d, 0xfa, 0xf1, 0x4, 0x19, 0x10, 0xf8, 0x3d, 0xeb, 0xef, 0x7, 0xf2, 0xef, 0xfb, 
0xee, 0xd8, 0x1a, 0x7, 0x22, 0xf8, 0x7, 0xf0, 0xee, 0x2e, 0xc6, 0xd9, 0x2, 0x13, 0xea, 0xf8, 0xa, 0xe7, 0x28, 0xf0, 
0xd, 0x7, 0xf, 0xdb, 0xf6, 0xe4, 0x12, 0xf1, 0xe5, 0xe8, 0xff, 0x11, 0x28, 0x17, 0x4, 0xef, 0x3, 0xfe, 0xcd, 0x1e, 
0xe9, 0xd3, 0xc, 0xe3, 0xe3, 0xf, 0xe3, 0xe5, 0xfd, 0xc, 0x1a, 0xf9, 0xe3, 0x12, 0xce, 0xe7, 0x17, 0xf8, 0x17, 0xb, 
0x1f, 0xf4, 0xd0, 0xfa, 0xbb, 0xd3, 0x9, 0x42, 0x33, 0x0, 0x2c, 0xd1, 0xfc, 0x29, 0xbb, 0x1, 0xd2, 0xc, 0xdb, 0xfd, 
0xda, 0x3, 0x29, 0x38, 0xed, 0xa, 0x16, 0x2e, 0x16, 0x24, 0xfa, 0x23, 0x3, 0x27, 0xfd, 0xef, 0xf0, 0x16, 0x28, 0xf3, 
0x11, 0xf1, 0x5, 0x40, 0x30, 0x1a, 0xf, 0xf9, 0xf4, 0xe, 0xd6, 0x1e, 0xc, 0x3e, 0xd, 0x1e, 0xb7, 0x2f, 0x35, 0x62, 
0x15, 0x42, 0xc2, 0xa, 0xfe, 0xfa, 0xc, 0x2e, 0x18, 0x11, 0xf5, 0xfb, 0xd8, 0xf1, 0xc8, 0x26, 0xdc, 0x14, 0x47, 0xe9, 
0x17, 0x16, 0x13, 0x12, 0x7, 0x19, 0x39, 0xe3, 0xe3, 0xd6, 0xd0, 0xf1, 0xe3, 0x18, 0x1e, 0x8, 0xba, 0x26, 0xfe, 0xc9, 
0x3, 0xe4, 0xdc, 0x20, 0x18, 0xff, 0xee, 0xfc, 0x7, 0xd3, 0x1c, 0x1f, 0xe9, 0x21, 0xfa, 0xf5, 0xcc, 0xe9, 0x9, 0xef, 
0x17, 0xef, 0xe1, 0xe6, 0x16, 0x1a, 0xcb, 0x10, 0xef, 0xea, 0xdd, 0xef, 0x13, 0xf6, 0xda, 0xf7, 0xf8, 0x1b, 0x20, 0xf6, 
0x22, 0xe1, 0xd, 0x9, 0xee, 0xcc, 0xed, 0xff, 0xdd, 0xb, 0xe1, 0xfc, 0xa, 0xd3, 0xe6, 0x1f, 0xca, 0x20, 0xd3, 0x16, 
0xe2, 0xf3, 0xd5, 0xe9, 0x10, 0xe1, 0xe3, 0x15, 0xe7, 0xcb, 0xdb, 0x12, 0x16, 0xf6, 0x17, 0xf2, 0xe2, 0x14, 0xf9, 0xf6, 
0xf6, 0xe1, 0xdb, 0xf6, 0xd8, 0x24, 0xe6, 0xec, 0x6, 0x8, 0xf9, 0xf8, 0xd2, 0xf5, 0xfe, 0x28, 0xf1, 0x2, 0x8, 0xdd, 
0xd8, 0xea, 0xf, 0x13, 0xd2, 0x26, 0xdb, 0x22, 0xe5, 0xe0, 0xfe, 0xf1, 0xfa, 0xe, 0x5, 0xf4, 0xea, 0xfb, 0xc, 0x1a, 
0x25, 0xd1, 0x25, 0xeb, 0xf1, 0xd2, 0x1c, 0x17, 0xe4, 0xd7, 0x5, 0x3, 0xd, 0x1d, 0x1a, 0x15, 0xe8, 0x2, 0xa, 0xd0, 
0xe8, 0xf, 0xf, 0xf, 0xde, 0xff, 0xfb, 0xe1, 0xcd, 0x1f, 0xe6, 0x23, 0xe7, 0xf7, 0xfd, 0x5, 0x11, 0x10, 0xcb, 0xc, 
0x1b, 0xec, 0x6, 0xda, 0x11, 0x11, 0xf9, 0x3, 0xf, 0xe6, 0xd5, 0xfb, 0xd, 0xdb, 0x1c, 0x9, 0xf4, 0xdf, 0x1, 0xdc, 
0xf, 0xe4, 0xec, 0x17, 0xf, 0xe8, 0xfd, 0x6, 0xfd, 0xd2, 0xcc, 0xf2, 0xea, 0xb, 0xee, 0xe2, 0xe0, 0xfd, 0xd6, 0xe3, 
0x19, 0x5, 0x23, 0xc, 0x1c, 0x3d, 0x1d, 0xf7, 0xcf, 0x32, 0xd1, 0xdb, 0xe3, 0x6, 0xc, 0x36, 0x8, 0xff, 0x24, 0x1f, 
0xf5, 0x24, 0x3e, 0x5, 0xf2, 0x1e, 0x16, 0xcc, 0xfd, 0xfa, 0xe0, 0xd7, 0xfa, 0xf, 0xfd, 0xf3, 0x17, 0x0, 0xfa, 0xd7, 
0x2f, 0x20, 0xcc, 0x1c, 0xf7, 0xd6, 0xf8, 0x1, 0xd5, 0xe, 0x14, 0x17, 0x2, 0xdc, 0xef, 0x15, 0x1c, 0x2c, 0xdb, 0x7, 
0x21, 0x27, 0x24, 0xa, 0xf6, 0x8, 0x2b, 0x25, 0xe7, 0x3, 0xea, 0xe0, 0xca, 0x0, 0x3, 0xe2, 0x28, 0x27, 0xde, 0xde, 
0xd6, 0xcd, 0xc, 0xe4, 0xe7, 0xf9, 0xf7, 0xb, 0x13, 0xf4, 0x39, 0xea, 0xdc, 0xf4, 0xc6, 0x14, 0x14, 0xa6, 0x48, 0x40, 
0x47, 0xfa, 0x47, 0xfe, 0xfa, 0x2b, 0xf8, 0xed, 0xe, 0x1f, 0xed, 0xea, 0x31, 0x3, 0xf7, 0xd0, 0xf9, 0xe1, 0xf5, 0x1b, 
0xe0, 0x1c, 0xcf, 0x2c, 0xe0, 0xe9, 0xc, 0xe9, 0x14, 0xdd, 0xd6, 0x1f, 0x7, 0xea, 0x41, 0xee, 0x23, 0xc, 0xee, 0xdf, 
0xf4, 0xe8, 0xfc, 0xfa, 0x20, 0xe8, 0x25, 0xdf, 0x1e, 0x42, 0xbe, 0xce, 0xff, 0x13, 0xe2, 0xe8, 0x10, 0x3a, 0x1f, 0x20, 
0x1c, 0xc, 0xe2, 0x22, 0x11, 0xfe, 0x9, 0x5, 0xe6, 0x17, 0x1c, 0x9, 0x3, 0x21, 0xf2, 0x21, 0xd, 0x2a, 0x2c, 0xe, 
0x1, 0xe0, 0xe8, 0x16, 0x19, 0xe6, 0xef, 0xe, 0xd9, 0xd4, 0xee, 0x28, 0x19, 0xb, 0xea, 0xf9, 0x4d, 0xe9, 0x3b, 0x31, 
0xcf, 0xef, 0xd, 0xe4, 0xfa, 0x8, 0xed, 0xa, 0xed, 0xda, 0xf5, 0x1f, 0x1f, 0x8, 0x3c, 0xfc, 0x1, 0xfb, 0xde, 0x36, 
0x23, 0x4, 0xc9, 0xf5, 0xdb, 0x13, 0xeb, 0x9, 0xd9, 0xd2, 0xff, 0x7, 0x20, 0x26, 0xf2, 0x2e, 0xf4, 0xe, 0xd3, 0xeb, 
0xfd, 0x27, 0x11, 0xe9, 0xf3, 0x10, 0x3, 0x20, 0x6, 0xe9, 0x22, 0x21, 0x22, 0xc2, 0xe, 0xff, 0x13, 0xfa, 0x0, 0xd9, 
0x15, 0xd5, 0xd7, 0x25, 0xfe, 0x1c, 0xe2, 0x5, 0x14, 0xf8, 0xf6, 0xef, 0x23, 0xec, 0xec, 0xb, 0xb, 0xf8, 0x1d, 0xf4, 
0x4d, 0xa, 0xc4, 0xe8, 0xf6, 0xff, 0xe3, 0x27, 0xb, 0xe4, 0xf0, 0x30, 0x24, 0xf0, 0x2, 0xe, 0xf6, 0xd3, 0x0, 0xe1, 
0xde, 0xf, 0xc, 0xe, 0x5c, 0xf3, 0x11, 0xd8, 0x8, 0xbb, 0xfa, 0x32, 0xe4, 0xff, 0xd8, 0xee, 0xcc, 0x1d, 0x1d, 0xf1, 
0xf7, 0xea, 0x1e, 0x19, 0xf0, 0xa, 0xf4, 0x23, 0xd2, 0xd4, 0xf2, 0x2e, 0xeb, 0xfa, 0x6, 0xd9, 0x20, 0xf1, 0x9, 0x27, 
0x2d, 0xda, 0xc2, 0xd9, 0xe9, 0x25, 0x41, 0x47, 0x21, 0x1e, 0x2d, 0xd3, 0x16, 0xef, 0xde, 0xeb, 0xee, 0xcb, 0xd6, 0xcb, 
0xcc, 0xde, 0xf6, 0x24, 0xd7, 0xe5, 0x36, 0x3c, 0x19, 0x40, 0xb, 0xfc, 0xd6, 0xeb, 0xf4, 0x1a, 0x27, 0x0, 0xf2, 0x7, 
0xbf, 0xda, 0xf1, 0xe3, 0x37, 0x2, 0xed, 0x56, 0x52, 0x15, 0x48, 0xfc, 0xc9, 0x2d, 0x41, 0x19, 0xa, 0xe7, 0x3f, 0x37, 
0x21, 0xbd, 0x4c, 0xe, 0xf2, 0x14, 0x3f, 0x2f, 0xdd, 0xf0, 0xf2, 0xe8, 0xf8, 0xc4, 0x1d, 0xb, 0x13, 0xdc, 0xfb, 0xf, 
0x24, 0xdf, 0xeb, 0xef, 0x4d, 0x8, 0xf7, 0x34, 0xda, 0xfb, 0xac, 0x9, 0x16, 0xfc, 0x3, 0x1, 0x11, 0xe7, 0xe6, 0xf4, 
0xf5, 0x1e, 0x20, 0x23, 0x17, 0xe, 0xf4, 0x14, 0x1f, 0xf8, 0x5, 0xd1, 0x6, 0xc9, 0xc5, 0xef, 0x16, 0xdc, 0xe4, 0xe8, 
0x10, 0x29, 0x1c, 0xc7, 0x2d, 0xdc, 0xfb, 0xea, 0xf4, 0xe6, 0xfc, 0xfb, 0x5c, 0x31, 0x22, 0xa, 0xdd, 0xd8, 0xd8, 0x1a, 
0x56, 0xd7, 0x2a, 0x43, 0x57, 0xf0, 0x29, 0x18, 0xe8, 0x6, 0xfc, 0xd1, 0x18, 0xdd, 0xf5, 0xe1, 0x5, 0xc8, 0xe9, 0xe7, 
0xe6, 0x4, 0x2b, 0x1f, 0xbd, 0xee, 0x9, 0xf6, 0xde, 0x3, 0xe3, 0xb9, 0xe8, 0xe2, 0xf5, 0xe7, 0x1f, 0xde, 0x42, 0x18, 
0x33, 0xde, 0x27, 0xf5, 0xd, 0x16, 0xc, 0xd7, 0xfd, 0x21, 0xf7, 0x15, 0x3d, 0x31, 0xcd, 0xdd, 0x50, 0xfe, 0xc, 0x58, 
0x30, 0x26, 0x31, 0xfb, 0x2, 0xe8, 0xdb, 0xfa, 0xf3, 0xdd, 0xdb, 0x19, 0xd1, 0x4c, 0xd2, 0x6, 0xcb, 0x19, 0xf7, 0x3c, 
0xff, 0x1a, 0x1d, 0x1d, 0x6, 0xe3, 0xf8, 0xfb, 0xca, 0xff, 0xe0, 0x33, 0xed, 0xb, 0xfd, 0x3, 0xff, 0xcd, 0xff, 0xa5, 
0xf, 0xb4, 0xb, 0xe0, 0xde, 0xd2, 0xfc, 0xcc, 0xdb, 0x20, 0x11, 0xe2, 0x18, 0x48, 0x11, 0xf5, 0x10, 0xe, 0xc, 0x35, 
0xd8, 0xe1, 0x30, 0x5, 0xa, 0xe0, 0xdd, 0x3d, 0xe, 0xed, 0xbe, 0xd, 0xd2, 0xf5, 0xfe, 0x2, 0xcf, 0x1f, 0xd4, 0xfe, 
0xf3, 0x2, 0x31, 0xf0, 0x1b, 0xc6, 0x15, 0xfa, 0xe2, 0x14, 0x24, 0x32, 0xfd, 0xfa, 0xd2, 0x9, 0xe9, 0xe7, 0xeb, 0x5, 
0x4, 0xf1, 0x24, 0xd4, 0x15, 0x1, 0xca, 0x24, 0x11, 0xd, 0xe2, 0x23, 0xed, 0xca, 0xef, 0xf6, 0x2e, 0x1d, 0x1c, 0x22, 
0xe2, 0x25, 0xd, 0x2e, 0xe1, 0xff, 0xb4, 0x4, 0xf5, 0x12, 0x15, 0xc8, 0xe3, 0xed, 0xec, 0xc6, 0x12, 0xec, 0xe2, 0xb, 
0xf1, 0xd8, 0x1e, 0xdb, 0xde, 0x5, 0xe5, 0x2d, 0xf3, 0x2b, 0x45, 0x2f, 0x14, 0xfb, 0xfc, 0x34, 0xa, 0x2, 0x1, 0x19, 
0xf5, 0xf7, 0xea, 0x0, 0xf8, 0x36, 0xd5, 0xcf, 0x2d, 0xda, 0xcd, 0xca, 0xd2, 0x19, 0xe9, 0x21, 0xbf, 0x2b, 0xf7, 0x27, 
0xdd, 0xeb, 0xcd, 0xd2, 0x17, 0xea, 0x5e, 0xb, 0xe2, 0xe, 0xfc, 0xfc, 0xce, 0xca, 0xfd, 0xe3, 0xdf, 0xef, 0x24, 0x10, 
0x26, 0x12, 0x3, 0x15, 0xc9, 0xdc, 0xa, 0x6, 0xf5, 0xdd, 0x20, 0xea, 0x38, 0xf4, 0xeb, 0x2a, 0x4, 0x18, 0x9, 0x18, 
0x43, 0xf1, 0x2d, 0x4, 0xe8, 0xc6, 0xc5, 0x25, 0x36, 0x12, 0x1, 0x41, 0x41, 0xd, 0xf, 0xfb, 0xe9, 0x11, 0xe9, 0xcf, 
0xa, 0xd8, 0x1c, 0x31, 0x1d, 0xb4, 0x1c, 0xe, 0x12, 0xe2, 0x35, 0x30, 0xd7, 0x16, 0x1b, 0xf5, 0x22, 0x28, 0xda, 0xf5, 
0xf1, 0x16, 0xed, 0xfc, 0x25, 0xd1, 0xf, 0x2, 0x7, 0x2, 0xd0, 0x15, 0xd1, 0x16, 0xae, 0x12, 0xe1, 0xee, 0x2d, 0xf8, 
0xf5, 0xf2, 0x3, 0xd2, 0x36, 0x7, 0x1e, 0x25, 0x11, 0x1b, 0x29, 0xc4, 0xf0, 0xf1, 0x13, 0xc9, 0xe5, 0xf1, 0x3, 0xfa, 
0x11, 0xda, 0x25, 0x1b, 0xe1, 0xd6, 0xc, 0xeb, 0x19, 0x18, 0xdf, 0x1, 0xcd, 0xf1, 0xef, 0x32, 0xd, 0x2, 0xcf, 0x10, 
0xd9, 0x14, 0xe2, 0x3, 0x4d, 0xf3, 0x43, 0x44, 0x53, 0x4, 0x1e, 0x21, 0x17, 0xd4, 0xc3, 0xd0, 0xcc, 0xa, 0x2f, 0xdf, 
0xff, 0xd5, 0xe4, 0x9b, 0xe7, 0xbc, 0x11, 0x21, 0x9, 0x16, 0xf0, 0xf0, 0xde, 0x10, 0xe7, 0xd7, 0xee, 0xcf, 0xe5, 0xe3, 
0x3, 0x1a, 0x22, 0x4, 0xd9, 0xe7, 0x25, 0xd5, 0x18, 0xcb, 0xc1, 0xd1, 0x13, 0xec, 0x18, 0xf3, 0x2a, 0xc, 0xc4, 0x13, 
0x4e, 0xe4, 0xa, 0x10, 0x63, 0xa, 0x13, 0xe5, 0x35, 0x1, 0xec, 0x2d, 0x16, 0xf2, 0xa6, 0xc7, 0xd0, 0xf6, 0xc3, 0xe4, 
0xd5, 0xe8, 0xec, 0x4d, 0x32, 0x48, 0xfc, 0x1b, 0xe1, 0x29, 0xd, 0x39, 0xf2, 0x1f, 0xe0, 0xdc, 0x36, 0x48, 0x24, 0xcd, 
0xe3, 0xce, 0xd4, 0xab, 0xa7, 0xbf, 0xe7, 0xfa, 0xe3, 0xec, 0xda, 0x1, 0xeb, 0x7, 0xe7, 0x18, 0xcb, 0xf2, 0xe9, 0x27, 
0x10, 0xfd, 0xde, 0xcc, 0xd1, 0xe0, 0x31, 0xea, 0xfc, 0xf3, 0xcc, 0x2, 0x18, 0x36, 0xd8, 0xe6, 0x7, 0x15, 0x2, 0xce, 
0xd9, 0xe2, 0x18, 0xdb, 0x2a, 0xf2, 0x3a, 0xe4, 0xf3, 0xae, 0xfb, 0x1b, 0xca, 0xdf, 0xf, 0x21, 0xe0, 0xdc, 0xee, 0xe5, 
0x9, 0xa4, 0x8, 0x2b, 0x27, 0xe3, 0xe3, 0x54, 0xe5, 0xf, 0x33, 0x1d, 0xf2, 0x1b, 0xfd, 0x29, 0x24, 0x27, 0xf7, 0xd, 
0x20, 0x14, 0x3d, 0x6, 0x29, 0x5, 0xfb, 0xde, 0xb3, 0xf4, 0xd, 0xee, 0xf2, 0x5, 0xfa, 0xe2, 0xe9, 0x30, 0xdb, 0xed, 
0xc9, 0x1f, 0xc7, 0x10, 0x22, 0xfd, 0x27, 0x11, 0x3b, 0xf, 0xd, 0x3a, 0xd4, 0x18, 0x25, 0x12, 0xc0, 0x5, 0x8, 0x2, 
0xed, 0xda, 0x3, 0xfe, 0xee, 0x3d, 0xee, 0xb, 0x17, 0x2b, 0xe, 0x45, 0xf3, 0x8, 0xe0, 0x1c, 0xd1, 0xa, 0xf7, 0x2c, 
0x8, 0x3f, 0x19, 0x2a, 0xd6, 0xe7, 0x18, 0x20, 0xe4, 0xd4, 0xe7, 0x4, 0xab, 0x10, 0xc, 0xcc, 0xfe, 0xdf, 0x1c, 0xea, 
0xb, 0xa, 0x2c, 0x2a, 0x16, 0x1d, 0x17, 0xcc, 0x19, 0xbe, 0xd, 0xd2, 0x23, 0x2a, 0x36, 0x6, 0xf8, 0xf2, 0xd8, 0x4, 
0x5, 0xfa, 0x15, 0x4, 0xf1, 0xda, 0xea, 0xee, 0x1b, 0x19, 0xf, 0x18, 0xcc, 0x6, 0x1e, 0x11, 0x0, 0xe3, 0x2b, 0xfc, 
0xd0, 0x2c, 0xdc, 0xfa, 0xf0, 0xf5, 0xd3, 0xf0, 0x11, 0xd5, 0x9, 0x11, 0xf, 0x2a, 0xb, 0x1b, 0xf2, 0xf4, 0xf8, 0xd2, 
0xef, 0x10, 0x8, 0xe6, 0x10, 0xfe, 0x17, 0xf3, 0xe5, 0xc, 0xa, 0x20, 0xf6, 0xa, 0x29, 0xf0, 0xfd, 0x24, 0x22, 0xf6, 
0x14, 0x5, 0xff, 0xda, 0x22, 0x5, 0x16, 0xa, 0x4, 0x26, 0x3, 0xfa, 0x14, 0xe6, 0x6, 0x0, 0xde, 0xdc, 0xf, 0xd8, 
0xe0, 0xe8, 0x26, 0xf5, 0xd8, 0xfa, 0x3, 0x1c, 0xf3, 0xf, 0x10, 0x9, 0xb, 0x23, 0xf2, 0xef, 0xdd, 0xf5, 0xde, 0x24, 
0x0, 0xdb, 0xe0, 0xf8, 0x25, 0xf8, 0xf6, 0xe4, 0xd6, 0xe3, 0xe9, 0xd1, 0x6, 0xf2, 0xc, 0xfe, 0xdd, 0xa, 0x1, 0xde, 
0xda, 0x1a, 0x16, 0x24, 0x2b, 0x11, 0xda, 0xd2, 0xd1, 0xef, 0xe2, 0xdb, 0xeb, 0xed, 0xe0, 0x1d, 0x12, 0x0, 0x1e, 0x16, 
0x21, 0xe7, 0xd4, 0xfa, 0xd2, 0x1a, 0xe, 0xfc, 0xd9, 0xd7, 0xea, 0xfc, 0x16, 0x1f, 0x0, 0x22, 0xe0, 0xf5, 0x8, 0xd0, 
0xfd, 0x7, 0xea, 0xe7, 0xd4, 0xdb, 0xe0, 0xf0, 0xfa, 0xef, 0xa, 0xe9, 0xe2, 0xd3, 0x10, 0x2, 0xe2, 0xf6, 0xee, 0xf8, 
0xe5, 0xf2, 0x1a, 0xf0, 0xdd, 0xf3, 0x4, 0xea, 0xdb, 0xd4, 0x16, 0xf, 0xdd, 0xef, 0x0, 0xfe, 0xc6, 0x6, 0xfe, 0x4f, 
0x10, 0x18, 0x26, 0x46, 0x9, 0xe9, 0xd4, 0x13, 0xff, 0xfa, 0xe0, 0xf7, 0x6, 0xf5, 0xe2, 0xe2, 0xf5, 0x1c, 0xb1, 0x10, 
0xeb, 0x55, 0xb, 0x2e, 0x21, 0xec, 0x21, 0x19, 0x34, 0x13, 0x29, 0xdf, 0x13, 0xe7, 0x19, 0x1e, 0xe0, 0xd5, 0xda, 0x38, 
0xd5, 0x1c, 0xf, 0x2, 0xf8, 0x22, 0x3a, 0xf9, 0xea, 0x18, 0x5, 0x20, 0xfb, 0xf2, 0xf8, 0x3, 0xe8, 0xe6, 0xf4, 0xa, 
0xb, 0xeb, 0xb, 0xff, 0xe0, 0xc0, 0xb1, 0x15, 0xfe, 0x5, 0xbe, 0xcd, 0xd, 0x2b, 0xc, 0x2, 0xe8, 0xfd, 0xf3, 0xf6, 
0xe3, 0x17, 0x24, 0xfd, 0xd1, 0xec, 0x21, 0xe9, 0x27, 0x24, 0xe1, 0xc8, 0xf7, 0xf8, 0xe4, 0x11, 0x18, 0x20, 0xf8, 0x11, 
0x18, 0xd0, 0x10, 0xe, 0xf0, 0xe7, 0x28, 0xdd, 0x1d, 0xde, 0xfa, 0xf1, 0xff, 0xbf, 0x22, 0xe3, 0xf5, 0x3f, 0x37, 0xef, 
0x1d, 0x1e, 0x6, 0x22, 0x2a, 0xd5, 0xf1, 0xec, 0x27, 0x1b, 0x32, 0x25, 0x6, 0xfd, 0xe, 0xe6, 0xe2, 0x1f, 0x2, 0xd2, 
0xee, 0xe8, 0xf3, 0xbb, 0xcb, 0x30, 0xf8, 0x2e, 0x25, 0xf4, 0xf7, 0xca, 0x9, 0x28, 0x3, 0x22, 0xe6, 0x6, 0x1, 0xdf, 
0xcd, 0xfd, 0xd, 0x1e, 0xd5, 0xe9, 0x17, 0xdc, 0xde, 0x3, 0x31, 0xfa, 0x17, 0x8, 0x35, 0xcd, 0x13, 0x1b, 0xb6, 0xdb, 
0xe4, 0xf1, 0x1f, 0x16, 0x37, 0xf3, 0xfc, 0xe2, 0x14, 0xe7, 0xca, 0xe6, 0xf, 0xdc, 0xfc, 0x14, 0xfe, 0xff, 0x35, 0xc5, 
0xd5, 0x16, 0x15, 0x32, 0x1c, 0xbf, 0xfa, 0xf8, 0x11, 0x29, 0xfa, 0x2a, 0xf6, 0xec, 0xe8, 0xe5, 0xe6, 0xfa, 0xf3, 0x4, 
0x3d, 0xf3, 0xd9, 0xec, 0xf5, 0xd7, 0xf3, 0x1e, 0x8, 0xe, 0xdd, 0xe5, 0x1, 0x29, 0xdf, 0x25, 0xa7, 0x15, 0x2a, 0x8, 
0x1f, 0x23, 0x11, 0x1, 0x1c, 0xde, 0xd5, 0xf6, 0xf4, 0x1f, 0xf8, 0xe1, 0x13, 0xce, 0x3, 0xbd, 0xe, 0x3, 0xb, 0x1, 
0x16, 0x1f, 0x0, 0x18, 0xc, 0x24, 0x36, 0x15, 0xa, 0x11, 0x14, 0x1f, 0xf4, 0xfa, 0x5, 0x26, 0xc2, 0x1, 0xe3, 0x1e, 
0x11, 0x24, 0xfd, 0xd9, 0xe4, 0xd5, 0xbc, 0x8, 0xe5, 0xf6, 0x0, 0x13, 0xf9, 0xf9, 0xfc, 0xe1, 0xfe, 0x3, 0xc6, 0xa, 
0x2, 0xfe, 0x96, 0x35, 0x24, 0xe2, 0xdf, 0xd4, 0xed, 0xf6, 0xef, 0xe1, 0x38, 0x1d, 0xf0, 0xf3, 0x4c, 0x2e, 0x1c, 0xff, 
0x1f, 0x6, 0xed, 0xd7, 0xf7, 0xf, 0xfa, 0xa, 0xb, 0xe, 0xbc, 0xf6, 0xfa, 0x20, 0x23, 0xd2, 0xdc, 0xf0, 0x16, 0x0, 
0x0, 0xeb, 0xd7, 0xf8, 0xb2, 0xd2, 0xd4, 0x3e, 0xd5, 0xb4, 0xfc, 0xeb, 0xde, 0xe0, 0x25, 0x21, 0xe7, 0xf9, 0xda, 0xff, 
0x1c, 0x4, 0x7, 0x39, 0x5f, 0xd6, 0x25, 0xe8, 0xe3, 0xfb, 0xcf, 0x4, 0xd5, 0xe8, 0x15, 0xef, 0x50, 0x1, 0xea, 0xf4, 
0xcf, 0x1b, 0x19, 0x22, 0x3, 0x6, 0xfd, 0xd2, 0x2, 0x2, 0x10, 0xa0, 0xee, 0xbb, 0x3, 0xe1, 0x1d, 0xee, 0x10, 0xf0, 
0x2b, 0x2, 0xdf, 0xf1, 0x5, 0x51, 0xcd, 0x22, 0x26, 0xc8, 0xfc, 0x5, 0x7, 0x26, 0x6, 0xe8, 0xf5, 0xfe, 0xdd, 0x2c, 
0xff, 0x1f, 0x15, 0xbb, 0x2, 0xe, 0xe6, 0xf2, 0xcc, 0x15, 0xda, 0xf3, 0xc, 0xd7, 0x1a, 0x0, 0xe4, 0xbf, 0xf9, 0x8, 
0xee, 0xf6, 0xb, 0x23, 0xbd, 0x19, 0xf1, 0xf1, 0x1, 0xb1, 0xe6, 0x12, 0x15, 0x20, 0x1d, 0x2c, 0x6, 0x2c, 0xf0, 0xfd, 
0xe4, 0xea, 0xef, 0xf3, 0xf5, 0xfc, 0xf5, 0x31, 0xf5, 0xfb, 0xfb, 0x2e, 0xd, 0x3a, 0xef, 0xe0, 0xb6, 0x2, 0xca, 0xe3, 
0x1e, 0x37, 0x1a, 0xe7, 0xc3, 0x3c, 0xb9, 0xc6, 0xe7, 0xe6, 0xd0, 0x20, 0x14, 0xe0, 0xfb, 0xfe, 0xdb, 0x25, 0xd0, 0xec, 
0xed, 0x22, 0x32, 0x32, 0x1b, 0x12, 0x8, 0x10, 0xfe, 0xf7, 0x3d, 0xd5, 0x10, 0x27, 0xe9, 0x1c, 0xf6, 0x40, 0xf6, 0xed, 
0x29, 0x12, 0xcc, 0xe, 0xf6, 0x37, 0xf6, 0x8, 0xd7, 0xb, 0x44, 0x4b, 0xce, 0xd7, 0xed, 0xd8, 0xba, 0xdc, 0x3, 0x1e, 
0xc3, 0x18, 0xf9, 0xc2, 0xda, 0xfd, 0xe1, 0xb, 0xce, 0x1f, 0x37, 0x1, 0x1e, 0x3f, 0x1e, 0x4, 0x6, 0xde, 0x12, 0x4, 
0x15, 0x22, 0xfb, 0xb7, 0x13, 0xeb, 0xe8, 0x2a, 0xe5, 0xd7, 0xd2, 0xee, 0x10, 0x1c, 0xeb, 0x1d, 0x2b, 0xdf, 0x20, 0x19, 
0xf1, 0x23, 0xc1, 0xd1, 0xe9, 0xd4, 0xd9, 0x11, 0xd2, 0x6, 0xd, 0xf1, 0x7, 0x2b, 0xec, 0x16, 0x1b, 0x20, 0xd, 0xe3, 
0xd5, 0x11, 0x6, 0x3e, 0x0, 0x24, 0xe3, 0x30, 0xec, 0xd2, 0xe3, 0x2, 0x3, 0x6, 0xf1, 0xb5, 0xf5, 0xe1, 0x8, 0x5, 
0x10, 0x27, 0x27, 0xeb, 0xea, 0xdf, 0x2, 0x0, 0xf, 0x8, 0xf5, 0xfe, 0x2d, 0x29, 0xf7, 0x8, 0xec, 0x3d, 0xd8, 0xef, 
0xd, 0xe1, 0xd4, 0xef, 0xf0, 0xee, 0x8, 0x7, 0xff, 0xf9, 0x20, 0xee, 0xf2, 0x15, 0xd5, 0xc, 0xde, 0x24, 0xf0, 0xef, 
0xd8, 0xc, 0xb, 0x16, 0xff, 0xe2, 0x26, 0xe9, 0xe5, 0xe7, 0x18, 0x45, 0x5e, 0x9, 0xf7, 0xf3, 0xe2, 0x3b, 0xb9, 0xcb, 
0xee, 0xdc, 0x21, 0xcc, 0xe9, 0xff, 0x21, 0xa, 0xf6, 0xf7, 0x28, 0x2, 0x32, 0xf2, 0xe1, 0xb, 0xd8, 0x22, 0xd3, 0xfc, 
0xd9, 0xd3, 0x13, 0x18, 0x1f, 0x1, 0x40, 0x42, 0xe6, 0x27, 0xf6, 0xbd, 0x14, 0xd3, 0xff, 0xff, 0x2e, 0x27, 0xfd, 0xe6, 
0xde, 0xd7, 0x3, 0x16, 0xf8, 0x45, 0x14, 0xc7, 0xf4, 0x18, 0xd, 0x2e, 0xf1, 0x9, 0xd0, 0xea, 0xce, 0x20, 0xf3, 0x20, 
0xf4, 0x4, 0xf1, 0xd3, 0xcb, 0xea, 0x49, 0xec, 0x1c, 0x1b, 0x40, 0x15, 0xf1, 0xc4, 0xdc, 0xdd, 0x1a, 0xe1, 0xfd, 0xf8, 
0xcd, 0x27, 0x24, 0xac, 0xf4, 0x2, 0x8, 0xd0, 0xea, 0xf8, 0xe4, 0xd0, 0x13, 0xee, 0x8, 0x1e, 0xe3, 0x14, 0xe8, 0xff, 
0xc, 0xa, 0xdf, 0xe8, 0x29, 0x0, 0xf0, 0xd9, 0xed, 0x27, 0x3, 0x1, 0xd6, 0xd6, 0xfb, 0x23, 0xf, 0xe0, 0xe5, 0x19, 
0x8, 0x1a, 0x1f, 0x1c, 0xfa, 0xfb, 0xf, 0xd7, 0xd6, 0x2, 0x16, 0xe7, 0x22, 0xfc, 0x17, 0xf1, 0x15, 0xdb, 0xe7, 0xd5, 
0xd5, 0xfb, 0x1f, 0xd4, 0xdc, 0xfd, 0xb, 0xe0, 0x1b, 0xe3, 0xd1, 0x24, 0xd9, 0xf1, 0x0, 0x1, 0xf6, 0xd4, 0xf4, 0xda, 
0xf, 0xe6, 0xe6, 0xd5, 0xfb, 0x1c, 0x1e, 0xf3, 0xf6, 0xe5, 0xe2, 0xd0, 0x1a, 0xdc, 0xd, 0xdf, 0xf5, 0x6, 0xe9, 0xd, 
0xe5, 0x0, 0xf6, 0xeb, 0xd2, 0xd1, 0xfb, 0xd, 0xda, 0xda, 0xff, 0xf2, 0xe4, 0xf3, 0xd4, 0xea, 0xd0, 0xda, 0x24, 0x20, 
0x27, 0xfe, 0xfb, 0xdd, 0xd1, 0x10, 0xee, 0xe7, 0x23, 0xe6, 0x12, 0x0, 0xf5, 0xd8, 0xa, 0x11, 0xdd, 0xff, 0xf2, 0xe2, 
0xd, 0xd4, 0xe6, 0xd7, 0x17, 0xd8, 0x7, 0x7, 0x1e, 0x13, 0xed, 0xd6, 0xef, 0xe5, 0x1f, 0xe0, 0xfa, 0x20, 0x3, 0xff, 
0x1c, 0xe1, 0x1a, 0xf3, 0x23, 0xe2, 0xfd, 0xf4, 0x23, 0xf4, 0xe2, 0xf6, 0xd4, 0x2c, 0x1d, 0xe3, 0xe2, 0x1f, 0xd8, 0xe0, 
0x1b, 0xe, 0x25, 0xd4, 0x14, 0xdc, 0xb, 0x27, 0x25, 0x1, 0xdb, 0x17, 0xf2, 0xf5, 0x0, 0x23, 0xd6, 0x5, 0x25, 0x2d, 
0x27, 0xf6, 0x4, 0x0, 0xeb, 0x3d, 0xeb, 0xf7, 0xe9, 0xfb, 0xe, 0x7, 0xe0, 0x1e, 0xbb, 0xe2, 0xe, 0xe0, 0xd9, 0xcb, 
0xe3, 0x1c, 0x8, 0x24, 0xf1, 0xe0, 0xcf, 0x1a, 0x3, 0x25, 0x17, 0xed, 0xf2, 0xdb, 0x12, 0x16, 0xf6, 0x31, 0x8, 0x1e, 
0x1c, 0x2, 0xc, 0x3e, 0xd5, 0xfe, 0xd, 0xf6, 0xf5, 0xdf, 0xdd, 0x9, 0x20, 0xf0, 0x18, 0xed, 0xd7, 0xe, 0xca, 0x2f, 
0xf1, 0xec, 0x2, 0xf0, 0x13, 0x9, 0xcb, 0x24, 0xd2, 0x37, 0x27, 0xdc, 0xd, 0x3, 0xe3, 0x1f, 0x14, 0xd4, 0x1f, 0x26, 
0xe0, 0xd4, 0xe7, 0xec, 0x1a, 0xff, 0x28, 0x49, 0x22, 0x18, 0xf4, 0xff, 0x1a, 0xe7, 0xe7, 0xa, 0x1a, 0xd, 0xfc, 0xf1, 
0xfd, 0x35, 0xe9, 0x10, 0x17, 0x3e, 0xe9, 0x8, 0x31, 0xd, 0xe0, 0xe7, 0xc, 0x17, 0x6, 0x23, 0xdb, 0xf4, 0x20, 0x0, 
0xc, 0xdf, 0x27, 0x14, 0xe3, 0x5, 0x26, 0xd0, 0xf9, 0x17, 0xe6, 0xf5, 0x7, 0x4b, 0xd6, 0xf6, 0xa, 0x1e, 0x1b, 0x4, 
0x4, 0xee, 0x0, 0x15, 0xd3, 0x46, 0x20, 0x5, 0xd, 0xff, 0xe0, 0x41, 0x0, 0xda, 0xef, 0x45, 0x14, 0xd8, 0xe0, 0xf2, 
0x27, 0xd, 0xe2, 0xd2, 0x17, 0x67, 0xf, 0xf7, 0x10, 0x14, 0xed, 0x18, 0x7, 0xe1, 0xa, 0x36, 0xb, 0x43, 0xfd, 0xdc, 
0x2c, 0xe2, 0xf8, 0x47, 0xf5, 0x15, 0x28, 0x3a, 0xdd, 0x35, 0x17, 0xd6, 0xfc, 0x3d, 0x1f, 0xbf, 0xf8, 0x10, 0xfc, 0xc1, 
0xdc, 0xfa, 0xd2, 0xe, 0xc3, 0xd9, 0xdd, 0x7, 0x13, 0xc, 0xd9, 0xe1, 0xf4, 0xcf, 0xba, 0xd9, 0xde, 0x1, 0xa9, 0x7, 
0xd0, 0xed, 0x15, 0xde, 0xd6, 0xff, 0xeb, 0xdf, 0xd3, 0x29, 0xd5, 0xd3, 0xe3, 0x44, 0xe5, 0xed, 0x23, 0x14, 0x1c, 0x1d, 
0x20, 0x1e, 0x11, 0x29, 0x13, 0x0, 0xff, 0xd, 0x17, 0xfc, 0xf7, 0xf7, 0xd8, 0x11, 0xb, 0x1c, 0x9, 0x18, 0xf7, 0xd1, 
0xe5, 0xc, 0xe9, 0x25, 0x27, 0x1a, 0xea, 0xda, 0xf6, 0xf3, 0xcd, 0xfb, 0xea, 0x1f, 0xe8, 0x1, 0xfc, 0x4, 0x2c, 0x23, 
0xe3, 0xfa, 0x1c, 0xe, 0xcd, 0x1c, 0xc7, 0xf3, 0xfc, 0xe6, 0x3, 0xe9, 0xd1, 0x43, 0xac, 0xce, 0xe9, 0x1a, 0xad, 0x1e, 
0xf5, 0xe0, 0x4b, 0xf, 0xf4, 0x34, 0xf8, 0x2d, 0xd3, 0x14, 0xb, 0x4d, 0xc4, 0x3, 0xe6, 0x4, 0x16, 0xef, 0xd, 0x0, 
0xdc, 0x19, 0xe5, 0xa, 0x35, 0x39, 0x38, 0x1d, 0x14, 0x26, 0x13, 0x21, 0x25, 0x44, 0xec, 0xf, 0xb8, 0x49, 0xb, 0x56, 
0xce, 0xe5, 0xf6, 0x8, 0xdb, 0xe1, 0x4b, 0x25, 0xf0, 0x25, 0xe8, 0x1, 0xcb, 0xfc, 0x0, 0x23, 0xf, 0x2b, 0x24, 0x35, 
0xf0, 0x25, 0x19, 0x40, 0xcd, 0xf4, 0xf4, 0xfe, 0x1e, 0xe6, 0x6, 0xc3, 0x1a, 0xad, 0xca, 0xda, 0xe0, 0xea, 0xe1, 0xe1, 
0xf8, 0x1f, 0xa, 0x1b, 0xe3, 0xf3, 0x1a, 0xf0, 0xd, 0xef, 0xd8, 0x13, 0xb, 0xef, 0xdc, 0xe7, 0xfb, 0xe9, 0xfd, 0x1c, 
0xd, 0xd4, 0xe8, 0xe, 0xd5, 0xe1, 0x1f, 0xd2, 0xcf, 0xe9, 0xe6, 0x1a, 0xe3, 0xe9, 0xa, 0xdb, 0xf7, 0xdc, 0xf2, 0x20, 
