0x20, 0x0, 0x0, 0x0, 0x54, 0x46, 0x4c, 0x33, 0x0, 0x0, 0x0, 0x0, 0x14, 0x0, 0x20, 0x0, 0x1c, 0x0, 0x18, 0x0, 
0x14, 0x0, 0x10, 0x0, 0xc, 0x0, 0x0, 0x0, 0x8, 0x0, 0x4, 0x0, 0x14, 0x0, 0x0, 0x0, 0x1c, 0x0, 0x0, 0x0, 
0x88, 0x0, 0x0, 0x0, 0xe0, 0x0, 0x0, 0x0, 0x68, 0x29, 0x1, 0x0, 0x78, 0x29, 0x1, 0x0, 0xfc, 0x3d, 0x1, 0x0, 
0x3, 0x0, 0x0, 0x0, 0x1, 0x0, 0x0, 0x0, 0x4, 0x0, 0x0, 0x0, 0xc6, 0xd5, 0xfe, 0xff, 0xc, 0x0, 0x0, 0x0, 
0x1c, 0x0, 0x0, 0x0, 0x3c, 0x0, 0x0, 0x0, 0xf, 0x0, 0x0, 0x0, 0x73, 0x65, 0x72, 0x76, 0x69, 0x6e, 0x67, 0x5f, 
0x64, 0x65, 0x66, 0x61, 0x75, 0x6c, 0x74, 0x0, 0x1, 0x0, 0x0, 0x0, 0x4, 0x0, 0x0, 0x0, 0x94, 0xff, 0xff, 0xff, 
0x13, 0x0, 0x0, 0x0, 0x4, 0x0, 0x0, 0x0, 0x8, 0x0, 0x0, 0x0, 0x64, 0x65, 0x6e, 0x73, 0x65, 0x5f, 0x32, 0x37, 
0x0, 0x0, 0x0, 0x0, 0x1, 0x0, 0x0, 0x0, 0x4, 0x0, 0x0, 0x0, 0x22, 0xd7, 0xfe, 0xff, 0x4, 0x0, 0x0, 0x0, 
0x8, 0x0, 0x0, 0x0, 0x69, 0x6e, 0x70, 0x75, 0x74, 0x5f, 0x31, 0x34, 0x0, 0x0, 0x0, 0x0, 0x2, 0x0, 0x0, 0x0, 
0x34, 0x0, 0x0, 0x0, 0x4, 0x0, 0x0, 0x0, 0xdc, 0xff, 0xff, 0xff, 0x16, 0x0, 0x0, 0x0, 0x4, 0x0, 0x0, 0x0, 
0x13, 0x0, 0x0, 0x0, 0x43, 0x4f, 0x4e, 0x56, 0x45, 0x52, 0x53, 0x49, 0x4f, 0x4e, 0x5f, 0x4d, 0x45, 0x54, 0x41, 0x44, 
0x41, 0x54, 0x41, 0x0, 0x8, 0x0, 0xc, 0x0, 0x8, 0x0, 0x4, 0x0, 0x8, 0x0, 0x0, 0x0, 0x15, 0x0, 0x0, 0x0, 
0x4, 0x0, 0x0, 0x0, 0x13, 0x0, 0x0, 0x0, 0x6d, 0x69, 0x6e, 0x5f, 0x72, 0x75, 0x6e, 0x74, 0x69, 0x6d, 0x65, 0x5f, 
0x76, 0x65, 0x72, 0x73, 0x69, 0x6f, 0x6e, 0x0, 0x17, 0x0, 0x0, 0x0, 0x84, 0x28, 0x1, 0x0, 0x7c, 0x28, 0x1, 0x0, 
0x64, 0x28, 0x1, 0x0, 0x3c, 0x28, 0x1, 0x0, 0x2c, 0x26, 0x1, 0x0, 0x1c, 0x24, 0x1, 0x0, 0xc, 0xc, 0x0, 0x0, 
0xbc, 0xb, 0x0, 0x0, 0xac, 0x2, 0x0, 0x0, 0x5c, 0x2, 0x0, 0x0, 0xbc, 0x1, 0x0, 0x0, 0x6c, 0x1, 0x0, 0x0, 
0xcc, 0x0, 0x0, 0x0, 0xc4, 0x0, 0x0, 0x0, 0xbc, 0x0, 0x0, 0x0, 0xb4, 0x0, 0x0, 0x0, 0xac, 0x0, 0x0, 0x0, 
0xa4, 0x0, 0x0, 0x0, 0x9c, 0x0, 0x0, 0x0, 0x94, 0x0, 0x0, 0x0, 0x8c, 0x0, 0x0, 0x0, 0x6c, 0x0, 0x0, 0x0, 
0x4, 0x0, 0x0, 0x0, 0xf6, 0xd7, 0xfe, 0xff, 0x4, 0x0, 0x0, 0x0, 0x58, 0x0, 0x0, 0x0, 0xc, 0x0, 0x0, 0x0, 
0x8, 0x0, 0xe, 0x0, 0x8, 0x0, 0x4, 0x0, 0x8, 0x0, 0x0, 0x0, 0x10, 0x0, 0x0, 0x0, 0x28, 0x0, 0x0, 0x0, 
0x0, 0x0, 0x6, 0x0, 0x8, 0x0, 0x4, 0x0, 0x6, 0x0, 0x0, 0x0, 0x4, 0x0, 0x0, 0x0, 0x1, 0x0, 0x0, 0x0, 
0xeb, 0x3, 0x0, 0x0, 0x0, 0x0, 0xa, 0x0, 0x10, 0x0, 0xc, 0x0, 0x8, 0x0, 0x4, 0x0, 0xa, 0x0, 0x0, 0x0, 
0x2, 0x0, 0x0, 0x0, 0x2, 0x0, 0x0, 0x0, 0x4, 0x0, 0x0, 0x0, 0x6, 0x0, 0x0, 0x0, 0x32, 0x2e, 0x31, 0x30, 
0x2e, 0x31, 0x0, 0x0, 0x5a, 0xd8, 0xfe, 0xff, 0x4, 0x0, 0x0, 0x0, 0x10, 0x0, 0x0, 0x0, 0x31, 0x2e, 0x31, 0x34, 
0x2e, 0x30, 0x0, 0x0, 0x0, 0x0, 0x0, 0x0, 0x0, 0x0, 0x0, 0x0, 0x94, 0xc4, 0xfe, 0xff, 0x98, 0xc4, 0xfe, 0xff, 
0x9c, 0xc4, 0xfe, 0xff, 0xa0, 0xc4, 0xfe, 0xff, 0xa4, 0xc4, 0xfe, 0xff, 0xa8, 0xc4, 0xfe, 0xff, 0xac, 0xc4, 0xfe, 0xff, 
0xb0, 0xc4, 0xfe, 0xff, 0x96, 0xd8, 0xfe, 0xff, 0x4, 0x0, 0x0, 0x0, 0x90, 0x0, 0x0, 0x0, 0xc0, 0x1c, 0xf3, 0x39, 
0x20, 0x13, 0x3, 0x14, 0x81, 0xfb, 0xf8, 0x7f, 0xdd, 0xd5, 0x24, 0xcf, 0xde, 0xf1, 0x7f, 0x3d, 0xab, 0x5e, 0x39, 0xaf, 
0xf7, 0xc3, 0xa2, 0xb6, 0x92, 0x56, 0x18, 0xab, 0x7f, 0x5, 0xdb, 0x54, 0xe0, 0x10, 0x7f, 0xcc, 0xd5, 0x3, 0xd7, 0x13, 
0xf7, 0x75, 0x94, 0x2b, 0xc7, 0x81, 0x99, 0x6e, 0x50, 0x30, 0xdf, 0x40, 0x7f, 0xff, 0xe3, 0xca, 0x1a, 0x2, 0xc7, 0x93, 
0xd1, 0x81, 0xc, 0x2f, 0x44, 0xd9, 0x9c, 0x2f, 0x6e, 0x7f, 0x7e, 0x36, 0x5d, 0xe, 0xc6, 0xe9, 0x14, 0xd9, 0xea, 0x3d, 
0x99, 0x22, 0x7f, 0xe5, 0xab, 0x39, 0x81, 0xdc, 0xda, 0x38, 0x16, 0x30, 0xe3, 0x46, 0x7b, 0x55, 0x7f, 0x24, 0x14, 0x8c, 
0x9f, 0x3d, 0xa3, 0xa, 0xaa, 0xb2, 0x2f, 0xa2, 0xe6, 0x5e, 0x21, 0xfc, 0x7f, 0x2a, 0xab, 0xbc, 0xf, 0x94, 0xfb, 0x8e, 
0x81, 0xa5, 0x38, 0xbf, 0xd1, 0x19, 0x2a, 0xf6, 0xf6, 0x7f, 0x1e, 0x1e, 0xa0, 0x32, 0x2e, 0x81, 0xfb, 0x1a, 0xe5, 0xdb, 
0x32, 0xd9, 0xfe, 0xff, 0x4, 0x0, 0x0, 0x0, 0x40, 0x0, 0x0, 0x0, 0xfd, 0xff, 0xff, 0xff, 0xe9, 0xff, 0xff, 0xff, 
0xfd, 0xff, 0xff, 0xff, 0x14, 0x0, 0x0, 0x0, 0xe1, 0xff, 0xff, 0xff, 0xe, 0x0, 0x0, 0x0, 0xcd, 0xff, 0xff, 0xff, 
0x0, 0x0, 0x0, 0x0, 0x3, 0xff, 0xff, 0xff, 0xbb, 0xff, 0xff, 0xff, 0x9, 0xff, 0xff, 0xff, 0xa, 0x0, 0x0, 0x0, 
0xdd, 0xff, 0xff, 0xff, 0xed, 0xff, 0xff, 0xff, 0x29, 0xff, 0xff, 0xff, 0x3, 0x0, 0x0, 0x0, 0x7e, 0xd9, 0xfe, 0xff, 
0x4, 0x0, 0x0, 0x0, 0x90, 0x0, 0x0, 0x0, 0xa2, 0x55, 0xee, 0xb3, 0xb8, 0xe7, 0x8a, 0x28, 0xba, 0xf4, 0x6c, 0x61, 
0xa5, 0xa3, 0xad, 0x9, 0x39, 0xd2, 0xef, 0x43, 0x1, 0x66, 0x3b, 0x30, 0xdc, 0x42, 0xc4, 0xb6, 0x21, 0xa8, 0x35, 0x51, 
0x27, 0x4e, 0x31, 0x81, 0x37, 0x23, 0x74, 0x3e, 0x39, 0x0, 0x9f, 0x81, 0x3e, 0xb5, 0x4, 0x2, 0x30, 0x93, 0xbd, 0x35, 
0x98, 0xea, 0x81, 0xe9, 0x34, 0xdd, 0x3e, 0xc4, 0x7f, 0xb1, 0x2, 0x4, 0x27, 0x81, 0x9c, 0xd, 0x81, 0x7f, 0xef, 0xf7, 
0x81, 0xbd, 0x39, 0xdc, 0x2f, 0x2d, 0x81, 0xe6, 0x7f, 0xf0, 0xbc, 0x67, 0x37, 0xf4, 0xe, 0xf1, 0xbd, 0x81, 0x61, 0x7c, 
0xc1, 0x67, 0x7a, 0x1, 0x7e, 0xb5, 0xcd, 0x31, 0xdf, 0xcd, 0x44, 0x81, 0x63, 0xf, 0x81, 0xdc, 0x4f, 0x7f, 0x3e, 0x9b, 
0xcb, 0xa6, 0x81, 0xdd, 0x4a, 0xd0, 0xb4, 0xb0, 0x54, 0x15, 0x41, 0xce, 0x25, 0x91, 0xae, 0x81, 0xb2, 0xdc, 0x5e, 0x38, 
0xd, 0xb, 0x90, 0xf0, 0xcb, 0xee, 0x52, 0x32, 0x8b, 0x49, 0xe5, 0x4d, 0x1a, 0xda, 0xfe, 0xff, 0x4, 0x0, 0x0, 0x0, 
0x40, 0x0, 0x0, 0x0, 0xae, 0xfc, 0xff, 0xff, 0x40, 0xa, 0x0, 0x0, 0xca, 0x10, 0x0, 0x0, 0x54, 0xfa, 0xff, 0xff, 
0x11, 0x3, 0x0, 0x0, 0x5c, 0xfc, 0xff, 0xff, 0x1, 0xb, 0x0, 0x0, 0xc8, 0xff, 0xff, 0xff, 0xb0, 0x21, 0x0, 0x0, 
0x11, 0x4, 0x0, 0x0, 0xb2, 0xed, 0xff, 0xff, 0xe7, 0x5, 0x0, 0x0, 0x2f, 0xfc, 0xff, 0xff, 0xd, 0x0, 0x0, 0x0, 
0xa6, 0xd, 0x0, 0x0, 0x2c, 0x1, 0x0, 0x0, 0x66, 0xda, 0xfe, 0xff, 0x4, 0x0, 0x0, 0x0, 0x0, 0x9, 0x0, 0x0, 
0xd6, 0xc, 0xf9, 0xda, 0xf4, 0xe9, 0x3d, 0x7, 0x18, 0x36, 0x29, 0xef, 0xae, 0x50, 0xc6, 0xc7, 0xe7, 0x13, 0xe, 0xe4, 
0x0, 0xc0, 0xa, 0xc5, 0x4c, 0x15, 0x26, 0xe8, 0xfb, 0x16, 0xd7, 0xd2, 0x14, 0xe5, 0xdf, 0x2e, 0x6, 0xf4, 0x34, 0xec, 
0x1, 0xa, 0xf2, 0xea, 0xe7, 0xf1, 0x2b, 0x81, 0xda, 0x97, 0x46, 0xe8, 0xf9, 0xf8, 0xd3, 0xb, 0xc3, 0xc5, 0xc6, 0xe4, 
0xec, 0x2, 0x2d, 0xec, 0x17, 0x9e, 0x16, 0xe7, 0xea, 0x0, 0xf4, 0xc3, 0x23, 0xee, 0x4, 0xa, 0x1b, 0xcc, 0xcb, 0x2e, 
0xff, 0xf5, 0x30, 0x22, 0x1d, 0x5, 0x12, 0xd3, 0xb, 0xcd, 0xee, 0x31, 0xf4, 0xf8, 0xfe, 0x13, 0xe9, 0xf, 0x44, 0xcc, 
0xdc, 0xd2, 0xc8, 0xa, 0xd, 0x2, 0x1b, 0x45, 0x19, 0xb8, 0x2e, 0x31, 0x6, 0x5, 0x12, 0x4, 0xbf, 0x2f, 0x6, 0xb9, 
0xc, 0xf5, 0xb9, 0x4c, 0x1, 0xaa, 0x38, 0x29, 0x18, 0xd8, 0xc0, 0xdf, 0xf4, 0x2f, 0xb, 0xad, 0xe5, 0xfd, 0xc8, 0x18, 
0xe2, 0xed, 0xb4, 0xe8, 0xe2, 0xf, 0xf1, 0x10, 0xde, 0xc2, 0xad, 0x1b, 0xd0, 0xc1, 0x26, 0xf3, 0xec, 0xea, 0x7, 0xf4, 
0xec, 0xc4, 0xf6, 0xd3, 0xce, 0xf5, 0xe8, 0x17, 0x26, 0x20, 0x36, 0xb, 0x3, 0xf1, 0xe8, 0x16, 0xf8, 0xf1, 0x2, 0xd2, 
0xc1, 0xea, 0x36, 0x23, 0x3c, 0x31, 0x4a, 0x4, 0xeb, 0xf0, 0x92, 0x10, 0xe, 0x15, 0x3f, 0x31, 0xdd, 0xf5, 0x17, 0xd, 
0x16, 0xd9, 0xcc, 0x2d, 0x8, 0xfb, 0x43, 0x29, 0xfd, 0xf6, 0x2, 0xd, 0xe8, 0xdd, 0xfa, 0x28, 0xca, 0xf5, 0xfd, 0xf3, 
0xc, 0xc6, 0x8, 0xc, 0xee, 0x9, 0x2d, 0xcd, 0x9d, 0xe5, 0xd2, 0xf8, 0xa9, 0xc8, 0x15, 0x4b, 0xfe, 0xe0, 0xd9, 0x33, 
0xf0, 0xf, 0x1a, 0x1e, 0xfc, 0xea, 0xe7, 0x41, 0x30, 0xe7, 0xf, 0xfb, 0x2e, 0x3, 0x39, 0xef, 0x1f, 0xe9, 0xf0, 0x3, 
0x2, 0xdc, 0xdd, 0x28, 0xd7, 0xeb, 0xcc, 0x5, 0x19, 0xed, 0x5f, 0xf2, 0xf1, 0xd6, 0xe3, 0x30, 0xcd, 0xd8, 0xfa, 0x1b, 
0x81, 0xe, 0x1f, 0x27, 0xe9, 0xfa, 0x43, 0xef, 0x6e, 0x26, 0x25, 0x0, 0xd2, 0x3, 0x26, 0x3, 0xcd, 0xe1, 0xd8, 0x4f, 
0xf2, 0x2, 0xf5, 0x51, 0x4, 0xfd, 0xee, 0xfc, 0x2b, 0x4c, 0xc2, 0x2, 0xf7, 0x6, 0x35, 0x8d, 0x22, 0x9, 0xd5, 0xef, 
0x3, 0xe, 0x1, 0xe6, 0xb, 0x38, 0xee, 0x19, 0xda, 0xf4, 0x41, 0xf8, 0x1d, 0xdb, 0xf8, 0xf3, 0xda, 0x34, 0xe3, 0x33, 
0xf6, 0xd9, 0xfe, 0xdb, 0xf5, 0x5d, 0x9d, 0x7f, 0x2f, 0x13, 0xf6, 0xd, 0x1a, 0x20, 0xe9, 0x39, 0xd8, 0x1a, 0xc0, 0xd6, 
0xf2, 0x2b, 0xc2, 0x2d, 0xfa, 0x0, 0x29, 0xec, 0xac, 0xf1, 0xe7, 0xd6, 0x2f, 0xa, 0x32, 0xd9, 0xbc, 0xe8, 0xf9, 0x46, 
0xda, 0x7, 0x31, 0xf5, 0xe5, 0x8, 0x8a, 0x13, 0xf, 0xf6, 0x1b, 0x21, 0xec, 0xfd, 0xc6, 0xf4, 0x38, 0x16, 0xe9, 0xb8, 
0xf1, 0xfb, 0xd4, 0x39, 0xe, 0x24, 0x1c, 0xd, 0xfd, 0xc6, 0x9, 0xe4, 0xf3, 0xda, 0xf1, 0xe2, 0xc9, 0x2, 0x24, 0x4c, 
0xae, 0x5, 0x0, 0x1e, 0xef, 0x1c, 0xa6, 0x34, 0xa2, 0x36, 0xf7, 0xb0, 0xc2, 0xf7, 0x1f, 0x13, 0x21, 0xcb, 0xda, 0x18, 
0xf7, 0xdd, 0x23, 0x3c, 0x4f, 0x3b, 0xf4, 0xe, 0x17, 0x29, 0x29, 0xf4, 0xd, 0x14, 0x1f, 0x30, 0x12, 0xf, 0x1a, 0x39, 
0x56, 0x14, 0xea, 0xf1, 0xd3, 0xfc, 0x20, 0xd8, 0x1a, 0x2b, 0xd, 0xf0, 0xf7, 0x18, 0xc, 0xf, 0x63, 0xf2, 0x5, 0xe0, 
0x2d, 0x38, 0x3, 0x6, 0x2b, 0x1a, 0xcb, 0xdb, 0xb, 0xfa, 0x1, 0x33, 0xfd, 0x22, 0xf, 0x8f, 0x35, 0x59, 0xdb, 0xe5, 
0xe4, 0xd7, 0x1, 0xf1, 0xb, 0xc, 0xd8, 0x16, 0x26, 0x1f, 0x3c, 0x31, 0xf2, 0x34, 0xe7, 0xd3, 0x3b, 0xba, 0xf3, 0xfb, 
0xca, 0x37, 0xce, 0x11, 0xfa, 0xec, 0x7, 0x21, 0x1d, 0x67, 0x81, 0xe, 0xea, 0x0, 0xc3, 0xe8, 0x21, 0xff, 0x6, 0xb, 
0x99, 0xde, 0xe, 0xa, 0xa, 0x1d, 0xa3, 0xbf, 0x28, 0xb2, 0xeb, 0xf0, 0x2d, 0xf2, 0xb4, 0xfd, 0xcc, 0xbf, 0xb3, 0x6, 
0x3e, 0xf, 0xeb, 0xe2, 0x19, 0x23, 0x1f, 0x50, 0x10, 0xfe, 0x2f, 0xd1, 0xcd, 0x1f, 0x15, 0xe1, 0x14, 0xf6, 0xfa, 0xe9, 
0x31, 0xde, 0xf6, 0xd7, 0x23, 0xf1, 0xe8, 0xe8, 0xff, 0x27, 0xfe, 0xf4, 0x9, 0xe, 0x81, 0xe0, 0xdf, 0xd0, 0xe5, 0xca, 
0x3, 0xa, 0x3, 0x49, 0xd0, 0xf5, 0x0, 0xc, 0xee, 0xe5, 0xe5, 0xf4, 0x19, 0xf5, 0xf4, 0xf7, 0xf1, 0x6, 0x16, 0x30, 
0x11, 0xea, 0xc1, 0xfd, 0x1e, 0x6, 0xf6, 0xd8, 0xbd, 0xff, 0x2b, 0x0, 0xe6, 0xfd, 0xd8, 0x22, 0x25, 0xe3, 0xe2, 0xf8, 
0x35, 0x8, 0xe7, 0xdb, 0xfb, 0x5, 0xe8, 0xfd, 0xc3, 0xf6, 0xd7, 0xdd, 0xe8, 0xd, 0x5, 0x34, 0x3, 0x8, 0x1c, 0xe6, 
0xf3, 0xd0, 0xd0, 0x41, 0xe2, 0xf8, 0x1a, 0xf9, 0xc6, 0xdf, 0x23, 0xb5, 0xe5, 0xf, 0x1e, 0xf2, 0xe0, 0x1e, 0x14, 0xd3, 
0xd, 0x34, 0xf4, 0x24, 0x3f, 0xe3, 0xf2, 0xdf, 0xee, 0xe, 0xdd, 0xe, 0xe8, 0xe0, 0xc2, 0xeb, 0xe, 0xb, 0xfe, 0x2b, 
0xee, 0xe, 0xc7, 0x36, 0x26, 0xf9, 0xd6, 0x20, 0xe9, 0xef, 0xe4, 0x1c, 0xe1, 0xf1, 0xc3, 0xe, 0xce, 0x8, 0x32, 0xdd, 
0xe4, 0xe, 0x18, 0xec, 0x35, 0xd, 0x1d, 0x27, 0x51, 0x1d, 0xd2, 0xe, 0xba, 0xe6, 0xe9, 0xc1, 0x38, 0x32, 0xd9, 0xf8, 
0x4f, 0xc9, 0xf9, 0xff, 0x4e, 0xee, 0xe6, 0x8, 0x3, 0xdf, 0xe9, 0x13, 0x10, 0x11, 0x2e, 0x1f, 0x24, 0xe, 0x9, 0xe4, 
0xc, 0x5, 0x1c, 0xd1, 0xe3, 0xe0, 0x15, 0x41, 0xa, 0xd5, 0xd5, 0x9f, 0xdc, 0x1d, 0xfc, 0xfa, 0x58, 0x9, 0x6, 0xfe, 
0xe4, 0xf8, 0x8b, 0x27, 0xe6, 0xdd, 0xe0, 0x18, 0xdb, 0x16, 0x24, 0x7, 0x62, 0x13, 0xf9, 0xf, 0x9, 0x3, 0xc9, 0x38, 
0x19, 0x36, 0xf6, 0xfd, 0x42, 0x6a, 0x15, 0xdb, 0x41, 0xfb, 0xfe, 0xf0, 0xe1, 0x9, 0xf6, 0xff, 0xfc, 0xd2, 0xc8, 0xc4, 
0xf1, 0xdf, 0x4, 0xe7, 0x81, 0x2e, 0x15, 0xf2, 0xee, 0xfc, 0xc1, 0x48, 0xdf, 0xce, 0xbc, 0xd3, 0xb, 0x16, 0xf1, 0x20, 
0xda, 0xf4, 0x13, 0xc8, 0xe7, 0xb, 0xc2, 0x2, 0xe2, 0x7, 0x13, 0xfe, 0x6d, 0x25, 0xa, 0x16, 0x2c, 0x63, 0xf3, 0x27, 
0xc2, 0x29, 0xbe, 0x20, 0xf, 0x53, 0x2d, 0xda, 0xfc, 0x17, 0x1d, 0x28, 0xef, 0xc6, 0xee, 0xa, 0xe6, 0xeb, 0x54, 0x1f, 
0xeb, 0x28, 0x2f, 0x40, 0x2e, 0x24, 0x3d, 0xfc, 0x13, 0x3, 0xa, 0x5d, 0x2a, 0xbd, 0x23, 0x1, 0x1a, 0x45, 0xc, 0x0, 
0x11, 0x1c, 0x13, 0xe, 0xf8, 0x26, 0xf2, 0x14, 0xc1, 0x35, 0x5a, 0x32, 0x1, 0xf0, 0x26, 0x2e, 0xf7, 0xf1, 0xfe, 0xd7, 
0xd, 0xe3, 0xd5, 0x11, 0x17, 0xe, 0x2b, 0x32, 0xfe, 0x2c, 0x1a, 0xe6, 0xe9, 0x8, 0x2d, 0x21, 0xe1, 0x41, 0x9f, 0xf, 
0xfe, 0xbe, 0xf, 0x55, 0xd7, 0xc, 0xdf, 0xef, 0x1, 0xdd, 0x18, 0x2f, 0xe8, 0x21, 0x4, 0x43, 0xa0, 0x96, 0x3, 0xb, 
0x28, 0xea, 0x4a, 0x14, 0x0, 0xcc, 0xf0, 0x2b, 0xdd, 0x9, 0x1, 0xc0, 0xa5, 0xf9, 0x37, 0x12, 0x8c, 0x2, 0xc7, 0x2, 
0xf2, 0xc6, 0xe3, 0x48, 0xfd, 0x4, 0x9c, 0xfb, 0x1, 0xd4, 0xf9, 0x17, 0x3e, 0x1b, 0x9b, 0xf2, 0x7f, 0xfd, 0x29, 0x43, 
0x4d, 0x59, 0xe0, 0x27, 0xcc, 0xd2, 0xc, 0xd5, 0xeb, 0x1c, 0xf0, 0xf9, 0x0, 0x20, 0xb9, 0xfe, 0x62, 0x12, 0xd, 0x47, 
0x1d, 0xd2, 0xad, 0xf7, 0xc, 0xfc, 0xe1, 0x20, 0xfc, 0x48, 0x9, 0xf3, 0x36, 0xf4, 0xd5, 0x4a, 0xf4, 0xed, 0x18, 0x1, 
0x3d, 0xdc, 0xa, 0xd7, 0xba, 0x34, 0x2f, 0x3, 0xe5, 0xc8, 0xea, 0x7, 0x34, 0x1d, 0x6, 0xfe, 0x28, 0x3, 0xe, 0xc2, 
0xe, 0x16, 0xf5, 0xf, 0xdd, 0x25, 0x32, 0x1a, 0xce, 0xd9, 0x3a, 0x38, 0x1d, 0xf8, 0x22, 0xe, 0xdf, 0x0, 0x23, 0x39, 
0x30, 0xe6, 0xf8, 0x81, 0x1d, 0xf1, 0xc9, 0xb, 0xc9, 0xe9, 0x97, 0xf4, 0xc7, 0xd, 0x1b, 0x7, 0xec, 0x20, 0x19, 0x30, 
0xe8, 0xed, 0xe8, 0xef, 0x37, 0x54, 0xc9, 0xb6, 0xfa, 0x1c, 0xe4, 0x4, 0x1, 0x16, 0x35, 0xd9, 0xd1, 0xf2, 0xc3, 0xed, 
0x1b, 0x1e, 0xe6, 0xed, 0xf5, 0xd2, 0xe5, 0x15, 0x4, 0x2d, 0x9, 0x1a, 0xc5, 0x1, 0xc7, 0x18, 0xb7, 0xf8, 0xd9, 0xcc, 
0x21, 0x0, 0xf0, 0x1d, 0x17, 0x47, 0x2, 0x22, 0x2d, 0xf6, 0xf6, 0xe2, 0x26, 0x1c, 0xed, 0x26, 0xef, 0x10, 0xd8, 0xe9, 
0x7f, 0x0, 0xf3, 0x12, 0xa, 0xef, 0xbf, 0x0, 0xf0, 0xff, 0x44, 0x3, 0x4, 0x2f, 0x1a, 0x0, 0x2b, 0xf, 0x1a, 0xeb, 
0xc6, 0xf, 0xbd, 0x52, 0x24, 0x0, 0xfe, 0x62, 0xed, 0xfc, 0x0, 0xee, 0x3d, 0x0, 0xfe, 0xff, 0x3a, 0x5, 0x33, 0xf5, 
0xeb, 0x1b, 0x2c, 0xe1, 0xa, 0xd4, 0xef, 0xca, 0xd, 0xf, 0xfa, 0x8, 0xe6, 0xfe, 0xa, 0x8, 0x24, 0xe6, 0xf7, 0x3a, 
0x0, 0x12, 0xcd, 0xf6, 0xc8, 0x1d, 0x98, 0x57, 0xe8, 0xf2, 0x20, 0x29, 0x4f, 0xd6, 0x32, 0x5f, 0xec, 0xfb, 0xf3, 0xfd, 
0xfe, 0xb, 0xf2, 0xdb, 0x4, 0xb7, 0x53, 0xde, 0xf3, 0x24, 0xe5, 0x22, 0x1e, 0x1d, 0xe, 0xf6, 0x1b, 0xe1, 0xfd, 0xd1, 
0xea, 0xd5, 0x22, 0x2, 0xd5, 0x1f, 0xbc, 0x53, 0x19, 0xf1, 0x22, 0x10, 0x1, 0xbc, 0xb, 0x1c, 0xf9, 0xfc, 0x2, 0xf, 
0xd, 0x21, 0x11, 0xd5, 0x1, 0x12, 0x24, 0x4, 0xfc, 0x6, 0xfe, 0xc0, 0x59, 0xf4, 0x21, 0xc, 0x33, 0x2f, 0x28, 0x39, 
0x32, 0xef, 0x0, 0x21, 0xfd, 0xc7, 0xd4, 0x29, 0x28, 0x8, 0x18, 0xeb, 0xc2, 0x53, 0x4, 0xf9, 0x1, 0x2c, 0xf1, 0x3, 
0xcf, 0xfd, 0x35, 0xe9, 0x25, 0xd9, 0xde, 0xe9, 0xe, 0xf9, 0xed, 0x19, 0xf5, 0x43, 0xb6, 0x15, 0xf7, 0xee, 0x29, 0x2a, 
0x1b, 0xea, 0xdd, 0x36, 0xdd, 0x1e, 0x19, 0xd, 0xfa, 0xba, 0xd9, 0xea, 0x49, 0x10, 0x48, 0xd7, 0xf, 0x36, 0xe5, 0xf8, 
0xdd, 0xb, 0xf3, 0xe, 0xf, 0xd3, 0xda, 0xc1, 0xe7, 0xf8, 0x2, 0xb, 0xed, 0x4d, 0xf, 0xe6, 0xfb, 0xfc, 0xb5, 0xc4, 
0x1c, 0x1a, 0x22, 0xde, 0xe3, 0xe8, 0xae, 0xfa, 0xe5, 0xf4, 0xe1, 0x33, 0xef, 0x25, 0x19, 0xe2, 0x17, 0xdc, 0x24, 0xd6, 
0x4, 0x4e, 0x6, 0x2, 0xf6, 0xdb, 0xee, 0x15, 0xdb, 0xf5, 0x94, 0xc6, 0x37, 0x8, 0x6, 0xc, 0x17, 0x23, 0xef, 0xd4, 
0x81, 0x3d, 0x6, 0x0, 0xd, 0xea, 0xce, 0xd9, 0x28, 0x1a, 0x40, 0x2c, 0xda, 0x43, 0x8, 0xa9, 0x99, 0x1e, 0xf4, 0xe4, 
0x1e, 0xf2, 0xe2, 0xdd, 0xeb, 0x16, 0xfd, 0x12, 0xfc, 0xda, 0xf3, 0xef, 0xcd, 0x25, 0xe3, 0xe2, 0x35, 0x40, 0xca, 0xd, 
0x3, 0xe2, 0xc9, 0x0, 0x3c, 0xfc, 0xec, 0x15, 0xea, 0x1a, 0x0, 0x23, 0xda, 0x49, 0x9f, 0x13, 0xed, 0xfb, 0xdc, 0x1b, 
0xff, 0x2b, 0xee, 0xee, 0x7, 0x4, 0x19, 0x19, 0xd7, 0x31, 0xec, 0x1, 0xf0, 0x81, 0xe9, 0xd9, 0xd9, 0x3, 0xeb, 0x5d, 
0x5, 0x15, 0xff, 0xf2, 0x30, 0x33, 0xf3, 0x0, 0xd4, 0xaf, 0x19, 0xd6, 0x33, 0x32, 0x7, 0xec, 0x2a, 0x22, 0xf0, 0x4, 
0x37, 0x25, 0xbc, 0xde, 0x4f, 0xfd, 0x4, 0xc9, 0xd3, 0x38, 0xc4, 0xc8, 0x34, 0xe2, 0xff, 0x2a, 0xfa, 0xe5, 0xa3, 0xf5, 
0x2d, 0x64, 0xfa, 0xe9, 0x15, 0x2d, 0xe5, 0xe2, 0x2d, 0xf0, 0x0, 0xe2, 0x24, 0xd1, 0xbc, 0xdc, 0x8, 0x21, 0xec, 0xec, 
0x54, 0x9, 0xf5, 0x6, 0xcb, 0xb, 0x22, 0x0, 0xd9, 0xd8, 0x94, 0x13, 0x1f, 0x4b, 0x7, 0xdd, 0x24, 0x3e, 0xe, 0xe9, 
0x16, 0x3b, 0x27, 0x1, 0xb4, 0x11, 0x3b, 0x44, 0x2d, 0xe8, 0x2a, 0x34, 0xdf, 0xef, 0xbd, 0xef, 0xa2, 0xf9, 0x47, 0x19, 
0x33, 0xfc, 0x3, 0xef, 0xed, 0xf4, 0x24, 0x25, 0x17, 0xfe, 0xd6, 0x19, 0x9, 0xaa, 0x69, 0x27, 0xff, 0xa1, 0xfc, 0x1e, 
0xd3, 0x1c, 0xc7, 0x23, 0xcb, 0xc0, 0x2b, 0xfa, 0xdb, 0x3, 0xb2, 0xf9, 0x37, 0x2f, 0xa, 0x28, 0x3d, 0xd2, 0x4a, 0xe2, 
0xdd, 0xe0, 0xe9, 0x39, 0x98, 0x66, 0xe6, 0xd, 0x7f, 0xa, 0x1, 0x5, 0x8, 0xba, 0x27, 0xb, 0xf6, 0xa5, 0x2b, 0x16, 
0xf, 0xf4, 0x4a, 0x62, 0xbc, 0xe9, 0xc, 0xde, 0xd9, 0xf8, 0xe, 0xd8, 0xa3, 0xdb, 0xde, 0x23, 0xa, 0x12, 0x6c, 0xee, 
0x12, 0x53, 0xf6, 0xae, 0x50, 0xe6, 0x37, 0x35, 0x2e, 0xd1, 0xdb, 0x21, 0xc9, 0x14, 0x4d, 0xe, 0xe9, 0xc3, 0x33, 0xe3, 
0x50, 0xef, 0xf2, 0x8, 0x3, 0x4e, 0x97, 0xb1, 0xd5, 0xd7, 0xce, 0xc, 0xf1, 0x9f, 0xd2, 0xf7, 0x21, 0xd6, 0x7, 0xd5, 
0xc3, 0x98, 0x1d, 0xe4, 0xc0, 0x18, 0xf8, 0x92, 0x46, 0xfc, 0x24, 0x31, 0xce, 0x1e, 0xfc, 0x11, 0xe0, 0xee, 0x42, 0x3c, 
0x29, 0xfc, 0x28, 0xf9, 0x2, 0x9, 0x37, 0xae, 0xc0, 0xde, 0x1a, 0xf6, 0x38, 0x14, 0x17, 0xd8, 0x2d, 0xef, 0xce, 0x1a, 
0xef, 0xfe, 0x20, 0xfb, 0x1a, 0xa, 0xf7, 0xf2, 0x14, 0xf2, 0x18, 0xe1, 0x56, 0x30, 0xc, 0x2, 0xcb, 0x28, 0x1d, 0x9, 
0x1, 0xfc, 0xfb, 0xf6, 0xcf, 0xcd, 0x9, 0xda, 0x7f, 0xe4, 0xb6, 0x41, 0xa, 0x4, 0xab, 0xfa, 0x14, 0x6, 0xfa, 0xe5, 
0xf3, 0x3, 0xeb, 0x18, 0x4c, 0x3c, 0x3c, 0xf1, 0xfa, 0x1a, 0xef, 0xf5, 0x59, 0xf9, 0x2c, 0xdc, 0x5, 0x1e, 0xd8, 0xe, 
0xd4, 0xdd, 0x8, 0xf8, 0xd, 0x5a, 0xcc, 0x25, 0xdc, 0xdb, 0xea, 0xf1, 0x23, 0xf1, 0xe9, 0xf0, 0x0, 0x2a, 0xe0, 0xcf, 
0xe, 0x31, 0xa7, 0xb9, 0x36, 0xef, 0xe7, 0x10, 0xff, 0x4b, 0xf0, 0x15, 0xd2, 0x15, 0xf5, 0x2b, 0xdb, 0xeb, 0xe5, 0xc, 
0x1d, 0x7, 0xa, 0xd6, 0xcd, 0x27, 0xa6, 0x8, 0xe3, 0x2a, 0xfb, 0x17, 0xd3, 0x7, 0xc1, 0x2a, 0xe8, 0x1a, 0xdb, 0x44, 
0xe5, 0x4e, 0x1, 0x20, 0x56, 0x11, 0xe9, 0xcb, 0xe6, 0x23, 0xc, 0xba, 0x13, 0xe4, 0xbe, 0xdb, 0xf8, 0x26, 0x5a, 0xf, 
0x1f, 0xfe, 0xa6, 0xda, 0x2a, 0x32, 0x44, 0x14, 0x5, 0xfc, 0x19, 0x11, 0x2a, 0x25, 0x72, 0x3b, 0x41, 0xc, 0xaf, 0xcb, 
0xde, 0xf6, 0x19, 0xbd, 0xed, 0xdf, 0xe8, 0xdf, 0xe1, 0xe4, 0x7, 0x60, 0xd, 0x25, 0x21, 0x15, 0xc, 0x26, 0x10, 0xd4, 
0x27, 0xe3, 0xbc, 0xd0, 0xce, 0xeb, 0x15, 0xf3, 0x31, 0xca, 0x1e, 0xff, 0x9f, 0xee, 0xe4, 0xf4, 0x5, 0xf9, 0xdd, 0xb9, 
0x10, 0xea, 0x1, 0x6b, 0xec, 0xf6, 0xc5, 0x20, 0x27, 0xe2, 0x2c, 0x33, 0x13, 0x9b, 0x37, 0xea, 0x81, 0xd3, 0xee, 0x2f, 
0x3a, 0xe0, 0xee, 0xf2, 0xf5, 0xc1, 0xef, 0xd8, 0xeb, 0xdf, 0x16, 0xd4, 0xa8, 0x4d, 0xf0, 0x29, 0x19, 0xea, 0xe3, 0xe8, 
0x13, 0xd9, 0xdc, 0x1b, 0xc3, 0xa, 0xd, 0xb, 0x9a, 0x5c, 0xee, 0xc7, 0xd7, 0x96, 0x26, 0x0, 0xf9, 0xdc, 0xc2, 0x3a, 
0xce, 0xcf, 0xf7, 0xee, 0xbd, 0x1b, 0x9f, 0x16, 0xed, 0x16, 0xde, 0xd3, 0xed, 0xc5, 0x9f, 0xbd, 0x1d, 0xb3, 0xcb, 0x9, 
0x62, 0x71, 0xe7, 0xf, 0x21, 0x4, 0xb0, 0x39, 0xf9, 0x2b, 0xc5, 0xc, 0xf5, 0xa7, 0xe5, 0x8, 0xf6, 0x12, 0xfd, 0xf0, 
0x98, 0xe7, 0x1a, 0xec, 0x89, 0x6, 0x37, 0x32, 0xd4, 0x1d, 0xb, 0x3, 0x81, 0xe0, 0xc8, 0xe9, 0x28, 0x1d, 0x72, 0x5, 
0x20, 0xf5, 0xd5, 0x9, 0xc1, 0xd3, 0xc0, 0x37, 0x3, 0x22, 0xab, 0xf3, 0xfe, 0x1e, 0xaa, 0x9, 0x1, 0x3d, 0xf6, 0xbc, 
0x2e, 0xc3, 0xd4, 0x45, 0xf3, 0xc, 0xe1, 0xea, 0xd, 0x23, 0x5f, 0xe9, 0xf9, 0x34, 0xf7, 0xe4, 0xd8, 0x19, 0x6, 0xc9, 
0x2e, 0xd5, 0x23, 0x0, 0x9, 0x37, 0xf, 0x3a, 0x56, 0xc4, 0xe3, 0xa, 0xc, 0xb8, 0xf3, 0xea, 0x2, 0x19, 0xa1, 0xd5, 
0x0, 0x11, 0xa0, 0xb5, 0x3f, 0xec, 0xf9, 0x17, 0x3e, 0x2d, 0xee, 0xe0, 0x3b, 0xe4, 0xb8, 0x20, 0xc, 0x59, 0xcc, 0xf6, 
0xbe, 0xc, 0x40, 0x10, 0xef, 0xf9, 0xa3, 0xfb, 0xdc, 0x2a, 0xd9, 0xbd, 0xba, 0x7, 0xd2, 0xa7, 0x2e, 0x29, 0xdc, 0xdc, 
0x48, 0x3c, 0xf5, 0xef, 0xf2, 0x33, 0x28, 0x24, 0xf9, 0x24, 0xcb, 0x15, 0xdc, 0xfd, 0xcb, 0x29, 0xe, 0x42, 0x8, 0xc, 
0x19, 0x88, 0xa1, 0x4b, 0xfb, 0xc2, 0xc9, 0x37, 0x23, 0xe7, 0xe7, 0xdd, 0x3a, 0xec, 0xf, 0x13, 0x30, 0x3, 0x37, 0x3d, 
0xa9, 0x23, 0xdb, 0xb8, 0x8, 0xd6, 0xcf, 0x7, 0xe7, 0xa, 0x26, 0xb, 0x22, 0x30, 0x9, 0x5b, 0x1e, 0x1b, 0xd5, 0xff, 
0xd0, 0x2d, 0xf0, 0xe9, 0x34, 0xed, 0x32, 0xb5, 0xd3, 0xa0, 0xcf, 0xb6, 0x13, 0x8, 0x4e, 0xf, 0xb6, 0xe4, 0x1c, 0xcc, 
0xf0, 0xef, 0xb5, 0xfb, 0x4a, 0x2b, 0x33, 0xd9, 0xf8, 0xdf, 0xdb, 0xc, 0xe3, 0xb, 0xd7, 0xc4, 0x1f, 0x35, 0x1a, 0xea, 
0x7f, 0x1c, 0xd8, 0xfd, 0x35, 0x29, 0x19, 0x38, 0x7, 0x12, 0x86, 0xca, 0xd7, 0x24, 0x16, 0x10, 0x13, 0x8, 0x2, 0x63, 
0x89, 0xc, 0xbc, 0xfa, 0x72, 0xe3, 0xfe, 0xff, 0x4, 0x0, 0x0, 0x0, 0x40, 0x0, 0x0, 0x0, 0xec, 0xf9, 0xff, 0xff, 
0x2, 0xfb, 0xff, 0xff, 0xa1, 0xfb, 0xff, 0xff, 0xf8, 0xf8, 0xff, 0xff, 0x5e, 0xff, 0xff, 0xff, 0xfa, 0xfb, 0xff, 0xff, 
0x84, 0xfe, 0xff, 0xff, 0xe8, 0xfc, 0xff, 0xff, 0xb4, 0xf6, 0xff, 0xff, 0xf0, 0xfd, 0xff, 0xff, 0x7d, 0xfe, 0xff, 0xff, 
0x9c, 0xfa, 0xff, 0xff, 0xec, 0xfa, 0xff, 0xff, 0xdf, 0xf7, 0xff, 0xff, 0x7a, 0xfa, 0xff, 0xff, 0x9d, 0xfd, 0xff, 0xff, 
0xbe, 0xe3, 0xfe, 0xff, 0x4, 0x0, 0x0, 0x0, 0x0, 0x18, 0x1, 0x0, 0xf3, 0xee, 0xf0, 0xf8, 0x2, 0xf4, 0xea, 0xfc, 
0x9, 0xf0, 0x6, 0x2, 0x0, 0x7, 0xf1, 0x6, 0x9, 0xf8, 0x5, 0x8, 0xf4, 0xf6, 0xf6, 0x5, 0xf0, 0xf1, 0xf0, 0xf5, 
0xf0, 0x6, 0xf6, 0xf9, 0x8, 0x6, 0xa, 0xf9, 0x1, 0x5, 0xf0, 0x9, 0x0, 0x3, 0xf8, 0x6, 0x5, 0xf6, 0x1, 0x6, 
0xb, 0x5, 0x3, 0xf6, 0x1, 0xf8, 0x2, 0xf5, 0xfc, 0xf7, 0x8, 0xf9, 0xf7, 0xf9, 0xf0, 0x1, 0x8, 0xf5, 0x1, 0xf4, 
0xfe, 0xfb, 0xee, 0x2, 0xfb, 0xf8, 0x9, 0x3, 0xf6, 0xff, 0xf6, 0xf0, 0xb, 0x9, 0xfb, 0xef, 0xf7, 0x3, 0x6, 0xfb, 
0x7, 0x4, 0x8, 0xd, 0xf6, 0xf5, 0x3, 0x4, 0xb, 0xf6, 0x9, 0x1, 0xf7, 0x1, 0x3, 0x2, 0xfb, 0x3, 0xfb, 0x0, 
0xef, 0xee, 0x7, 0xfd, 0x0, 0x7, 0xfc, 0xf4, 0xfd, 0xf4, 0xeb, 0xf9, 0x6, 0xfd, 0xfd, 0xf3, 0xf3, 0xee, 0x4, 0xee, 
0xfd, 0xfc, 0xa, 0x2, 0x6, 0xf9, 0xfe, 0x1, 0xef, 0xfd, 0xf5, 0xf7, 0xee, 0xa, 0x8, 0x9, 0xfe, 0xf1, 0xfe, 0x5, 
0x9, 0xa, 0xf8, 0xfc, 0x3, 0xf1, 0xfa, 0xf8, 0x4, 0x9, 0x7, 0xf6, 0x4, 0xf7, 0xf0, 0xfc, 0x2, 0x0, 0xeb, 0xb, 
0xff, 0xfe, 0x9, 0xfc, 0xf5, 0x0, 0x0, 0xf7, 0xf3, 0xfa, 0x9, 0x2, 0x3, 0x8, 0xf9, 0xfa, 0x5, 0xfd, 0x7, 0xf7, 
0xf4, 0xfb, 0xf3, 0x0, 0x6, 0x1, 0x3, 0xfb, 0x2, 0xef, 0x4, 0x1, 0xfa, 0xf3, 0xfe, 0xfd, 0xb, 0x5, 0xfe, 0xff, 
0xf0, 0xf3, 0x0, 0x6, 0xef, 0x7, 0x3, 0x5, 0xf3, 0xfe, 0xf6, 0xf6, 0x2, 0x9, 0xf3, 0x3, 0x8, 0xfe, 0xf7, 0xf7, 
0xf8, 0xf8, 0xf1, 0xf2, 0xf9, 0xf4, 0x3, 0x8, 0xf9, 0xb, 0xf3, 0xfc, 0xf4, 0xfb, 0xb, 0x4, 0x0, 0xfe, 0xfe, 0xee, 
0x0, 0x0, 0x7, 0xf4, 0x1, 0xf1, 0xf7, 0x5, 0xef, 0xee, 0x9, 0xf2, 0xfb, 0x2, 0xfe, 0x5, 0xf2, 0xb, 0x9, 0x1, 
0x9, 0xf7, 0xa, 0xf0, 0xfb, 0x3, 0x3, 0x5, 0x7, 0xfc, 0x0, 0xef, 0xfa, 0xa, 0xef, 0x1, 0x2, 0xfc, 0xef, 0x5, 
0xfc, 0x5, 0xf8, 0xf0, 0x1, 0xf4, 0xfd, 0xfb, 0xa, 0xfc, 0xf0, 0xf0, 0x7, 0x0, 0x5, 0xf7, 0x3, 0xfc, 0xf0, 0xee, 
0x0, 0xf0, 0xfa, 0x5, 0xf0, 0xf0, 0x8, 0xfc, 0xef, 0xff, 0x5, 0xef, 0xfe, 0x7, 0xf9, 0xf8, 0xfe, 0x3, 0x8, 0xfc, 
0x4, 0x4, 0xf7, 0xa, 0xf2, 0xef, 0xf3, 0xfd, 0xc, 0xfd, 0xfa, 0xf5, 0xff, 0x5, 0x3, 0xfe, 0xfd, 0xfd, 0x0, 0xf5, 
0xb, 0xfd, 0xed, 0xf1, 0xf7, 0xd, 0xf5, 0xf7, 0xa, 0x7, 0xf1, 0xef, 0xee, 0x8, 0xf2, 0xf6, 0xf8, 0xf1, 0xf0, 0xf6, 
0xf1, 0xf6, 0xeb, 0xfe, 0x6, 0xfa, 0x5, 0xef, 0x0, 0x6, 0xf2, 0x3, 0x6, 0xf0, 0x9, 0xf9, 0xfc, 0xef, 0x2, 0xf5, 
0xf7, 0xfa, 0x7, 0xf0, 0xf7, 0xf7, 0xf5, 0xf7, 0xf2, 0x1, 0xf4, 0xc, 0x0, 0x1, 0x6, 0x6, 0xfc, 0xfe, 0xf0, 0xfd, 
0x6, 0xfd, 0x7, 0xc, 0x3, 0xf5, 0x6, 0x4, 0x8, 0xef, 0xa, 0xf0, 0x9, 0xf2, 0xf9, 0xf3, 0x6, 0xfa, 0x7, 0xfb, 
0x8, 0xf4, 0xf1, 0xf1, 0xf9, 0xf2, 0x1, 0xf3, 0xf0, 0xf3, 0x3, 0xfa, 0xf4, 0xf6, 0x4, 0x6, 0xf0, 0xf0, 0xf3, 0xf0, 
0x2, 0xf4, 0xfd, 0x2, 0x8, 0x3, 0x8, 0x3, 0x14, 0x8, 0x0, 0xf5, 0xd, 0xf3, 0x0, 0x0, 0xff, 0xe, 0x1, 0xa, 
0x4, 0x0, 0xf9, 0xfa, 0xc, 0xf3, 0xf0, 0xfc, 0x8, 0x9, 0x7, 0xec, 0xfe, 0xa, 0xf, 0xfb, 0x2, 0xa, 0xf6, 0xfe, 
0xb, 0x0, 0xf2, 0xe9, 0x1, 0xf2, 0xf3, 0xfb, 0xa, 0x1, 0xf9, 0x3, 0xfc, 0x1, 0xef, 0xf3, 0x13, 0xee, 0x3, 0x5, 
0xfa, 0xfa, 0xff, 0xf, 0x2, 0xf4, 0xee, 0x1, 0xf3, 0x1, 0xff, 0x7, 0x0, 0xfa, 0xf2, 0xf2, 0xee, 0xee, 0x6, 0xfa, 
0xf9, 0xfb, 0xfe, 0xf2, 0xfd, 0x4, 0xfa, 0xf1, 0xfc, 0xf6, 0xb, 0xff, 0xfe, 0xf3, 0xf9, 0xf0, 0x8, 0xfe, 0xfb, 0xfe, 
0xf7, 0x1, 0x2, 0xf0, 0xff, 0xfd, 0x3, 0xef, 0x0, 0x6, 0xf9, 0xf0, 0xfe, 0xd8, 0x16, 0x13, 0xf2, 0xfe, 0x35, 0xff, 
0xf2, 0xe, 0xfd, 0x1b, 0xf8, 0x15, 0x0, 0x9, 0xff, 0xf2, 0xf8, 0xd, 0xf1, 0x15, 0x18, 0x8, 0xf9, 0x2, 0xed, 0x4, 
0x2, 0x5, 0xf6, 0xf7, 0xa, 0xeb, 0xf5, 0xfb, 0x0, 0x16, 0x22, 0xf2, 0xfb, 0x1, 0x6, 0x4, 0x5, 0xf7, 0xf1, 0x3, 
0xf7, 0xe4, 0xff, 0xf2, 0xfe, 0x17, 0xf, 0xf4, 0xf4, 0xff, 0x0, 0xe, 0x9, 0x1, 0xfb, 0x11, 0xf2, 0xee, 0x2, 0xee, 
0xfb, 0x15, 0xc, 0x1, 0xf1, 0x11, 0x4, 0x10, 0xfa, 0x2, 0xf4, 0xe5, 0xff, 0xe9, 0xec, 0xf8, 0x1, 0x0, 0x1b, 0xf2, 
0xf4, 0x0, 0xf5, 0x4, 0xfb, 0x1, 0x1, 0xfb, 0x8, 0x3, 0xe9, 0x1, 0xf1, 0x1b, 0x1, 0x1e, 0xf2, 0x1b, 0xc, 0x11, 
0xfa, 0x14, 0x9, 0xef, 0xfb, 0xee, 0xfc, 0xc, 0xa, 0xe8, 0x2d, 0x0, 0xf5, 0x10, 0x13, 0xd, 0x2, 0x10, 0xfc, 0x5, 
0x2, 0xf4, 0x7, 0xb, 0xfd, 0xdc, 0x1b, 0xee, 0xe3, 0x1e, 0xf6, 0x4, 0x1a, 0x29, 0xfa, 0x11, 0xfd, 0x0, 0xb, 0x13, 
0xf7, 0xe6, 0x15, 0xec, 0xf3, 0xf8, 0xef, 0xf4, 0x0, 0x22, 0xfd, 0xfe, 0xef, 0xf6, 0xee, 0x12, 0xf9, 0x13, 0xe, 0xfd, 
0x0, 0x10, 0xdb, 0x6, 0x3, 0x18, 0xef, 0x8, 0xfd, 0xfa, 0xeb, 0x7, 0xea, 0xfc, 0x8, 0xea, 0xec, 0xb, 0xdc, 0xfa, 
0xf0, 0x7, 0xeb, 0xfa, 0xf1, 0xf1, 0xf0, 0xa, 0xf9, 0xef, 0x1, 0xf0, 0x0, 0x9, 0xef, 0xf8, 0xf6, 0xff, 0xe9, 0x7, 
0x4, 0xf8, 0xf9, 0xf8, 0xff, 0xfa, 0x6, 0xf7, 0x2, 0x15, 0x2, 0xfb, 0x12, 0x1a, 0x7, 0xff, 0xfa, 0xee, 0xc, 0x17, 
0xfe, 0x5, 0x21, 0x1, 0xa, 0xf3, 0xb, 0x14, 0xf8, 0xea, 0x12, 0x3, 0x0, 0x3, 0x9, 0x16, 0xe9, 0xe8, 0x4, 0x6, 
0xf2, 0xc, 0xec, 0xf5, 0x1a, 0x1, 0xed, 0xfd, 0x3, 0xff, 0x7, 0x22, 0xf9, 0xf9, 0x11, 0xfc, 0xf7, 0x4, 0xfb, 0xf2, 
0x8, 0xfa, 0xfc, 0xe8, 0xf2, 0xb, 0x5, 0xf4, 0xf6, 0xee, 0xd, 0xfc, 0xe4, 0xf7, 0xda, 0xec, 0xfa, 0xff, 0xf5, 0xf2, 
0xed, 0x3, 0xfb, 0x6, 0xf1, 0xfe, 0x16, 0xf2, 0x5, 0xf8, 0xfa, 0x3, 0xfb, 0x3, 0xf9, 0x1, 0xfb, 0x1, 0xee, 0xfe, 
0x5, 0x2, 0xfe, 0xfe, 0xda, 0xf9, 0xf5, 0x1, 0xd, 0x7, 0x1, 0xfd, 0xf8, 0x4, 0xa, 0xb, 0xf3, 0xa, 0xf, 0xf6, 
0x4, 0x1b, 0xfb, 0xf3, 0x13, 0x10, 0xf4, 0x3, 0x11, 0xf2, 0xc, 0x2, 0xa, 0x2, 0x15, 0x6, 0x8, 0xd, 0x9, 0x5, 
0xe, 0xe6, 0xd, 0x8, 0xf6, 0xf7, 0xfe, 0x9, 0xe0, 0x5, 0x9, 0x3, 0x6, 0x3, 0xe, 0xe8, 0x1a, 0xeb, 0xfe, 0xb, 
0xf6, 0xea, 0xf6, 0x9, 0xf9, 0xfc, 0x5, 0xfe, 0x1a, 0x9, 0xfe, 0x8, 0xf8, 0xf9, 0xea, 0x14, 0xfa, 0x4, 0x7, 0xfc, 
0xf8, 0xeb, 0xeb, 0xf3, 0xfa, 0xfa, 0xee, 0x3, 0xb, 0xff, 0xed, 0xfb, 0x6, 0x11, 0x3, 0x8, 0xff, 0xef, 0xa, 0xf7, 
0xfd, 0xe4, 0xf7, 0xf3, 0x11, 0x8, 0xfc, 0xfa, 0xb, 0xf8, 0xfd, 0xc, 0xfe, 0xf, 0xa, 0xf0, 0xef, 0x4, 0xe7, 0xe, 
0x7, 0xa, 0x3, 0xf9, 0x0, 0xe3, 0xf2, 0x5, 0xf2, 0xfc, 0x5, 0xe5, 0xfb, 0x11, 0xfa, 0x5, 0x2, 0xec, 0x6, 0xfa, 
0x16, 0xc, 0xf1, 0xe4, 0x5, 0xec, 0xff, 0xfd, 0x2f, 0xc, 0x1, 0x28, 0xe6, 0xf9, 0xec, 0xd, 0x3, 0x1b, 0x8, 0xee, 
0xfa, 0xf8, 0x3, 0x2, 0x2a, 0xfb, 0xf5, 0xe2, 0x1d, 0x4, 0xf2, 0xf1, 0x6, 0x18, 0x8, 0x6, 0x3, 0xed, 0x0, 0xf5, 
0x24, 0xe4, 0xfa, 0xee, 0xd, 0xe4, 0x2, 0x2, 0xf9, 0x7, 0x5, 0xf8, 0xee, 0xef, 0xf7, 0x4, 0x26, 0xff, 0x5, 0xfe, 
0xfd, 0xeb, 0xeb, 0xf9, 0xef, 0xa, 0x9, 0x10, 0xf6, 0xf6, 0xf8, 0xe2, 0x1c, 0x18, 0xf3, 0x1, 0x18, 0xfd, 0xfe, 0xf4, 
0xf0, 0x5, 0xe9, 0x9, 0xf3, 0xe7, 0x1, 0xef, 0xfb, 0xfc, 0x5, 0xf0, 0xb, 0x0, 0xf8, 0xd9, 0xe2, 0xfc, 0xdf, 0xf9, 
0xe1, 0xff, 0x11, 0xd8, 0x1, 0xda, 0xfb, 0x0, 0x9, 0xf0, 0xfb, 0xf1, 0xf0, 0x1, 0xf5, 0xb, 0xf7, 0x3, 0x3, 0xfa, 
0x2, 0x6, 0x6, 0xf8, 0xb, 0xf4, 0xef, 0x9, 0xc, 0xf3, 0x1, 0xf0, 0xf8, 0x9, 0xf7, 0x2, 0x4, 0x9, 0xf2, 0x4, 
0xa, 0xfd, 0x6, 0x5, 0x6, 0xf1, 0xfb, 0xfb, 0x1, 0xc, 0xfe, 0x7, 0xa, 0x3, 0xf8, 0x3, 0xff, 0xff, 0x8, 0xf1, 
0xfb, 0xfd, 0x0, 0x2, 0xf4, 0xf6, 0x9, 0xff, 0xfa, 0xf5, 0xf9, 0xf8, 0xf3, 0xfd, 0xfd, 0xf9, 0xb, 0x0, 0xf5, 0xa, 
0x7, 0x5, 0xe, 0xf5, 0xf3, 0xfa, 0xf3, 0xef, 0xf6, 0x9, 0x4, 0xf3, 0xf7, 0xf4, 0xf9, 0xb, 0xf0, 0x2, 0x8, 0xf6, 
0x5, 0x6, 0x6, 0x7, 0x3, 0xfd, 0x0, 0xfb, 0x3, 0xf9, 0xf0, 0x3, 0x9, 0x8, 0x9, 0xf9, 0xf1, 0xfa, 0xef, 0x2, 
0xfd, 0x4, 0xf5, 0xf2, 0x1, 0xfc, 0xfe, 0x3, 0x8, 0xfe, 0xf9, 0xf5, 0xfb, 0x4, 0xf2, 0x2, 0x6, 0xef, 0xfb, 0xf9, 
0xf5, 0xfd, 0xef, 0x2, 0xfe, 0xb, 0xf5, 0xf9, 0xf4, 0xf4, 0xf8, 0xf2, 0x7, 0xf4, 0xf5, 0xfe, 0xb, 0xf4, 0xff, 0xa, 
0x8, 0x8, 0xb, 0x3, 0xb, 0x4, 0xf0, 0xf2, 0x0, 0x2, 0x0, 0x4, 0xb, 0xf5, 0xff, 0x1, 0xb, 0x6, 0x3, 0x4, 
0xf4, 0xf2, 0xd, 0xf8, 0xf4, 0x6, 0xf2, 0x3, 0xff, 0x9, 0xfa, 0xf9, 0xb, 0xf2, 0x8, 0xb, 0xfc, 0x7, 0xf0, 0x4, 
0x6, 0xf8, 0x8, 0x3, 0xf0, 0xff, 0xf3, 0xf9, 0xf2, 0x9, 0x7, 0x1, 0x9, 0xef, 0xfa, 0x0, 0xb, 0x8, 0xf0, 0xb, 
0xf8, 0x8, 0xfc, 0x3, 0xf4, 0xa, 0xf0, 0x0, 0xf0, 0xb, 0x0, 0xef, 0xef, 0xfe, 0xf9, 0xf6, 0xf8, 0x0, 0xfc, 0x7, 
0xa, 0xfd, 0xf8, 0xf1, 0xf3, 0x0, 0x0, 0x6, 0x9, 0xfb, 0xf2, 0x9, 0x6, 0xff, 0x0, 0xb, 0xf2, 0xfb, 0xf1, 0xfe, 
0xfe, 0xf2, 0xfc, 0xf6, 0xf1, 0xf8, 0xef, 0x6, 0xf0, 0x8, 0xf6, 0xf2, 0xfa, 0xa, 0x4, 0xfd, 0x5, 0xf9, 0xf3, 0x8, 
0xf7, 0x8, 0xff, 0xf1, 0xc, 0x6, 0xf0, 0xf7, 0xf0, 0xef, 0xf8, 0x2, 0x2, 0x3, 0xa, 0xf1, 0xfd, 0xfc, 0xc, 0x0, 
0x8, 0xf6, 0xfc, 0xf0, 0xf0, 0x6, 0xb, 0x9, 0xf2, 0xfc, 0xfd, 0xfa, 0xff, 0xc, 0xfc, 0xc, 0xfe, 0xf5, 0xb, 0xa, 
0x7, 0x8, 0xf6, 0xf6, 0xfd, 0xff, 0xfc, 0xa, 0x3, 0xff, 0x0, 0xf4, 0x3, 0x3, 0xfc, 0xfa, 0xf2, 0xf7, 0x8, 0xff, 
0x4, 0xf5, 0xf7, 0xfb, 0xc, 0xf1, 0xf3, 0x2, 0xf5, 0xfa, 0x4, 0xf7, 0xff, 0x5, 0xf4, 0xf1, 0xf7, 0x9, 0xfc, 0xf9, 
0x0, 0xfe, 0x0, 0x1, 0xf0, 0xf7, 0xb, 0x4, 0xf9, 0xff, 0x4, 0xfb, 0xf6, 0x0, 0xf2, 0xf7, 0x5, 0xf2, 0x4, 0xef, 
0x7, 0xfd, 0xb, 0xf4, 0x3, 0xfe, 0xa, 0xf2, 0xf1, 0x5, 0xfc, 0x5, 0xfb, 0x1, 0x3, 0xb, 0xf2, 0xf3, 0x7, 0xc, 
0xf1, 0xf2, 0x5, 0x5, 0xef, 0x3, 0x5, 0xf5, 0x8, 0xff, 0x6, 0xf1, 0xf9, 0x6, 0xf5, 0x4, 0xf3, 0xfe, 0xc, 0xff, 
0x6, 0x1, 0x5, 0xff, 0xf8, 0xf5, 0x8, 0xf3, 0xf5, 0xf1, 0x8, 0x2, 0xf0, 0xf1, 0xf3, 0xb, 0xfa, 0xfc, 0x3, 0xf3, 
0xf4, 0xf6, 0x9, 0xf0, 0xf3, 0x9, 0xef, 0xfa, 0xfb, 0xf6, 0x9, 0xf4, 0xf5, 0x3, 0xf0, 0xf2, 0xf0, 0xf7, 0x8, 0xf8, 
0xf0, 0xf7, 0xfc, 0xfc, 0xfd, 0xfe, 0xf9, 0xa, 0x5, 0x4, 0xb, 0xff, 0xf1, 0xf2, 0xf9, 0xf7, 0x7, 0xf0, 0x1, 0xc, 
0xf2, 0x3, 0xef, 0x9, 0xf0, 0xf9, 0xf9, 0x9, 0x3, 0x7, 0x5, 0xc, 0xf5, 0xff, 0xf7, 0xff, 0xf4, 0x1, 0xfb, 0xfa, 
0xfd, 0xa, 0x7, 0xf4, 0x6, 0xf0, 0xfc, 0x4, 0xf0, 0x8, 0xa, 0xef, 0xf6, 0xfb, 0x1, 0xf6, 0xa, 0xef, 0xff, 0x5, 
0x7, 0xfe, 0xf0, 0xf0, 0x0, 0x8, 0xf1, 0xc, 0x1, 0xf3, 0x7, 0xfb, 0xfd, 0x9, 0x7, 0x3, 0xf3, 0xfa, 0xff, 0xf4, 
0xfd, 0x0, 0x0, 0xf6, 0x3, 0x9, 0xb, 0x4, 0xb, 0x7, 0xa, 0x5, 0xfb, 0xf9, 0x2, 0xb, 0x5, 0xfb, 0xfb, 0xf6, 
0x0, 0xfe, 0xf4, 0xef, 0x0, 0x2, 0xf9, 0xf7, 0xf1, 0xf4, 0x3, 0xf5, 0x0, 0xf7, 0x4, 0x5, 0x8, 0xf9, 0xe6, 0xfa, 
0xe, 0xe8, 0xfe, 0xe6, 0xf5, 0xf3, 0x1, 0x1, 0x2, 0x4, 0xff, 0xf1, 0xed, 0x1, 0xf1, 0xf6, 0xf7, 0xea, 0xfb, 0x18, 
0x9, 0x1, 0x10, 0x6, 0x2, 0x4, 0xfa, 0x7, 0x4, 0xfe, 0x12, 0xfd, 0xf5, 0x8, 0xe5, 0x15, 0x11, 0xfe, 0xed, 0xef, 
0xfc, 0x8, 0x2, 0xf1, 0xfb, 0xfe, 0x3, 0x7, 0xf, 0xf1, 0xf4, 0x4, 0x3, 0xf0, 0x9, 0xe9, 0x3, 0x6, 0xf3, 0xf2, 
0xee, 0xe8, 0xfa, 0x3, 0x4, 0xfa, 0xfa, 0xc, 0xf5, 0xff, 0xf5, 0xf7, 0xf9, 0xf2, 0xf2, 0x2, 0xfa, 0xa, 0xf1, 0x14, 
0xf8, 0xb, 0x10, 0xe6, 0xee, 0xff, 0x9, 0xee, 0x6, 0xe6, 0x0, 0x7, 0x6, 0xfb, 0xf5, 0xfd, 0xe, 0xf1, 0x19, 0x6, 
0xb, 0xf2, 0x17, 0xc, 0xfc, 0xbf, 0xfd, 0x6, 0xe1, 0xd, 0xc, 0x0, 0xe4, 0xfa, 0xe, 0x0, 0x12, 0xc, 0xdb, 0xf8, 
0xf5, 0xf5, 0x7, 0x25, 0x8, 0xee, 0xfc, 0x11, 0xfa, 0xd, 0x14, 0xff, 0x19, 0x1f, 0xfd, 0xc, 0xfb, 0x2d, 0xf5, 0x3, 
0xc, 0xe, 0x14, 0xa, 0xf0, 0xee, 0xf9, 0xf8, 0x5, 0x8, 0xfc, 0xe7, 0xf3, 0xb, 0xe7, 0x6, 0xea, 0xf, 0xf4, 0x6, 
0x0, 0xfa, 0xf8, 0xfb, 0xe4, 0x4, 0x13, 0xf7, 0xf1, 0x9, 0xf5, 0xfc, 0xeb, 0xee, 0xf5, 0xf8, 0x5, 0xf5, 0x2, 0xfa, 
0xfd, 0x9, 0xf1, 0xff, 0xec, 0xf9, 0x7, 0xee, 0xf6, 0xf9, 0xf4, 0x10, 0x3, 0xe9, 0xfe, 0xf5, 0xf7, 0xef, 0x3, 0xf4, 
0x8, 0xef, 0xff, 0xf9, 0xe2, 0xf9, 0xfd, 0x4, 0x3, 0xf2, 0x27, 0xf0, 0xa, 0xf4, 0xa, 0xff, 0xfc, 0xde, 0x1a, 0x28, 
0x11, 0x6, 0x11, 0xee, 0xe4, 0x17, 0x21, 0xfa, 0x17, 0x1f, 0xb, 0xfc, 0xfd, 0xee, 0x1e, 0x21, 0xf7, 0x13, 0x9, 0x6, 
0xfa, 0xf9, 0x5, 0xf2, 0xf9, 0x13, 0xeb, 0xe6, 0xdb, 0x7, 0x1f, 0x8, 0x8, 0x1c, 0xf4, 0x10, 0xfa, 0x6, 0xf3, 0xa, 
0xe9, 0x1, 0xf2, 0x1, 0xff, 0x16, 0xed, 0xe8, 0xe8, 0xb, 0xff, 0x11, 0xfa, 0xfe, 0xd2, 0xf2, 0xf5, 0xfc, 0xf3, 0xf6, 
0x3, 0xfa, 0xef, 0xee, 0xed, 0x3, 0xed, 0x4, 0x7, 0xf9, 0xf3, 0xe7, 0xfb, 0xd, 0xf9, 0xb, 0x4, 0xe9, 0x15, 0xa, 
0x9, 0xe, 0xf7, 0x17, 0xfb, 0xfe, 0x9, 0xed, 0xe, 0xf9, 0xb, 0x13, 0x4, 0xfc, 0x10, 0xf6, 0xf1, 0xf6, 0xf5, 0xb, 
0xff, 0xfe, 0x15, 0x4, 0x6, 0xd, 0xfb, 0x12, 0xc, 0xf7, 0x6, 0x2f, 0x16, 0xef, 0x32, 0xe8, 0xe7, 0x12, 0xf9, 0x5, 
0x10, 0x1b, 0x6, 0xfe, 0xa, 0xd, 0xe, 0x1a, 0xf2, 0xdc, 0x1, 0xfc, 0x8, 0x6, 0xf7, 0xf4, 0xf9, 0x0, 0x14, 0x6, 
0x0, 0x15, 0x28, 0xf, 0x1b, 0xfc, 0x7, 0xec, 0x2, 0xf0, 0xd, 0x4, 0xed, 0x0, 0xf0, 0xfe, 0xed, 0x17, 0xe3, 0xda, 
0xe6, 0x10, 0x2, 0xe6, 0xa, 0xfc, 0xea, 0xd, 0xe2, 0x6, 0xf, 0xe2, 0xe7, 0xf2, 0x8, 0xfb, 0x9, 0x7, 0xfe, 0x7, 
0xe3, 0x0, 0xff, 0x8, 0xa, 0x7, 0x3, 0xf1, 0xfa, 0xf1, 0xe, 0xfc, 0xe7, 0x1e, 0x5, 0x26, 0x1, 0x11, 0xf2, 0xf4, 
0x2, 0x10, 0x5, 0x1c, 0xf1, 0x1, 0x9, 0xee, 0x10, 0xfa, 0x0, 0x17, 0xf2, 0x0, 0xee, 0xfd, 0x1, 0xf6, 0x17, 0x5, 
0x15, 0x2, 0x11, 0xe5, 0x10, 0xe3, 0x9, 0xe7, 0x3, 0xef, 0xd, 0xa, 0xdf, 0xdd, 0x18, 0x12, 0x1e, 0xa, 0xf7, 0xfe, 
0x3, 0xed, 0xb, 0xe8, 0xfe, 0xf6, 0xf5, 0x9, 0xfc, 0xfb, 0xdc, 0x3, 0xf6, 0x14, 0x11, 0xe, 0x1d, 0xee, 0x6, 0xe, 
0xa, 0xec, 0xe0, 0xfe, 0xc6, 0xf4, 0x1, 0xf6, 0x1e, 0x2b, 0x9, 0xed, 0xe5, 0x6, 0x3, 0xe2, 0xe0, 0xdd, 0xf4, 0xf, 
0xe8, 0x13, 0xf, 0xf4, 0xe, 0xfa, 0xef, 0xe1, 0x1, 0x15, 0xf9, 0xfe, 0xf6, 0x4, 0xfa, 0xed, 0xf4, 0x20, 0x19, 0x9, 
0xfa, 0xec, 0xd, 0x3, 0xf8, 0x14, 0xf1, 0x9, 0xf4, 0xfd, 0xf7, 0xf3, 0x3, 0x15, 0x0, 0x15, 0x15, 0xdb, 0xf9, 0xfa, 
0xfb, 0x8, 0xd, 0x2, 0xea, 0xf6, 0x13, 0xf9, 0xf0, 0xfc, 0x6, 0x15, 0x5, 0x28, 0xf1, 0xe0, 0xf7, 0xfa, 0xe3, 0xe, 
0x2, 0xe7, 0xfd, 0x2, 0xde, 0xe8, 0xf6, 0xb, 0x19, 0xe, 0x16, 0xf1, 0x10, 0x7, 0xd9, 0x2, 0xfc, 0x3, 0x9, 0x11, 
0x18, 0xf9, 0xf6, 0x16, 0x8, 0x5, 0xfe, 0xed, 0x10, 0x1, 0xe4, 0xd, 0xfc, 0x2, 0x16, 0x12, 0xf0, 0xfc, 0x19, 0x1d, 
0x6, 0x10, 0x3, 0x7, 0xa, 0x11, 0xf7, 0x17, 0xf, 0xfb, 0x5, 0x5, 0x17, 0x6, 0xff, 0x18, 0xc, 0x8, 0x20, 0xa, 
0xb, 0xf5, 0xfa, 0x16, 0x0, 0x6, 0x6, 0x10, 0xc, 0x0, 0xf3, 0xf, 0x11, 0x2, 0xe, 0xc, 0x3, 0xfd, 0xe2, 0xe5, 
0xfd, 0xf3, 0x12, 0x24, 0xf1, 0x6, 0xfa, 0xb, 0xf4, 0xeb, 0x11, 0xf8, 0xe7, 0xed, 0x7, 0xe6, 0xf3, 0x4, 0x6, 0xfa, 
0x0, 0xf7, 0xee, 0xfd, 0x14, 0x54, 0x4, 0xf2, 0x11, 0x10, 0xdc, 0x7, 0xd, 0xe5, 0xe3, 0x5, 0xed, 0x14, 0xff, 0xfa, 
0x7, 0xff, 0xe4, 0xef, 0xf0, 0x31, 0xfd, 0x3, 0xec, 0xeb, 0xe6, 0x0, 0xf5, 0x6, 0x0, 0xfa, 0x18, 0xd7, 0xfe, 0xa, 
0xf8, 0xb, 0x13, 0xfb, 0xed, 0x27, 0x8, 0x9, 0xf, 0xfe, 0xff, 0x10, 0x14, 0x9, 0x23, 0x14, 0x18, 0xf5, 0xe2, 0x18, 
0x4, 0x18, 0x10, 0x1c, 0x11, 0xea, 0xf3, 0xf7, 0x23, 0x13, 0xd, 0xf3, 0x27, 0xfa, 0xf7, 0xfd, 0xf6, 0xf9, 0x2, 0x6, 
0xf0, 0x0, 0xfe, 0xea, 0x10, 0xfc, 0xea, 0x12, 0xfd, 0xf6, 0x6, 0xf3, 0xed, 0xf4, 0xed, 0xf7, 0xf5, 0x17, 0x9, 0xe7, 
0xf9, 0x3, 0x19, 0xd, 0x12, 0xfb, 0x0, 0x5, 0xf0, 0x17, 0xea, 0x1, 0xf0, 0x1, 0xf8, 0x1, 0x6, 0x2e, 0xf8, 0xed, 
0xd, 0xfd, 0xea, 0xf3, 0xed, 0xf8, 0xe0, 0xfc, 0x5, 0x10, 0xe0, 0x3, 0xf, 0xb, 0x2, 0x2, 0xfa, 0x2d, 0x1f, 0xea, 
0xe9, 0xc, 0xf0, 0xc, 0xfa, 0x2, 0x2e, 0x8, 0x13, 0xe4, 0xe5, 0xf2, 0x0, 0xf2, 0xe, 0xe1, 0x8, 0x11, 0x1b, 0x4, 
0xfe, 0x2, 0x10, 0xa, 0xc, 0xf4, 0xb, 0x3, 0x17, 0x12, 0xf5, 0x1, 0x1f, 0x8, 0xa, 0x2, 0xea, 0x4, 0xb, 0x5, 
0x1a, 0x12, 0xf6, 0x9, 0xfc, 0x6, 0xfa, 0xfd, 0x8, 0x4, 0x0, 0xa, 0x0, 0xeb, 0x15, 0xfc, 0xd, 0x15, 0xe0, 0xfa, 
0xfb, 0xf5, 0x28, 0xf7, 0xe9, 0xe5, 0xf3, 0x7, 0xec, 0xfd, 0xf0, 0x2, 0xf3, 0xfd, 0xa, 0x1d, 0x13, 0x1, 0xf9, 0x3, 
0xfc, 0xf9, 0xf6, 0x12, 0xfa, 0xff, 0x8, 0xf9, 0xf3, 0x1f, 0x0, 0x2, 0x11, 0x17, 0xfa, 0x21, 0x6, 0xe7, 0xea, 0xf6, 
0xf8, 0x2b, 0xe3, 0x17, 0x3, 0xf, 0xd, 0xf3, 0x1, 0x42, 0x1b, 0xef, 0xfd, 0xf7, 0xf7, 0x3, 0xfe, 0x6, 0xfc, 0xfc, 
0xf7, 0xfb, 0xf1, 0x4, 0x3, 0x19, 0xfc, 0xef, 0xee, 0xfe, 0xe, 0xfb, 0x5, 0xd, 0x1c, 0x2, 0x7, 0xfe, 0x5, 0x10, 
0x18, 0xfd, 0x4, 0x19, 0xc, 0x9, 0x8, 0xfb, 0x8, 0x18, 0x2, 0xf7, 0x0, 0x11, 0xec, 0xf2, 0xe, 0x9, 0xfb, 0xff, 
0x14, 0xf8, 0xb, 0x8, 0xe, 0xef, 0xeb, 0x3, 0x5, 0x21, 0xf7, 0x19, 0x1b, 0xf5, 0x0, 0xef, 0xf7, 0xea, 0x13, 0xf5, 
0x10, 0xc, 0xe, 0xf0, 0xc, 0x15, 0x1a, 0xc, 0xc, 0xec, 0x8, 0xfa, 0xf4, 0xde, 0xf6, 0x5, 0x4, 0xfd, 0xf8, 0xf4, 
0xea, 0x1d, 0x1b, 0x11, 0x26, 0x2a, 0xff, 0xfc, 0xed, 0xb, 0xec, 0x1a, 0xfd, 0x1f, 0xf7, 0xf9, 0xf5, 0x16, 0xa, 0x10, 
0x15, 0x37, 0x4, 0xe9, 0xea, 0xfb, 0xe9, 0x6, 0xe5, 0x1, 0xf4, 0xfb, 0xf, 0xe4, 0xf0, 0xf3, 0x17, 0x16, 0xd, 0xfb, 
0xf1, 0x4, 0x14, 0xe, 0xef, 0xd, 0xc, 0x4, 0x1f, 0x3, 0xc, 0xc, 0x1b, 0x0, 0xfd, 0xe, 0x8, 0xfd, 0x12, 0x7, 
0x0, 0x2, 0xef, 0xfe, 0x1a, 0xfc, 0xd4, 0x11, 0xf5, 0x11, 0xf9, 0xf, 0x5, 0xfe, 0x7, 0xff, 0xf7, 0xf4, 0x1, 0x3, 
0xf5, 0x1b, 0x2, 0x19, 0x12, 0xff, 0x9, 0xf3, 0x9, 0x5, 0xe, 0x16, 0xfe, 0xf7, 0xee, 0x8, 0xe, 0x7, 0xf, 0xd, 
0x13, 0x6, 0x8, 0x3, 0xfc, 0x10, 0x0, 0x4, 0xe9, 0x1c, 0xf6, 0xf8, 0xf6, 0xf3, 0xc, 0x4, 0xf4, 0xfe, 0x4, 0xf4, 
0xb, 0xfc, 0x4, 0xb, 0xfc, 0xf6, 0xfe, 0x8, 0x8, 0xb, 0xfb, 0x4, 0x7, 0x3, 0xf6, 0xa, 0xff, 0xf8, 0xed, 0x8, 
0x5, 0xee, 0x8, 0xe, 0xfe, 0xf2, 0x5, 0xfa, 0xf1, 0xee, 0xf2, 0xc, 0x4, 0xfa, 0xfb, 0x6, 0xfb, 0xfe, 0xb, 0xfe, 
0x9, 0xf0, 0xf4, 0xf9, 0xf2, 0xb, 0xee, 0xfa, 0x7, 0xfb, 0x3, 0x1, 0x4, 0xf4, 0xff, 0xfa, 0x2, 0xfc, 0x3, 0xfa, 
0xff, 0xf2, 0x3, 0xf2, 0xff, 0xf1, 0xf4, 0xf8, 0xfa, 0x0, 0x0, 0x3, 0xff, 0xf8, 0xfe, 0xf2, 0xfb, 0xb, 0xef, 0xfb, 
0xfe, 0xfd, 0xfa, 0x4, 0x8, 0xf5, 0xef, 0xf5, 0x8, 0xf3, 0x7, 0xfc, 0xf3, 0xfb, 0xec, 0xf5, 0xf7, 0xf5, 0xa, 0x7, 
0x3, 0xfe, 0x8, 0x0, 0xfb, 0xf7, 0xfc, 0xfc, 0xf3, 0xf4, 0xf8, 0xf9, 0xf1, 0x5, 0xec, 0x4, 0xfa, 0x9, 0xfd, 0x9, 
0xf1, 0x9, 0xfc, 0xfb, 0xfd, 0x1, 0xb, 0xb, 0x9, 0xfd, 0xf1, 0xfb, 0xa, 0x6, 0xf5, 0xfd, 0xf3, 0x7, 0x3, 0xf3, 
0xf7, 0xf9, 0x4, 0xf9, 0xff, 0x9, 0x1, 0xf9, 0xfa, 0xfb, 0x9, 0xb, 0x6, 0xf8, 0xfc, 0x4, 0xf4, 0xfd, 0x6, 0x6, 
0xf4, 0xa, 0x3, 0xc, 0x5, 0xf6, 0x7, 0x8, 0xf1, 0xf4, 0x4, 0xee, 0xb, 0xfb, 0xf6, 0xf9, 0x9, 0xf7, 0xee, 0xa, 
0x6, 0xfb, 0xfe, 0xfa, 0xf9, 0x3, 0xd, 0xf7, 0x0, 0xf8, 0xf6, 0xd, 0xf4, 0xf8, 0xf3, 0xfd, 0xfe, 0x8, 0x0, 0x2, 
0xfe, 0xb, 0x6, 0x2, 0x3, 0x3, 0xfd, 0xf6, 0xf7, 0xfa, 0xf5, 0xb, 0xf3, 0xfa, 0xf3, 0xf6, 0xf7, 0xfb, 0x4, 0x8, 
0xc, 0xfb, 0xf6, 0x7, 0x6, 0xf1, 0x7, 0xf3, 0xf3, 0x2, 0xa, 0xf7, 0x3, 0x1, 0xf7, 0x6, 0xf3, 0x3, 0xff, 0x4, 
0xf4, 0xfd, 0x0, 0xf5, 0x0, 0xf8, 0x0, 0xf6, 0xf5, 0xfd, 0xf8, 0x2, 0xf7, 0x4, 0xed, 0xf0, 0xfe, 0xf2, 0xfd, 0x5, 
0xf9, 0xf1, 0x5, 0xf6, 0x9, 0x2, 0xf5, 0xef, 0xf1, 0xf3, 0xfd, 0x5, 0xb, 0xf4, 0x1, 0xf4, 0xf1, 0xf0, 0xfe, 0xf8, 
0xa, 0xf6, 0xfa, 0x9, 0xf2, 0xa, 0xff, 0x6, 0xf3, 0xfb, 0xf0, 0xfc, 0xfe, 0xf6, 0x6, 0xff, 0x9, 0x0, 0xf5, 0xf7, 
0xc, 0xfb, 0xff, 0xf6, 0xfd, 0x8, 0x4, 0x3, 0xf0, 0xf4, 0x2, 0x0, 0xf3, 0x5, 0x8, 0xf1, 0x0, 0x7, 0xf6, 0xf5, 
0xf1, 0x5, 0xfd, 0xf2, 0x4, 0xfe, 0xef, 0x8, 0x7, 0xf3, 0x0, 0x9, 0xff, 0xf9, 0x0, 0xf0, 0x0, 0xee, 0xef, 0x4, 
0xf3, 0x8, 0xf4, 0x6, 0xfd, 0xfb, 0xb, 0xef, 0x1, 0xf3, 0xfe, 0xf9, 0xf1, 0xf6, 0x7, 0x2, 0x5, 0x7, 0xf8, 0x6, 
0x8, 0xf1, 0xf4, 0x4, 0xb, 0x8, 0xfd, 0xed, 0x7, 0xf2, 0x2, 0xf0, 0x3, 0x9, 0x4, 0xa, 0xff, 0xc, 0x9, 0xfb, 
0xfb, 0xf3, 0xb, 0xf9, 0x1, 0xf3, 0x2, 0x9, 0x4, 0xf5, 0xf5, 0x1, 0xfc, 0xf8, 0x0, 0x3, 0x0, 0xf3, 0xf0, 0xf2, 
0xf8, 0xc, 0x9, 0xf1, 0xf3, 0x6, 0xf4, 0x6, 0x5, 0xfe, 0xfc, 0x8, 0xf3, 0xf4, 0x6, 0x9, 0xef, 0xc, 0xf4, 0xf4, 
0xf2, 0x0, 0xf8, 0xf9, 0xfd, 0xc, 0xfb, 0xee, 0xf4, 0xfe, 0x1, 0xf9, 0xf8, 0xff, 0xff, 0x3, 0x3, 0xfc, 0x9, 0xb, 
0xf9, 0x3, 0xf5, 0x7, 0xf1, 0xef, 0xf4, 0xf9, 0x3, 0xf4, 0xef, 0xfa, 0xa, 0x3, 0xfb, 0xf9, 0x9, 0xf9, 0x9, 0xf2, 
0xf5, 0xf6, 0x1, 0xf4, 0xfb, 0xff, 0xef, 0xf2, 0xfb, 0xef, 0xf9, 0x7, 0x6, 0xf7, 0xf5, 0xf0, 0xf4, 0xf0, 0xf3, 0xfd, 
0xfd, 0x4, 0xee, 0xf7, 0x5, 0xfe, 0xed, 0x6, 0xf8, 0x0, 0xfa, 0x1, 0xf7, 0xf8, 0xa, 0x8, 0x9, 0xfc, 0xf3, 0xff, 
0xed, 0x9, 0xfc, 0xfa, 0xfe, 0x7, 0xf3, 0xf5, 0xef, 0xfb, 0x7, 0x5, 0xf3, 0xef, 0xef, 0xee, 0x0, 0x2, 0x6, 0x1, 
0xfc, 0xfd, 0x7, 0xfa, 0xf8, 0x5, 0xf2, 0x8, 0xf9, 0xfe, 0x4, 0xf9, 0xf5, 0xf9, 0x1, 0xfa, 0xa, 0x9, 0xfe, 0xfb, 
0x2, 0x2, 0x0, 0x3, 0xf0, 0xfb, 0xf3, 0xf7, 0x5, 0xff, 0x5, 0xf3, 0x7, 0xf4, 0x7, 0xf4, 0xfc, 0xf9, 0x6, 0xf7, 
0xf3, 0xfc, 0x9, 0xf3, 0x2, 0xf9, 0x8, 0xfd, 0xf4, 0xb, 0xfa, 0x6, 0xfa, 0xfc, 0x9, 0x2, 0xf5, 0xfc, 0xf3, 0xf7, 
0xf8, 0xf0, 0xfd, 0x9, 0xfe, 0xfd, 0x8, 0xf7, 0xa, 0xf5, 0x5, 0xf7, 0xc, 0xf8, 0x9, 0xf2, 0x2, 0xf1, 0x5, 0xb, 
0xf7, 0x9, 0x9, 0xfd, 0x6, 0xf0, 0x1, 0xa, 0xfb, 0xf4, 0x5, 0xfd, 0xfa, 0x3, 0x8, 0x0, 0x2, 0xd, 0xb, 0xf0, 
0xf1, 0x5, 0xa, 0xf9, 0xfc, 0xfc, 0xf4, 0xf0, 0xf3, 0xf5, 0xfd, 0x2, 0xfc, 0xfd, 0xf8, 0xb, 0xfd, 0xff, 0xf8, 0xf3, 
0xfc, 0xfa, 0xf8, 0xf6, 0x5, 0xfd, 0x0, 0xf9, 0xff, 0x2, 0x9, 0x5, 0x7, 0x5, 0xf5, 0xd, 0x3, 0x5, 0x8, 0xfa, 
0xf6, 0xfd, 0xff, 0xf7, 0xf0, 0x3, 0xfd, 0xfa, 0xf3, 0xf3, 0xf4, 0xf7, 0xf1, 0xf5, 0xf1, 0x6, 0xc, 0x7, 0xe, 0x9, 
0xc, 0xf2, 0xd, 0x7, 0x8, 0xfa, 0x8, 0xfc, 0x3, 0x2, 0xfd, 0xf8, 0x7, 0xfd, 0x6, 0xf6, 0xd, 0xf6, 0xf5, 0xfe, 
0xfb, 0x3, 0xc, 0x7, 0x1, 0xf7, 0xfc, 0xfe, 0x2, 0xb, 0x2, 0xf9, 0xff, 0xff, 0xe, 0xfc, 0xf1, 0x3, 0xfa, 0x4, 
0xf9, 0xf9, 0xa, 0xf4, 0xf1, 0xc, 0xc, 0x4, 0x8, 0x9, 0xf7, 0x0, 0xf1, 0xf6, 0xf8, 0x1, 0xf2, 0x9, 0xc, 0xb, 
0xfc, 0xd, 0xf7, 0x6, 0xf8, 0xfc, 0xf3, 0xfc, 0xf3, 0x6, 0xf4, 0xfd, 0xf6, 0xf6, 0xe, 0xf6, 0xfe, 0xfe, 0x6, 0x2, 
0xfd, 0xf9, 0xff, 0xf2, 0xfe, 0xfb, 0xf5, 0x2, 0xc, 0xf7, 0xfc, 0x1, 0xfb, 0xa, 0xfa, 0xf3, 0xc, 0x6, 0x0, 0xf7, 
0xc, 0xf2, 0xf8, 0xf3, 0xd, 0xc, 0x6, 0x5, 0x5, 0x1, 0x4, 0xfb, 0xf0, 0xb, 0xf6, 0xf4, 0xf3, 0xf8, 0xd, 0xf4, 
0xf8, 0x7, 0xf8, 0xb, 0xfc, 0xa, 0xf5, 0xc, 0x5, 0xf8, 0x1, 0x0, 0xf3, 0xfd, 0x4, 0xf8, 0x5, 0xb, 0xb, 0x1, 
0x8, 0xf7, 0x1, 0xff, 0xfa, 0x9, 0xf6, 0xf9, 0xfb, 0xfb, 0xfd, 0xc, 0xfb, 0xf3, 0x3, 0xf9, 0x8, 0x9, 0x7, 0xf5, 
0x6, 0xb, 0x0, 0x1, 0xc, 0xb, 0xf3, 0x1, 0xf8, 0x5, 0xd, 0xff, 0xf8, 0xf6, 0xfd, 0x0, 0xff, 0xfd, 0xfa, 0x2, 
0xc, 0x8, 0xf1, 0xff, 0x0, 0x9, 0xf8, 0x6, 0x3, 0x7, 0x7, 0x6, 0x3, 0xfe, 0xf7, 0xa, 0x1, 0xf5, 0xf5, 0xa, 
0x7, 0xfd, 0xb, 0x1, 0x0, 0xf0, 0x6, 0x8, 0xfd, 0xf0, 0xfd, 0xf7, 0x9, 0x5, 0xf7, 0x2, 0x6, 0xf8, 0xfd, 0x7, 
0xf9, 0xff, 0xb, 0xf4, 0xfd, 0xc, 0xf6, 0xfd, 0xfe, 0xf3, 0xf4, 0xf3, 0xfa, 0xf0, 0x3, 0xf9, 0xf8, 0xff, 0xf8, 0xfe, 
0xff, 0xf4, 0xb, 0xfa, 0xf8, 0xf1, 0xf1, 0x3, 0xfc, 0xfc, 0xc, 0xfa, 0xf0, 0xd, 0xf6, 0xc, 0xb, 0xf9, 0xf3, 0x6, 
0xa, 0x6, 0xfb, 0xb, 0x7, 0xf9, 0xf7, 0xf1, 0xf5, 0xfc, 0xef, 0xfd, 0xfb, 0xf1, 0xfe, 0xf8, 0xc, 0x1, 0xf8, 0xfb, 
0xf2, 0xf4, 0xc, 0xff, 0xe, 0xfe, 0xf7, 0xf8, 0x7, 0xa, 0xef, 0xf6, 0xf5, 0xfc, 0x2, 0x3, 0x1, 0xf2, 0xf7, 0xf3, 
0x0, 0x6, 0x3, 0xf3, 0x0, 0x7, 0xfb, 0xf3, 0xa, 0xc, 0xf9, 0x6, 0xef, 0xf7, 0xef, 0x2, 0xf9, 0x7, 0x0, 0xf6, 
0x6, 0x8, 0xf9, 0xfa, 0xb, 0x9, 0x3, 0xf4, 0xf6, 0x12, 0xc, 0xef, 0xfe, 0xfe, 0xf8, 0x5, 0xc, 0xfd, 0xf0, 0xff, 
0xf1, 0x0, 0x8, 0xfe, 0xff, 0x1, 0x2, 0xfa, 0xf0, 0x5, 0x1, 0xf2, 0xf6, 0x13, 0xfa, 0xfa, 0xf9, 0x9, 0xfe, 0x1, 
0x0, 0xff, 0xf4, 0x7, 0x7, 0xb, 0xff, 0xf7, 0xf8, 0xfb, 0xfc, 0xf2, 0xf4, 0xf2, 0xff, 0xf9, 0xff, 0x7, 0xf6, 0xf2, 
0xef, 0x0, 0xf9, 0xfa, 0xf5, 0xf0, 0xf3, 0xfd, 0x5, 0x2, 0x1, 0xa, 0xf1, 0x7, 0xf8, 0xf6, 0xf3, 0xd, 0x2, 0xff, 
0x0, 0xb, 0xfa, 0xb, 0x1, 0xfd, 0x5, 0x3, 0xfc, 0x8, 0xf2, 0xfb, 0xc, 0xb, 0xf9, 0xfe, 0x1, 0xfc, 0xf3, 0xfa, 
0xfc, 0xa, 0xf6, 0x7, 0xb, 0xf5, 0xfa, 0xf0, 0xc, 0xfa, 0x8, 0x7, 0xf0, 0xfd, 0x9, 0x12, 0xf, 0x5, 0x25, 0x9, 
0x5, 0xe, 0x0, 0xb, 0xd, 0xff, 0xf5, 0x2, 0x0, 0xd, 0xec, 0xf7, 0xed, 0x0, 0x1, 0x2, 0x0, 0xfb, 0x8, 0xd0, 
0xee, 0x1d, 0xf3, 0xf8, 0xa, 0x7, 0xf1, 0x1, 0xfd, 0x18, 0xe, 0xfa, 0x12, 0xe, 0xfb, 0xfa, 0x13, 0x10, 0xf4, 0xfb, 
0xef, 0xea, 0xe, 0x1, 0xa, 0x6, 0x8, 0x5, 0xff, 0x12, 0x7, 0xf7, 0x1, 0x14, 0xf0, 0x2, 0xe8, 0xef, 0x5, 0xff, 
0x1, 0x2, 0xe, 0x8, 0xef, 0xc, 0xfe, 0xda, 0x10, 0xd, 0x11, 0x4, 0xc, 0xf4, 0xef, 0xf6, 0xfc, 0xfc, 0x27, 0xec, 
0xff, 0x13, 0xfc, 0x19, 0xfc, 0xfe, 0xef, 0x9, 0x7, 0x1, 0xeb, 0xe6, 0x9, 0x24, 0x1, 0xf, 0xa, 0xa, 0xfe, 0x13, 
0xf6, 0x9, 0xfa, 0xf4, 0xe5, 0xfe, 0x15, 0xff, 0x14, 0xe7, 0x22, 0xf9, 0xfc, 0x10, 0x2, 0x16, 0xe8, 0x6, 0xf2, 0xfb, 
0xf6, 0xfa, 0xeb, 0xfa, 0xf6, 0xf0, 0x12, 0xf2, 0xf3, 0xf, 0x0, 0xe7, 0xb, 0xf9, 0x8, 0x9, 0xf4, 0xf5, 0x5, 0xfa, 
0xf, 0xf7, 0xf4, 0xf3, 0x10, 0xed, 0xe1, 0xf5, 0xf4, 0x12, 0xf5, 0xfd, 0xfe, 0xf2, 0xef, 0x1, 0xf7, 0xf0, 0xc, 0xfe, 
0xfa, 0x4, 0xe9, 0xf7, 0xfb, 0xf7, 0x6, 0x5, 0xd, 0x8, 0xe5, 0x0, 0xe6, 0x10, 0xf2, 0x3, 0xfb, 0xfe, 0xed, 0xf7, 
0x5, 0xf8, 0xf9, 0xe8, 0xf8, 0xd, 0xde, 0xf6, 0xf2, 0xfe, 0xff, 0xe5, 0xf1, 0x4, 0xea, 0xd, 0xfc, 0x4, 0xed, 0x3, 
0x0, 0x1e, 0xf3, 0xf5, 0xe2, 0x15, 0x7, 0x13, 0x5, 0x1a, 0xf1, 0xf7, 0xf, 0x1e, 0xe0, 0xf3, 0xeb, 0xf4, 0x8, 0x1, 
0x1, 0x2, 0x11, 0x4, 0xa, 0xf1, 0x4, 0x13, 0xf2, 0xe2, 0xe, 0xed, 0xed, 0xf5, 0xf3, 0x9, 0xf6, 0xf8, 0xf8, 0xc, 
0xe, 0xfd, 0xfb, 0xfa, 0x15, 0xfe, 0xe4, 0xf4, 0xef, 0xb, 0xfd, 0xf5, 0xfa, 0xf, 0x7, 0xff, 0x8, 0xfe, 0xf0, 0xfb, 
0xf, 0x2, 0xdc, 0x0, 0xf0, 0xf3, 0xf6, 0x8, 0x8, 0xd, 0x17, 0xf6, 0xff, 0x6, 0xf3, 0xee, 0x20, 0x8, 0xc, 0xf, 
0xe9, 0x11, 0x13, 0x10, 0x3, 0xf4, 0x17, 0xfe, 0x13, 0x27, 0xf7, 0xf, 0x2a, 0x1d, 0xfe, 0xf6, 0x4, 0x15, 0x2, 0xf9, 
0x12, 0x11, 0xb, 0xfd, 0xeb, 0x18, 0xe8, 0x11, 0xf, 0x11, 0xa, 0x3, 0x4, 0x1e, 0x5, 0xfd, 0x9, 0x2e, 0xef, 0x8, 
0xa, 0x11, 0xf4, 0xfe, 0xc, 0x2f, 0xee, 0xe7, 0x7, 0x7, 0xfe, 0x6, 0x7, 0xf5, 0x8, 0xe8, 0xc, 0x5, 0xf9, 0xf, 
0xed, 0xfb, 0xf8, 0x16, 0xf4, 0x3, 0xfa, 0xff, 0xe7, 0x1, 0xfa, 0x19, 0xd, 0x4, 0xfc, 0xe8, 0x1b, 0xfe, 0xfb, 0xb, 
0x8, 0xe3, 0x1, 0xd8, 0xf9, 0x14, 0xfb, 0x4, 0x1c, 0xf5, 0xe7, 0xe1, 0xf8, 0x4, 0xf2, 0xf2, 0xec, 0xe8, 0xf7, 0x3, 
0xf, 0xf5, 0x1, 0xf1, 0x15, 0xf, 0xf2, 0xe0, 0x10, 0x18, 0xfe, 0xf, 0xe7, 0x1, 0xc, 0x23, 0xfd, 0x8, 0x14, 0x5, 
0xf9, 0x1d, 0xf2, 0xfa, 0xe, 0xf9, 0x2, 0x0, 0xef, 0x4, 0xa, 0xf0, 0x0, 0xf7, 0xc, 0xef, 0xa, 0xd, 0xd8, 0xb, 
0x5, 0xfe, 0xe8, 0xff, 0xf3, 0x6, 0xed, 0xff, 0xdf, 0x9, 0xc, 0xf0, 0x9, 0x7, 0xe5, 0xc, 0xd, 0x2, 0xe8, 0xec, 
0x17, 0x4, 0xf4, 0x4, 0xfe, 0xdd, 0xf4, 0xfc, 0x13, 0xfd, 0xf3, 0x1e, 0x9, 0xe6, 0x6, 0x26, 0xf2, 0xb, 0x1, 0xe2, 
0xfd, 0xde, 0xf2, 0x20, 0x26, 0xc, 0xb, 0xa, 0x21, 0xf1, 0xf9, 0xf0, 0xb, 0x1, 0x3, 0xe7, 0xeb, 0xea, 0xf9, 0xf3, 
0x23, 0xea, 0x4, 0x0, 0x8, 0xdd, 0x11, 0xf8, 0xe2, 0xe2, 0xef, 0xda, 0xe9, 0xe3, 0x7, 0x1, 0x1c, 0xf5, 0xf1, 0x6, 
0x12, 0xe8, 0xf8, 0x0, 0xfd, 0x23, 0xed, 0xf0, 0xe4, 0xf1, 0xfd, 0xec, 0x11, 0x15, 0xf0, 0x7, 0xff, 0xf3, 0xe3, 0xfa, 
0x1, 0x14, 0xdd, 0x8, 0xfb, 0xd5, 0xd, 0xe3, 0xf2, 0xfd, 0xce, 0xa, 0x2f, 0xf0, 0xe4, 0xf1, 0xe3, 0x3a, 0xb, 0x7, 
0xd0, 0xfe, 0x4, 0xda, 0xeb, 0x2, 0xd5, 0x1, 0x1e, 0x2c, 0xd5, 0xe9, 0xed, 0xf1, 0x4, 0x18, 0xf0, 0xf, 0x7, 0x25, 
0xef, 0xb, 0xa, 0x1, 0x12, 0x15, 0xdd, 0x8, 0xe3, 0xeb, 0xf7, 0xfb, 0xe9, 0x7, 0xf7, 0x6, 0xf8, 0x11, 0xef, 0xf7, 
0xdf, 0xf, 0xf4, 0xf8, 0xeb, 0xd, 0xf7, 0x4, 0x8, 0xd, 0x0, 0x1, 0xf8, 0x1b, 0xef, 0x4, 0x5, 0xfe, 0xea, 0x0, 
0xf8, 0x8, 0x6, 0x5, 0xfc, 0xfe, 0x0, 0xc, 0xf7, 0x11, 0x2, 0x5, 0xf6, 0xfa, 0x8, 0xff, 0xf5, 0x9, 0x5, 0xe5, 
0xd, 0x8, 0xf6, 0x19, 0x0, 0x7, 0x1, 0xfa, 0xfd, 0xa, 0xf2, 0x6, 0xff, 0x9, 0xf5, 0xf6, 0x5, 0xfe, 0xf3, 0xe, 
0x8, 0x5, 0xe3, 0xef, 0xfc, 0xfb, 0x1, 0xea, 0x2, 0x21, 0xc, 0xec, 0x11, 0x17, 0x5, 0x1c, 0xe, 0x11, 0xde, 0xf9, 
0x3, 0x2, 0xf9, 0xf4, 0xeb, 0xee, 0x10, 0x1b, 0x2, 0xdf, 0x23, 0x2, 0xcc, 0x13, 0x15, 0xfd, 0x7, 0x16, 0x27, 0xf9, 
0xb, 0x3, 0xf, 0xfc, 0xf4, 0xf6, 0xf9, 0xed, 0xdc, 0x1c, 0xf8, 0x0, 0x1e, 0x28, 0xf5, 0x4, 0x4, 0xed, 0x8, 0x14, 
0x5, 0xf1, 0xea, 0xfb, 0x13, 0x7, 0xf6, 0x9, 0xf9, 0x22, 0xf2, 0xf7, 0x0, 0x7, 0x5, 0x21, 0xf6, 0xb, 0x14, 0x0, 
0xf3, 0xa, 0xfc, 0xb, 0xf2, 0x16, 0xf8, 0x11, 0x8, 0xf9, 0xef, 0x0, 0xf7, 0xf1, 0xd, 0xf5, 0xf5, 0xc, 0xf7, 0xc, 
0xf9, 0x3, 0xdc, 0xff, 0xf7, 0xf9, 0xf5, 0xed, 0xed, 0x10, 0xf1, 0xf0, 0xe5, 0xfb, 0xf2, 0xfb, 0xda, 0x9, 0xf0, 0x8, 
0x1, 0xfc, 0xea, 0xef, 0xee, 0xf9, 0xe, 0xf9, 0xf7, 0x5, 0xe5, 0xfc, 0x0, 0x17, 0xe7, 0xeb, 0xf6, 0xf6, 0x19, 0x13, 
0x5, 0xf5, 0x4, 0xf2, 0xf2, 0xe3, 0x3, 0xd, 0xf7, 0xe8, 0x25, 0xfd, 0xe1, 0x10, 0x2, 0xf4, 0xf9, 0xde, 0xf6, 0xf, 
0xf3, 0x18, 0xed, 0x3, 0x22, 0x10, 0xe6, 0xf6, 0xf6, 0x7, 0x16, 0x16, 0xb, 0xf9, 0x3, 0x10, 0xf5, 0xfb, 0xf0, 0xf8, 
0xb, 0x9, 0xfb, 0xe2, 0xf6, 0xf4, 0xf6, 0xf9, 0x3, 0x16, 0x6, 0x7, 0xe0, 0xf2, 0xf7, 0xef, 0xf8, 0x16, 0xfe, 0x16, 
0xee, 0x4, 0xe5, 0xe6, 0xfc, 0x8, 0x16, 0xe4, 0xf8, 0xf9, 0xf2, 0xa, 0xf9, 0xfb, 0xed, 0xf5, 0xee, 0x0, 0x3, 0x5, 
0xf8, 0xfe, 0x2, 0xed, 0xea, 0x9, 0xff, 0x9, 0x6, 0x3, 0xa, 0xdb, 0xef, 0x6, 0xf4, 0xe8, 0xeb, 0xf8, 0x6, 0xe5, 
0xf0, 0x13, 0xe3, 0xb, 0x8, 0x18, 0xed, 0xfc, 0x10, 0x0, 0xf2, 0xf4, 0x17, 0xfe, 0x1e, 0xf6, 0x0, 0x13, 0xf8, 0xf8, 
0xee, 0xf0, 0x18, 0x1f, 0xef, 0x11, 0x2, 0x17, 0x4, 0xd2, 0xe9, 0xfb, 0x0, 0x13, 0x5, 0xe3, 0x1a, 0xf8, 0xf9, 0xfe, 
0xe3, 0xf9, 0xf1, 0xb, 0xff, 0xfd, 0xeb, 0x0, 0x1b, 0x12, 0x12, 0xf9, 0xf3, 0xf0, 0xfd, 0x25, 0x5, 0x6, 0xfb, 0x12, 
0xa, 0xf2, 0xde, 0xfe, 0x3, 0x5, 0x0, 0xf8, 0xe, 0x7, 0xf3, 0x11, 0x6, 0x12, 0x2, 0xb, 0xf8, 0xed, 0xe7, 0xef, 
0xfc, 0xf7, 0x3, 0xf9, 0x9, 0xf2, 0xd, 0xe1, 0x5, 0xf8, 0x1, 0x7, 0xec, 0xe8, 0x24, 0xff, 0xf9, 0x12, 0xf3, 0xf6, 
0x19, 0xa, 0xf9, 0xf5, 0xe9, 0xed, 0xde, 0xfa, 0x7, 0x14, 0x5, 0xf2, 0xfd, 0xa, 0xf6, 0x6, 0x0, 0xf6, 0x7, 0xf2, 
0x15, 0x3, 0xff, 0xef, 0x9, 0xf6, 0xda, 0xfa, 0x21, 0xa, 0x1, 0x21, 0x0, 0x11, 0xf6, 0xc, 0x8, 0x1a, 0xfe, 0xd3, 
0xfe, 0xf2, 0xe7, 0x11, 0x1c, 0x1f, 0xfd, 0xe9, 0x14, 0x2c, 0xf0, 0xfd, 0x5, 0xe, 0x0, 0xf9, 0xf1, 0xe4, 0xf6, 0xf9, 
0x26, 0xf5, 0xea, 0xd9, 0x2, 0xfe, 0xa, 0xf2, 0xe0, 0x7, 0xfb, 0xec, 0xf7, 0xf5, 0xf5, 0x14, 0x4, 0xfc, 0x11, 0xe1, 
0x20, 0x9, 0xff, 0xd9, 0xea, 0x7, 0x10, 0xf5, 0xf2, 0xef, 0xf6, 0xef, 0xb, 0x18, 0x4, 0xef, 0x14, 0x14, 0xf0, 0xee, 
0xe9, 0xf4, 0xfd, 0xf3, 0xf5, 0xd8, 0xf0, 0xef, 0xf5, 0xe6, 0xf4, 0xe3, 0xb, 0xf9, 0xf7, 0xca, 0xd7, 0x9, 0xe3, 0xec, 
0xf2, 0xf0, 0x5, 0xd7, 0xfd, 0xe4, 0xec, 0x0, 0xf0, 0xfe, 0xf9, 0xe7, 0x4, 0x49, 0xdf, 0xd0, 0x10, 0x0, 0xe4, 0xf9, 
0x1f, 0xf7, 0xdc, 0x6, 0xbc, 0xf1, 0x15, 0xda, 0x6, 0x33, 0xf8, 0xf2, 0xf7, 0x10, 0xf5, 0xea, 0x2, 0xf5, 0x8, 0x11, 
0x5, 0x10, 0x18, 0xc, 0xfa, 0xf, 0xfa, 0xda, 0xff, 0x9, 0xf8, 0x27, 0xfb, 0x0, 0xee, 0xfe, 0xde, 0xfa, 0x14, 0xf, 
0xfd, 0xfd, 0x0, 0xf7, 0xf2, 0xf3, 0x12, 0x15, 0x10, 0x3, 0x9, 0xd, 0x3, 0x9, 0x9, 0x23, 0x12, 0xa, 0x3, 0x1d, 
0xf7, 0xf4, 0xfe, 0x24, 0xa, 0xa, 0xd, 0x10, 0x15, 0x5, 0xf1, 0x20, 0x1a, 0xf3, 0x8, 0xc, 0xd, 0xfc, 0xf0, 0xff, 
0x16, 0xee, 0x1, 0x11, 0xfe, 0xef, 0xd, 0x1c, 0x1, 0xc, 0xe, 0xfc, 0xe3, 0xe9, 0xd, 0x3, 0xfd, 0xed, 0xf8, 0xd, 
0xe8, 0xe9, 0x8, 0x9, 0x21, 0x7f, 0x4, 0xd2, 0x1a, 0x2a, 0xdd, 0x4, 0x30, 0xe5, 0xe9, 0xf6, 0xf8, 0xf7, 0xe8, 0xf3, 
0xf7, 0x27, 0xf0, 0xf4, 0xf0, 0x41, 0xf8, 0x6, 0x25, 0xdc, 0x5, 0x9, 0xfa, 0xfd, 0x33, 0x3, 0x0, 0xf0, 0xa, 0xfa, 
0xd6, 0xf6, 0x16, 0xf8, 0xe4, 0x3, 0xfd, 0x0, 0xc, 0xfb, 0xfe, 0xf7, 0xdf, 0xec, 0x1d, 0x12, 0xeb, 0xfc, 0xb, 0xc, 
0xe6, 0xa, 0xb, 0xf, 0xfb, 0xd, 0x2, 0x1, 0xff, 0x1e, 0xfa, 0xf8, 0x8, 0xf, 0x4, 0xb, 0xfa, 0xee, 0xf4, 0xd, 
0xf4, 0xfe, 0xf3, 0xfa, 0x10, 0xf5, 0x1, 0xe3, 0xec, 0xf2, 0xf, 0x3, 0xeb, 0xf6, 0xf0, 0x7, 0x3, 0x0, 0xfe, 0xe7, 
0xed, 0x0, 0x5, 0x0, 0xf5, 0x7, 0x10, 0xf9, 0xf1, 0xf6, 0xdf, 0x1b, 0xf8, 0xfb, 0xe2, 0xee, 0xb, 0x4f, 0xf7, 0xae, 
0xf, 0x30, 0xc7, 0x19, 0x0, 0xe6, 0xda, 0xef, 0xfc, 0x3b, 0xd2, 0x1b, 0x0, 0x23, 0xf8, 0xf0, 0xf9, 0x5c, 0xef, 0x0, 
0xf7, 0x2a, 0xde, 0x8, 0xf5, 0x18, 0x11, 0x1b, 0x18, 0xe4, 0xe3, 0x15, 0xf0, 0xf6, 0x14, 0xf6, 0xd5, 0x1a, 0xf9, 0x3, 
0x1d, 0x2, 0x12, 0x11, 0x9, 0xf6, 0x6, 0xef, 0xa, 0xa, 0xe6, 0xfc, 0x24, 0xfe, 0x11, 0x9, 0xe7, 0x9, 0xfe, 0xf7, 
0x3, 0x3, 0x3, 0x6, 0x0, 0x29, 0xe7, 0xf9, 0xd5, 0xfb, 0xf6, 0xfb, 0x4, 0x19, 0x5, 0xfc, 0xfa, 0xf4, 0xff, 0xc, 
0xf8, 0xf6, 0xf5, 0xeb, 0xdf, 0xf4, 0xf8, 0xd, 0xf1, 0x18, 0xf4, 0xf7, 0xf7, 0x3, 0x19, 0xd, 0x14, 0x0, 0xf6, 0xfb, 
0x4, 0x6, 0xfc, 0xec, 0x5, 0x8, 0x0, 0xf1, 0xf7, 0x2e, 0x16, 0xee, 0xd, 0x1b, 0xe5, 0x25, 0xd, 0xf9, 0xfd, 0xef, 
0x4, 0x2d, 0xe4, 0x0, 0x15, 0x16, 0x17, 0xb9, 0x1, 0x3e, 0x9, 0x2, 0xf3, 0xe6, 0xfc, 0xf8, 0xe3, 0x15, 0x7, 0xf4, 
0xb, 0xd, 0xea, 0x15, 0xf6, 0xfa, 0xfd, 0xf2, 0xdf, 0x7, 0xe, 0xfb, 0x10, 0x18, 0x3b, 0xf9, 0x0, 0x15, 0x17, 0xed, 
0xa, 0xf9, 0x5, 0x1d, 0x6, 0xf4, 0x1f, 0x3, 0x4, 0x2e, 0xed, 0xd5, 0x4, 0x8, 0xe5, 0xe0, 0x17, 0xf7, 0xf9, 0x11, 
0xfe, 0xff, 0x12, 0xfd, 0x5, 0x1f, 0xfe, 0x3, 0xd, 0x4, 0xd6, 0x2, 0x13, 0xff, 0xfe, 0xf5, 0xec, 0x1, 0xfe, 0xf7, 
0xf8, 0xe, 0x16, 0xf4, 0xf, 0xf4, 0x24, 0x12, 0x2, 0xfb, 0x3, 0xe7, 0xf8, 0x1d, 0xf9, 0xfa, 0xd, 0x1e, 0xfa, 0x9, 
0xef, 0x11, 0x20, 0x19, 0x17, 0x40, 0xd, 0xfc, 0xf5, 0x15, 0xfb, 0x7, 0xfd, 0x3d, 0xe9, 0xed, 0xe1, 0xe, 0xc, 0x14, 
0xd, 0x58, 0x1c, 0xe2, 0xfc, 0xe9, 0x1, 0xf8, 0xef, 0xf4, 0xf7, 0xf7, 0xde, 0xeb, 0xef, 0xf8, 0xf4, 0x25, 0x18, 0xf2, 
0xfc, 0x6, 0x1b, 0xfb, 0x13, 0x2a, 0xa, 0x8, 0xe, 0xf9, 0xa, 0x6, 0xa, 0x8, 0x16, 0x8, 0xfc, 0x9, 0x1a, 0xb, 
0xef, 0xb, 0xfd, 0x7, 0x0, 0xec, 0xe0, 0x7, 0xf4, 0xfa, 0x2, 0x6, 0x6, 0xd4, 0xf7, 0xfa, 0x3, 0xe2, 0xa, 0x12, 
0xeb, 0xff, 0xfa, 0xf, 0xf1, 0xed, 0xd, 0x2, 0xfa, 0x4, 0x10, 0xfc, 0xfa, 0xff, 0xf5, 0x1d, 0xff, 0xe3, 0xfb, 0x8, 
0x17, 0x6, 0x1a, 0x21, 0x6, 0x37, 0x9, 0xf, 0x9, 0xf8, 0x13, 0xb, 0xf7, 0xe9, 0xf7, 0x9, 0xf5, 0x8, 0x1, 0xf9, 
0x6, 0x4, 0xf8, 0xf5, 0xff, 0xe8, 0xf8, 0x5, 0xf8, 0x10, 0xfb, 0x1, 0xd, 0xef, 0xed, 0xd, 0xf2, 0xc, 0xf3, 0x17, 
0x14, 0x3, 0x5, 0xb, 0xc, 0xf3, 0xf2, 0xf0, 0x4, 0xf3, 0xfb, 0xf8, 0x8, 0x9, 0xfe, 0x2, 0xf5, 0xeb, 0x4, 0xb, 
0x0, 0xf5, 0xf7, 0xef, 0xea, 0x10, 0xf, 0xf1, 0x2, 0xf6, 0xfe, 0x6, 0xf4, 0xf9, 0x3, 0x18, 0x9, 0xe7, 0xfe, 0x0, 
0xa, 0xf5, 0xf8, 0x5, 0xf7, 0xf9, 0xfd, 0x11, 0xff, 0x2, 0xf0, 0xd, 0xff, 0x2, 0xe, 0xe, 0xff, 0xef, 0xc, 0xf6, 
0xfa, 0x6, 0xf7, 0x2, 0xff, 0xfb, 0xf6, 0x19, 0xfa, 0xe5, 0xf9, 0xf8, 0xee, 0xf3, 0x2, 0xfe, 0x3, 0xed, 0xef, 0xe, 
0xee, 0xe4, 0xf6, 0x1, 0xee, 0xf2, 0x4, 0x7, 0xf9, 0xf5, 0xfe, 0x11, 0xc, 0xf3, 0xfa, 0xfa, 0xf6, 0xfc, 0xfe, 0x1, 
0xfd, 0xfe, 0x2, 0x12, 0xf5, 0x8, 0x6, 0xfc, 0xfe, 0x2, 0xf8, 0xec, 0xf4, 0x1, 0xf9, 0x4, 0xfb, 0xf8, 0x6, 0x0, 
0xec, 0xb, 0xf1, 0x10, 0x11, 0xff, 0x0, 0xfc, 0xd, 0xff, 0x4, 0xfc, 0xfb, 0x9, 0x4, 0x3, 0xfa, 0x6, 0xff, 0x3, 
0x2, 0xf6, 0x3, 0xa, 0x10, 0xfb, 0x7, 0xb, 0xee, 0xef, 0xf4, 0x8, 0xec, 0xfc, 0x3, 0xf0, 0xf4, 0xf2, 0xfa, 0xfb, 
0xfd, 0x8, 0xf7, 0x18, 0xf6, 0xfd, 0xe4, 0xfd, 0xf1, 0x1, 0xf8, 0xf8, 0x1, 0xfd, 0xfb, 0x3, 0x5, 0xf6, 0xe8, 0x6, 
0xfa, 0xf2, 0x6, 0x10, 0xf2, 0xfe, 0x2, 0xf0, 0xf5, 0xfb, 0xf8, 0xfe, 0xf7, 0xf0, 0xe8, 0xf9, 0x2, 0xf8, 0xee, 0x5, 
0xf5, 0x11, 0xe3, 0xfd, 0xf3, 0xf2, 0xf1, 0xee, 0x6, 0x11, 0xe, 0xfa, 0xe1, 0xf5, 0x3, 0xf, 0xf7, 0x0, 0xfd, 0x5, 
0x5, 0x2, 0x5, 0xf9, 0x7, 0x2, 0xf, 0x1, 0xf7, 0xfe, 0xe, 0x18, 0xf6, 0x6, 0x7, 0x5, 0xfd, 0x1b, 0x12, 0xf7, 
0x7, 0xc, 0x13, 0xd, 0xfc, 0xfc, 0xfc, 0x12, 0xfc, 0xfa, 0xea, 0x12, 0x5, 0x13, 0x11, 0x6, 0x9, 0xfc, 0x5, 0xfc, 
0x1b, 0xfe, 0xfa, 0xf2, 0xfa, 0x1b, 0xe3, 0x3, 0xfc, 0xe9, 0x10, 0xfd, 0xdf, 0x6, 0xa, 0x14, 0xff, 0xf6, 0xa, 0xf2, 
0xa, 0xb, 0xa, 0xfc, 0x6, 0xf7, 0xfc, 0xfc, 0xa, 0xf, 0xf, 0x1, 0xfb, 0x4, 0x20, 0x12, 0x5, 0xfa, 0x2, 0x3, 
0xf8, 0xd, 0xf4, 0x5, 0x4, 0xef, 0xfc, 0x8, 0xfb, 0x7, 0xec, 0x8, 0x0, 0x9, 0xfa, 0xf6, 0xea, 0x1, 0x3, 0xf0, 
0x4, 0x8, 0x17, 0xb, 0xf8, 0xf6, 0x5, 0xfe, 0x14, 0xf6, 0xf8, 0xf7, 0xf4, 0xea, 0xfc, 0xf6, 0xfd, 0xf7, 0x11, 0x3, 
0xfd, 0x17, 0x0, 0x24, 0x2, 0xe8, 0x8, 0x7, 0xf7, 0x26, 0xa, 0x6, 0xfd, 0xf9, 0xfd, 0xff, 0x14, 0x0, 0x17, 0x14, 
0xc, 0xf9, 0xff, 0x5, 0xef, 0x19, 0x1d, 0xfe, 0x7, 0x5, 0xfb, 0xf, 0xf, 0x1, 0x6, 0xf8, 0x1a, 0x6, 0x4, 0x4, 
0xfd, 0xea, 0xb, 0x8, 0xfb, 0x12, 0x6, 0xfa, 0x17, 0xf1, 0xf2, 0xed, 0x11, 0x14, 0x8, 0xfe, 0xe7, 0xef, 0x17, 0x5, 
0xfc, 0xfd, 0x26, 0x6, 0xa, 0xf6, 0xf1, 0xe6, 0x15, 0xff, 0x1d, 0x8, 0xf1, 0xe9, 0x6, 0xc, 0xf4, 0xf7, 0x15, 0x0, 
0xfa, 0xfc, 0x4, 0x6, 0x2, 0xd, 0xf6, 0x8, 0xe, 0xc, 0xf5, 0xff, 0xff, 0xef, 0xf4, 0x3, 0x3, 0xec, 0xfc, 0xf, 
0x9, 0x3, 0xfc, 0x4, 0x4, 0xf8, 0xf, 0x2, 0x16, 0xfd, 0x4, 0xfe, 0x8, 0xfa, 0x6, 0xf8, 0xf8, 0xea, 0x7, 0x15, 
0xfa, 0x2, 0x8, 0xd, 0xf7, 0xf8, 0xfb, 0x9, 0x11, 0xf8, 0xf1, 0xef, 0x2, 0xf1, 0xf1, 0x6, 0x0, 0xfd, 0x13, 0x11, 
0xf0, 0xee, 0x2, 0x4, 0xfa, 0xee, 0x1e, 0x1, 0x12, 0xf4, 0xf8, 0x10, 0xf9, 0xf9, 0x5, 0xa, 0x1, 0xe2, 0xa, 0xfb, 
0xfb, 0xfe, 0xf9, 0xfb, 0xf3, 0x1, 0x1a, 0xf7, 0x9, 0xe4, 0x7, 0xf8, 0xd8, 0xee, 0x9, 0x5, 0xc, 0xcf, 0xe3, 0xf9, 
0xfc, 0xf8, 0x17, 0x9, 0xf, 0xec, 0x19, 0xf6, 0xe1, 0xe6, 0x18, 0xfc, 0xfe, 0xe8, 0xf8, 0x1, 0xf8, 0x6, 0x8, 0xf3, 
0x6, 0xb, 0x7, 0x3, 0xfc, 0xef, 0xef, 0xf6, 0xfa, 0xf8, 0x2, 0xf9, 0x5, 0xfa, 0x9, 0xf8, 0x6, 0xfa, 0x10, 0xa, 
0x4, 0x4, 0xfa, 0xf0, 0xeb, 0x1, 0x3, 0xf3, 0xff, 0xf2, 0xec, 0xf7, 0xfa, 0x6, 0xd, 0xf6, 0x1, 0xf6, 0x9, 0x5, 
0xf1, 0xb, 0x7, 0xf9, 0x2, 0xf8, 0x2, 0xf9, 0xf3, 0x0, 0xfa, 0x10, 0x5, 0xeb, 0xff, 0x4, 0xe, 0xff, 0xf5, 0xf3, 
0xd, 0xf3, 0xf8, 0xfc, 0x9, 0xfe, 0xf6, 0xc, 0x8, 0xf4, 0xd, 0xfb, 0xeb, 0xf6, 0x3, 0x0, 0xfd, 0xf9, 0xea, 0x0, 
0x5, 0x3, 0x10, 0xef, 0xf8, 0x2, 0xa, 0xf2, 0xfe, 0x7, 0xfe, 0xfe, 0xf9, 0xf8, 0xf3, 0xf7, 0xf3, 0x5, 0xfa, 0xfd, 
0x8, 0xee, 0xd, 0x9, 0xf4, 0x1, 0x9, 0xf1, 0xf7, 0xf3, 0x4, 0x4, 0xf6, 0xa, 0x8, 0xf8, 0x8, 0xf6, 0x1, 0x6, 
0xf8, 0xf1, 0xf6, 0xf5, 0xf7, 0xf5, 0x6, 0x2, 0x1, 0xf7, 0x1, 0xfa, 0xf6, 0xf0, 0xf8, 0xf6, 0xfc, 0x3, 0xf4, 0xf0, 
0xfe, 0x8, 0xfe, 0xfa, 0xf4, 0x9, 0x12, 0xee, 0xb, 0xef, 0xf9, 0x4, 0xf2, 0xfd, 0xc, 0xf7, 0x9, 0x3, 0xf8, 0xff, 
0xf9, 0x6, 0xfe, 0x4, 0x3, 0x7, 0xfe, 0x5, 0x2, 0x8, 0x2, 0xf3, 0xff, 0xf3, 0xf7, 0xfd, 0x7, 0x0, 0x1, 0xeb, 
0x4, 0xfe, 0xb, 0xfe, 0xed, 0xfd, 0xfc, 0x6, 0xf4, 0x4, 0xfd, 0xf3, 0x8, 0xfb, 0x3, 0xf8, 0xf9, 0xf4, 0xe, 0xb, 
0x6, 0xef, 0x2, 0x5, 0xb, 0xb, 0x1, 0xc, 0xf2, 0xe, 0xf8, 0x9, 0x7, 0xfd, 0x6, 0xfc, 0xfa, 0xf4, 0x2, 0xfa, 
0x4, 0x8, 0xf5, 0x2, 0x7, 0xf0, 0x5, 0xff, 0xf9, 0xff, 0xc, 0x0, 0xee, 0xf7, 0xf2, 0xf1, 0xfb, 0xf0, 0x5, 0xfe, 
0x2, 0x2, 0x5, 0xfb, 0x5, 0xfa, 0x5, 0xf3, 0xfd, 0xff, 0x7, 0xf8, 0xef, 0xf4, 0xb, 0xfb, 0x2, 0xff, 0x0, 0x2, 
0xf4, 0x2, 0x6, 0xd, 0xa, 0x0, 0x9, 0xa, 0xff, 0xf9, 0x8, 0x9, 0xf2, 0x7, 0x3, 0xee, 0xfe, 0xf6, 0x9, 0x9, 
0x2, 0xf6, 0xf8, 0x7, 0x1, 0xc, 0xfe, 0x4, 0xc, 0xf8, 0xf3, 0xf0, 0xf2, 0xf1, 0x9, 0xf2, 0xf2, 0x0, 0xf4, 0xf9, 
0xf7, 0xfc, 0x8, 0xf3, 0xf9, 0xf7, 0xfa, 0xf9, 0x4, 0x2, 0xf8, 0x3, 0xb, 0xfe, 0xfc, 0xf5, 0xf, 0x1, 0x1, 0xfe, 
0x6, 0xf4, 0xf0, 0xf3, 0x1, 0xe9, 0xf9, 0x5, 0x7, 0x6, 0xff, 0xeb, 0xa, 0xfd, 0x4, 0x0, 0xf7, 0x7, 0xf8, 0xf0, 
0xfb, 0x9, 0x1, 0xef, 0xed, 0xed, 0xff, 0xf3, 0x3, 0xf7, 0xff, 0x6, 0x3, 0xfe, 0xf3, 0xf1, 0xfc, 0x2, 0xff, 0x6, 
0x6, 0xa, 0xfa, 0x2, 0x2, 0x0, 0xf5, 0x0, 0xef, 0xfa, 0x6, 0xf2, 0xf1, 0xfd, 0xb, 0xf9, 0x4, 0x9, 0xf9, 0xee, 
0x3, 0xfb, 0x4, 0x8, 0xff, 0xef, 0x0, 0xb, 0x3, 0xf6, 0xfc, 0x8, 0xf0, 0x2, 0xf0, 0xef, 0x2, 0xf9, 0xf3, 0xf3, 
0xfc, 0x7, 0xfe, 0x4, 0x6, 0x3, 0xee, 0xf5, 0xff, 0xfb, 0xf2, 0xf7, 0xf7, 0xa, 0xf4, 0xf9, 0xf8, 0xf5, 0xf9, 0xf8, 
0xee, 0x2, 0x4, 0xed, 0x2, 0xf2, 0xf3, 0x7, 0x7, 0xd, 0xf6, 0xef, 0x7, 0xfe, 0xf6, 0xf2, 0x5, 0xed, 0x0, 0x7, 
0x1, 0xfc, 0xf4, 0xf3, 0xa, 0x6, 0x5, 0xf2, 0x6, 0x2, 0x7, 0x5, 0xff, 0xfc, 0xfe, 0xf2, 0xff, 0xf2, 0xf2, 0x7, 
0xfb, 0x2, 0xef, 0xf9, 0xf1, 0xf5, 0xfd, 0xed, 0xf9, 0xf6, 0x2, 0xf5, 0xf0, 0xf6, 0x2, 0x0, 0xee, 0x1, 0xf1, 0xf2, 
0xef, 0xfe, 0x4, 0xff, 0xfa, 0x1, 0x0, 0x3, 0xfe, 0xfc, 0x7, 0x6, 0xa, 0xf5, 0xf0, 0xf6, 0x9, 0xf7, 0xee, 0xed, 
0x8, 0x6, 0xf3, 0xf5, 0xed, 0xf9, 0xf3, 0xa, 0xef, 0xfe, 0xfd, 0x7, 0xf3, 0xff, 0xf6, 0xfc, 0xf1, 0xf5, 0xf6, 0xec, 
0xef, 0xed, 0xf0, 0xf3, 0x4, 0xfa, 0xee, 0x4, 0xee, 0xfa, 0x0, 0xec, 0x8, 0x4, 0xf0, 0xee, 0x7, 0xfc, 0xec, 0xf0, 
0xf0, 0xf2, 0x3, 0xf4, 0x5, 0x6, 0x3, 0x0, 0x4, 0x8, 0xf8, 0xf3, 0xf, 0x1b, 0xe, 0xf2, 0x15, 0xc, 0x0, 0x2, 
0xfa, 0xf0, 0xfa, 0xa, 0xf2, 0x17, 0x13, 0xfe, 0xf4, 0xe, 0x1b, 0x5, 0x6, 0x1, 0x1, 0xf3, 0xe, 0x13, 0xed, 0xf5, 
0x14, 0x14, 0xf8, 0x28, 0xff, 0x30, 0x14, 0xd, 0x23, 0x6, 0x1, 0x1, 0xfe, 0xf9, 0xed, 0xb, 0xfc, 0x1a, 0xc, 0x3, 
0xf1, 0xfc, 0x2, 0xfa, 0xfe, 0x6, 0xfb, 0x7, 0xf6, 0xfe, 0xf3, 0xed, 0xf, 0x1a, 0x13, 0xf8, 0xf9, 0xa, 0xf, 0xb, 
0xc, 0xfd, 0xfa, 0x0, 0xa, 0xd, 0x4, 0x3, 0xe, 0x1a, 0xfe, 0x18, 0xf8, 0xf, 0xc, 0xf4, 0xf2, 0xfd, 0x7, 0xf8, 
0xf0, 0xfa, 0xfd, 0xf1, 0xf9, 0xf7, 0x3, 0xe3, 0x5, 0x3, 0xfe, 0xf6, 0xe9, 0x14, 0x15, 0xfe, 0xee, 0xfc, 0xd6, 0xf1, 
0xff, 0xf, 0xea, 0xe1, 0x19, 0x26, 0xe8, 0xf9, 0xf9, 0x5, 0xe3, 0xe5, 0x29, 0xe3, 0xfd, 0x9, 0xda, 0xf8, 0x14, 0x13, 
0xa, 0x11, 0x9, 0x7, 0xc, 0x11, 0xf, 0x4, 0x7, 0xe, 0xa, 0x22, 0xed, 0xfd, 0x1c, 0xf2, 0x3, 0xa, 0xfb, 0x10, 
0xf9, 0xf4, 0x14, 0x10, 0xe4, 0x24, 0xc, 0x20, 0x10, 0xed, 0x1d, 0x24, 0x25, 0x9, 0x13, 0x2, 0x12, 0xed, 0xfe, 0xef, 
0x13, 0xf6, 0x16, 0x25, 0x1c, 0x2, 0xfc, 0xe5, 0xb, 0xf2, 0xc, 0xe0, 0xe, 0x1a, 0xf9, 0xfb, 0x5, 0xf7, 0x1d, 0xf3, 
0xf9, 0x13, 0xb, 0xf8, 0x7, 0xf9, 0xed, 0x14, 0x7, 0xf8, 0x11, 0xde, 0xe3, 0x1c, 0xf9, 0xeb, 0xb, 0x22, 0x14, 0xef, 
0xf0, 0xe9, 0x14, 0x26, 0x12, 0xf2, 0x6, 0xef, 0xea, 0x3, 0xfb, 0x19, 0xf, 0x18, 0x6, 0xee, 0x5, 0xa, 0xfa, 0x4, 
0xf9, 0x1, 0x16, 0x13, 0x16, 0xf5, 0x7, 0xde, 0xc, 0x16, 0xeb, 0xf1, 0xde, 0x7, 0xfe, 0xf8, 0x7, 0x27, 0x3, 0xb, 
0x24, 0xe1, 0x8, 0x2, 0xe6, 0xf7, 0x2c, 0x9, 0xfc, 0xf5, 0xe3, 0xdc, 0x4, 0xef, 0x13, 0xe, 0x8, 0x1, 0x12, 0x19, 
0xe4, 0xfd, 0x3, 0x9, 0xfa, 0x5, 0x29, 0xe4, 0xf8, 0xf1, 0xf5, 0x7, 0x29, 0xf2, 0xfa, 0xf, 0x30, 0xe4, 0xfc, 0xed, 
0xb, 0xf8, 0x1d, 0xf2, 0xe, 0x6, 0xf9, 0x7, 0xf, 0xe5, 0xf6, 0x4, 0xf0, 0xeb, 0xfa, 0xfa, 0xd, 0xe7, 0xf0, 0xe0, 
0xfb, 0xed, 0x1a, 0xfc, 0xfe, 0xd8, 0xf5, 0xf3, 0xd9, 0xfa, 0xa, 0x11, 0x8, 0xee, 0xe3, 0xe6, 0xf5, 0xc, 0x16, 0xee, 
0x19, 0xd9, 0x1a, 0x5, 0xe7, 0xd6, 0x1b, 0xd, 0xda, 0xcb, 0xfc, 0x7, 0xe1, 0xff, 0xfd, 0x30, 0x28, 0xe9, 0x3, 0xe3, 
0xf5, 0xdc, 0xf2, 0xdb, 0xff, 0xe9, 0xf5, 0xd7, 0xf7, 0xa, 0xd, 0xea, 0x7, 0xf, 0xf7, 0xef, 0xff, 0x9, 0x1, 0xfc, 
0x5, 0x24, 0x1c, 0x13, 0xd7, 0x15, 0xff, 0xf1, 0xf5, 0xff, 0xe6, 0x9, 0xff, 0xf4, 0x1, 0xf5, 0xe6, 0xfa, 0x0, 0xbf, 
0x7, 0x7, 0xf, 0xd, 0xf9, 0xf0, 0x8, 0xfd, 0xe, 0xee, 0xb, 0xe7, 0xe9, 0xfb, 0x2, 0xef, 0xf6, 0xf3, 0x3, 0x1a, 
0x1c, 0xea, 0x5, 0x3, 0xec, 0xd8, 0xea, 0xf2, 0xea, 0xfc, 0x1f, 0x18, 0xb, 0x1, 0xf7, 0x3, 0x13, 0xea, 0xfe, 0xf6, 
0xc, 0xf2, 0xf6, 0xec, 0xe1, 0x0, 0xff, 0x18, 0xe0, 0xe6, 0xf1, 0xfe, 0x9, 0xd1, 0xfe, 0xeb, 0xf6, 0xec, 0xde, 0xf3, 
0xb, 0xf9, 0x2, 0xeb, 0x9, 0x1f, 0xee, 0x6, 0xf7, 0xde, 0x0, 0xc3, 0x11, 0x4, 0x4, 0xe4, 0xc9, 0x3, 0xfd, 0x20, 
0x1e, 0x1a, 0xd, 0xf0, 0xed, 0xf5, 0xf5, 0xf7, 0xfb, 0xeb, 0xe, 0xa, 0xea, 0xfc, 0x10, 0x6, 0x8, 0x3b, 0xf, 0xef, 
0xf3, 0x2d, 0x19, 0xf9, 0x1b, 0x17, 0xe5, 0x7, 0xfc, 0x4, 0x18, 0xb, 0x1b, 0x9, 0x1, 0xef, 0x8, 0xfe, 0xed, 0xf9, 
0xef, 0x15, 0xf, 0x18, 0x1d, 0xe8, 0xf8, 0xed, 0xff, 0x32, 0xe5, 0xfe, 0x20, 0xe4, 0xe, 0x1, 0xf4, 0xdb, 0x9, 0x16, 
0x18, 0x7, 0xb, 0x23, 0xf0, 0x1f, 0xf5, 0x21, 0x19, 0x17, 0x8, 0x2, 0xfe, 0x22, 0xc, 0x7, 0x10, 0x7, 0x34, 0xed, 
0x14, 0xe, 0xe1, 0xfa, 0x8, 0x11, 0x18, 0xf0, 0x17, 0xd, 0xda, 0xea, 0xf8, 0xf9, 0xe8, 0xf5, 0x3, 0xf5, 0x4, 0xf9, 
0xe7, 0xf6, 0x5, 0xeb, 0xe8, 0xfa, 0xf4, 0xf4, 0xef, 0x2, 0xf9, 0xff, 0x9, 0xfb, 0xfc, 0x7, 0xf3, 0x2, 0xeb, 0xea, 
0xf9, 0x0, 0x6, 0x6, 0x4, 0xf5, 0xef, 0x6, 0xfb, 0xf7, 0xfd, 0xf4, 0xf7, 0xef, 0xee, 0xff, 0xe, 0xf9, 0x1, 0xfe, 
0xfb, 0xf9, 0xff, 0xf6, 0x2, 0xf4, 0x13, 0x5, 0xeb, 0xfd, 0xf4, 0x3, 0xfd, 0x9, 0xee, 0x3, 0xe8, 0xe3, 0xf2, 0xf8, 
0xf7, 0xf1, 0xf5, 0x4, 0xf2, 0xee, 0x3, 0xef, 0xff, 0xfa, 0x3, 0xf0, 0xfe, 0x0, 0xfe, 0xe5, 0xf0, 0xff, 0x6, 0xf0, 
0xfc, 0x1, 0x1, 0xec, 0xfa, 0x0, 0xed, 0x10, 0xf8, 0xf0, 0xf8, 0xeb, 0xf2, 0x5, 0xf3, 0xf5, 0xf5, 0xf0, 0xfc, 0xfc, 
0xf6, 0x4, 0xf5, 0x4, 0xfd, 0xf2, 0xf8, 0xfd, 0xfc, 0x6, 0x6, 0xf0, 0xf8, 0xe, 0x0, 0xf9, 0x6, 0xfc, 0x2, 0x9, 
0xfa, 0xfa, 0xf5, 0x1e, 0xfc, 0x13, 0x1, 0xf6, 0xf3, 0xf5, 0x2, 0xf0, 0xfa, 0xe, 0xfa, 0xfc, 0xf8, 0xf8, 0xf5, 0xf3, 
0xfa, 0xf8, 0xf6, 0x2, 0xf7, 0xfc, 0x1, 0xef, 0x4, 0xf3, 0x8, 0xf9, 0x3, 0xe6, 0xfd, 0xf1, 0xf3, 0xf8, 0xb, 0xf8, 
0xe6, 0xef, 0xf5, 0xef, 0xfd, 0xf3, 0xed, 0xf7, 0x7, 0xfe, 0xe8, 0xee, 0xea, 0x0, 0x6, 0xff, 0x7, 0xf4, 0xe9, 0xea, 
0xeb, 0x4, 0xf1, 0xf5, 0xfd, 0xfa, 0xfd, 0xed, 0x1, 0xa, 0xff, 0x0, 0xf8, 0x2, 0x5, 0xfb, 0xef, 0x9, 0xeb, 0xfd, 
0xed, 0x3, 0xf3, 0x3, 0xfb, 0x5, 0x2, 0xee, 0xf0, 0xfa, 0xf0, 0xff, 0x2, 0xf8, 0xff, 0xe8, 0x9, 0xf7, 0x9, 0xf6, 
0xc, 0xfd, 0x5, 0xf0, 0x3, 0xf4, 0x12, 0xef, 0x5, 0xff, 0xf0, 0xfe, 0x2, 0xee, 0xf4, 0x3, 0xf8, 0x11, 0x1, 0xff, 
0xf3, 0x6, 0x18, 0xf1, 0xf9, 0x9, 0xf4, 0xe, 0xe9, 0xe5, 0xf7, 0xc, 0xfe, 0x1d, 0xeb, 0xf1, 0xfe, 0x1, 0xf6, 0xe7, 
0xd, 0xb, 0x1, 0xe7, 0xf0, 0xf8, 0xfb, 0x5, 0xff, 0xff, 0xf, 0xf7, 0xf4, 0xf9, 0xf5, 0xff, 0xf1, 0xc, 0xf4, 0xf9, 
0xd, 0xe8, 0xf4, 0x12, 0xee, 0xfa, 0xf, 0xe6, 0xff, 0x3, 0xf4, 0xe6, 0xf7, 0x15, 0xf9, 0xe0, 0xf0, 0x1, 0x3, 0x3, 
0xf1, 0x10, 0xf, 0xf5, 0x7, 0xf3, 0xef, 0xe8, 0x4, 0xff, 0xfa, 0xe8, 0x3, 0x7, 0xef, 0x1, 0xf2, 0xf1, 0xe6, 0x9, 
0x7, 0x4, 0x0, 0xfb, 0xfd, 0x0, 0xf1, 0xfa, 0x7, 0x13, 0x20, 0x2b, 0x6, 0x11, 0x0, 0xf7, 0x9, 0x21, 0x14, 0xf2, 
0x19, 0x2c, 0xc, 0xa, 0xee, 0xd, 0x1c, 0x27, 0xf, 0xfe, 0xf5, 0x6, 0x6, 0x10, 0xe, 0x9, 0xfa, 0x1d, 0xf2, 0xf4, 
0x1b, 0x17, 0x23, 0xf0, 0xd, 0xec, 0xe9, 0x5, 0xe, 0xf9, 0xe8, 0xf4, 0xfa, 0x4, 0xfd, 0xf0, 0x5, 0x2, 0xee, 0x6, 
0xfb, 0xfc, 0xfc, 0xea, 0xe, 0xf9, 0xf6, 0xf5, 0x0, 0xc, 0xb, 0x1, 0xf3, 0xec, 0xe6, 0xee, 0xfd, 0x1, 0xe5, 0x0, 
0xf5, 0xfa, 0xee, 0xe9, 0xf1, 0xf4, 0x3, 0xeb, 0xf4, 0xfd, 0xec, 0xeb, 0xf1, 0xfb, 0xe7, 0xf9, 0xd, 0xef, 0xff, 0xfe, 
0x18, 0xf3, 0xf1, 0xfc, 0xf8, 0xfe, 0xe2, 0xfc, 0xf3, 0x1a, 0xf3, 0x5, 0xf9, 0xfa, 0xef, 0x3, 0xf5, 0xa, 0xc, 0xf1, 
0x12, 0xff, 0x8, 0xf7, 0xb, 0xfe, 0xf8, 0xf0, 0xc, 0x8, 0x8, 0x0, 0xf2, 0xe7, 0x32, 0xf4, 0x3, 0xf8, 0xf6, 0xef, 
0x8, 0x2, 0x3, 0xf6, 0xf7, 0xf1, 0x1, 0xef, 0xf2, 0xed, 0x1, 0xfb, 0xfb, 0xd, 0xf7, 0x11, 0x2, 0xd9, 0xf5, 0xfa, 
0xff, 0xfa, 0xef, 0xf8, 0x6, 0xe8, 0xea, 0xf2, 0xee, 0x2, 0x5, 0x1, 0x1, 0xf1, 0xe1, 0xee, 0x4, 0xf1, 0x6, 0xe8, 
0xf7, 0x4, 0xf, 0xe9, 0xfe, 0xf9, 0xf6, 0xee, 0xeb, 0xf1, 0xfc, 0xf2, 0xf7, 0xf9, 0x1c, 0xf4, 0xa, 0xee, 0xdb, 0xf0, 
0xf8, 0xfd, 0x0, 0xfc, 0x7, 0xdf, 0xf4, 0x4, 0xfe, 0xf0, 0xee, 0xf, 0xb, 0x4, 0xde, 0xf2, 0xe0, 0x6, 0xe7, 0xf1, 
0xf3, 0xf5, 0x8, 0xfa, 0xfb, 0x1, 0xf2, 0xff, 0x5, 0xfb, 0xef, 0x4, 0xf3, 0xff, 0xf8, 0xc, 0x4, 0xf0, 0xf4, 0xfb, 
0xf6, 0x2, 0xf7, 0xee, 0x9, 0xfc, 0x14, 0xf5, 0x2, 0xf9, 0xd, 0x5, 0xc, 0xed, 0x8, 0xea, 0xf7, 0xe8, 0xf8, 0x5, 
0xe, 0x1, 0xb, 0xef, 0x6, 0xf6, 0xf0, 0xf6, 0x0, 0xfe, 0xfd, 0xf5, 0xef, 0xea, 0xfa, 0xff, 0xef, 0xe8, 0xf6, 0xe8, 
0xfe, 0x6, 0xfc, 0xfa, 0x1, 0xef, 0xf9, 0xdc, 0x8, 0xeb, 0xf6, 0xfa, 0xfd, 0xf4, 0x0, 0xee, 0x1, 0x9, 0xf4, 0xa, 
0xc, 0xf2, 0x6, 0x7, 0xf8, 0xf8, 0x1, 0xfe, 0xb, 0x2, 0xf2, 0x0, 0x3, 0xef, 0xff, 0xef, 0x5, 0x2, 0x6, 0xfb, 
0x1, 0xfc, 0xf0, 0x1, 0xff, 0xfc, 0x2, 0xf3, 0xf3, 0xa, 0xfd, 0x2, 0xf8, 0x5, 0x6, 0xeb, 0xf2, 0xef, 0xf3, 0xf3, 
0x9, 0xf3, 0x0, 0xe7, 0xf9, 0xf5, 0xe3, 0xef, 0xee, 0xf2, 0xf0, 0xf3, 0xf8, 0xed, 0x2, 0xf9, 0xfe, 0xf8, 0x0, 0x0, 
0xf7, 0xf4, 0x2, 0xee, 0xf5, 0xff, 0xf8, 0x5, 0xc, 0xf4, 0x7, 0x7, 0xf4, 0xef, 0x3, 0xf6, 0xf6, 0xf7, 0x3, 0xe8, 
0x1, 0x0, 0xfe, 0x7, 0xf4, 0xee, 0xfb, 0xf9, 0xc, 0xeb, 0x1, 0x3, 0xd, 0xfc, 0xf6, 0x12, 0x4, 0xe5, 0x0, 0x1, 
0xf5, 0xf5, 0xfb, 0xf1, 0x14, 0x9, 0x3, 0xf8, 0xfb, 0xfb, 0x9, 0xf4, 0xf7, 0xed, 0x6, 0xf9, 0xf6, 0xee, 0xf8, 0xfc, 
0x2, 0x5, 0x6, 0xf4, 0x2, 0x1, 0xfd, 0x1, 0xb, 0xe5, 0xf8, 0x1, 0x1, 0x6, 0x0, 0x6, 0x15, 0xfe, 0x0, 0xee, 
0xfd, 0x3, 0xf6, 0xf, 0xf7, 0xea, 0x1, 0xea, 0xfe, 0xf3, 0xc, 0xb, 0xf2, 0x3, 0xc, 0xee, 0xeb, 0xf0, 0xfb, 0xff, 
0xe4, 0x2, 0xef, 0x2, 0x1, 0x2, 0xf9, 0xf2, 0xf5, 0xfa, 0xf7, 0x1, 0xe9, 0xfe, 0xe8, 0xea, 0xed, 0xff, 0xf4, 0x7, 
0xf3, 0xf7, 0xdf, 0xf7, 0xf7, 0xff, 0xff, 0xfb, 0xfa, 0xf5, 0xf5, 0x8, 0xee, 0xf0, 0xf6, 0xf9, 0xf6, 0xfc, 0xfe, 0xf7, 
0x9, 0x6, 0xea, 0xee, 0x7, 0xef, 0xe9, 0xf8, 0xed, 0xfc, 0xf6, 0xf9, 0x5, 0xfe, 0xe7, 0xef, 0xee, 0xef, 0xda, 0x6, 
0xf4, 0xf7, 0xfb, 0xfa, 0x3, 0xed, 0xfe, 0xf8, 0x9, 0xf1, 0xfa, 0x3, 0x4, 0xf7, 0xf1, 0xe8, 0xfd, 0xf7, 0xf0, 0xf3, 
0x8, 0xfc, 0xf1, 0x8, 0xf6, 0xf3, 0xf4, 0xeb, 0xfc, 0xf5, 0xf1, 0xf5, 0xef, 0xea, 0xfe, 0x12, 0xfd, 0xeb, 0xfa, 0xf5, 
0xfb, 0xf3, 0xed, 0xf7, 0xff, 0xff, 0xf5, 0x1, 0xe6, 0xea, 0xf0, 0xd, 0xe9, 0xe2, 0xfd, 0xf0, 0xf1, 0x1, 0xf4, 0x0, 
0x4, 0xe2, 0xf3, 0x9, 0xf8, 0xfd, 0xfd, 0xfa, 0xf6, 0xe5, 0xf7, 0x0, 0xf7, 0xf5, 0xf2, 0xfa, 0xec, 0xec, 0xfc, 0xe8, 
0xec, 0x7, 0xff, 0xfa, 0xfe, 0xe8, 0xee, 0xe6, 0xf1, 0xfa, 0xe6, 0xfb, 0xea, 0xfa, 0xee, 0xe5, 0xfd, 0xfa, 0xea, 0xe7, 
0xfd, 0x7, 0x1, 0xed, 0xe7, 0x7, 0xe9, 0xf2, 0xf8, 0xfe, 0xec, 0xfb, 0x6, 0xee, 0xec, 0x4, 0xf3, 0x1c, 0xfb, 0x12, 
0xf5, 0xe6, 0x0, 0xfa, 0xfc, 0xed, 0xeb, 0xa, 0xf7, 0xee, 0xff, 0x9, 0xf2, 0xf5, 0x3, 0xfa, 0xff, 0x19, 0xfc, 0xec, 
0xa, 0xf3, 0xdd, 0xf8, 0xee, 0x4, 0x5, 0xf, 0xfe, 0xfd, 0xf1, 0x0, 0xf8, 0xfd, 0xed, 0xfd, 0x3, 0xe4, 0xff, 0xfd, 
0x4, 0xf4, 0x2, 0xfc, 0xf6, 0xf3, 0xf7, 0xf4, 0xb, 0xa, 0x13, 0x7, 0xe7, 0xf2, 0xf0, 0x7, 0xe3, 0x2, 0x0, 0xf9, 
0xd, 0xfa, 0x0, 0xfa, 0x3, 0xf7, 0xf6, 0xf2, 0xfe, 0xdc, 0xf1, 0xeb, 0xe1, 0xf7, 0x6, 0xfd, 0x13, 0xe2, 0xee, 0xf8, 
0xf, 0xef, 0xfa, 0xe8, 0xe4, 0xfd, 0xdf, 0xfc, 0xf9, 0xfb, 0xe9, 0x2, 0xed, 0xfa, 0x4, 0xd7, 0xef, 0xfb, 0xf5, 0x3, 
0xef, 0xfa, 0xf4, 0xe6, 0xf9, 0xfb, 0x8, 0xf3, 0xf0, 0xf6, 0xf, 0x0, 0xa, 0xec, 0x8, 0xde, 0x2, 0xf3, 0xe6, 0xf9, 
0xf4, 0xfd, 0xff, 0xeb, 0xfa, 0xfa, 0xe8, 0x4, 0xfa, 0xe6, 0xf1, 0xe6, 0xd8, 0xf5, 0xf5, 0xf1, 0xf5, 0xf0, 0xee, 0xeb, 
0xec, 0xf1, 0xef, 0x3, 0xee, 0x17, 0x4, 0xf5, 0xfe, 0xf1, 0xf6, 0x5, 0x3, 0xf, 0x6, 0xf8, 0xf1, 0x5, 0xfe, 0x1f, 
0x0, 0x11, 0xf1, 0xf7, 0xf2, 0x5, 0xe9, 0xe0, 0xf9, 0xe4, 0xfa, 0x5, 0x6, 0x3, 0xff, 0xd, 0xf7, 0xfc, 0x4, 0xf2, 
0xf, 0xfe, 0xf8, 0x2a, 0xb, 0xf4, 0xc, 0xff, 0xdb, 0xfe, 0xf2, 0x14, 0xf, 0x3, 0xed, 0xf2, 0x8, 0xf0, 0xfd, 0xe5, 
0xfe, 0xf9, 0x9, 0x7, 0x2, 0x7, 0xf9, 0x2, 0xff, 0xfb, 0xf9, 0xf3, 0x2, 0xf5, 0x6, 0x2, 0xff, 0x1, 0xf5, 0xfe, 
0xfd, 0xf2, 0xfb, 0xa, 0x4, 0xfc, 0xfd, 0xec, 0x5, 0x8, 0xf8, 0x6, 0xb, 0xfe, 0xf2, 0x0, 0x3, 0xfb, 0xf1, 0xf6, 
0xfd, 0x15, 0xf2, 0xf7, 0x15, 0x9, 0x2, 0xf9, 0x7, 0x1, 0x5, 0xf0, 0xfd, 0x8, 0xf7, 0xf7, 0xf6, 0x8, 0xf9, 0x2, 
0x5, 0xf7, 0xf0, 0xfb, 0xdc, 0x4, 0x18, 0xeb, 0xfe, 0x9, 0x7, 0xf4, 0xea, 0xb, 0xde, 0xee, 0xf6, 0x16, 0x0, 0xa, 
0xfa, 0x13, 0xec, 0xe4, 0xf9, 0x30, 0xee, 0xc, 0xef, 0xf8, 0xe9, 0x3, 0xf6, 0xfb, 0x4, 0x8, 0xef, 0xfd, 0xef, 0xd, 
0xed, 0x10, 0x12, 0x4, 0xf7, 0xf3, 0xf1, 0xf4, 0xf, 0x11, 0xff, 0xf4, 0x8, 0xe5, 0x9, 0x15, 0x9, 0xf5, 0xc, 0x6, 
0x6, 0xff, 0x3, 0xfe, 0xfd, 0xfa, 0xf1, 0xa, 0x1, 0x1, 0x1, 0xa, 0xf9, 0xf1, 0x11, 0xee, 0xfd, 0xfa, 0x8, 0xef, 
0xa, 0x13, 0xff, 0x5, 0xf7, 0xf2, 0xfa, 0xfb, 0xfb, 0xf1, 0xee, 0x7, 0xf0, 0xb, 0xf0, 0xfe, 0x7, 0xfb, 0x9, 0xfa, 
0x3, 0xf7, 0xfe, 0xfb, 0xfd, 0xf6, 0xfc, 0xeb, 0x4, 0x5, 0xef, 0xb, 0xf6, 0xfe, 0xfb, 0xe7, 0xfa, 0x15, 0xb, 0xfc, 
0x2, 0xc, 0x3, 0x0, 0xa, 0x16, 0xf4, 0xe5, 0xf5, 0x13, 0xff, 0x4, 0xf9, 0x8, 0x9, 0xf1, 0xed, 0x6, 0x6, 0xf9, 
0xee, 0x2, 0xe7, 0xf6, 0x7, 0x19, 0xd, 0xf6, 0xf7, 0xfb, 0xf3, 0xf6, 0xf5, 0xe7, 0x6, 0xfc, 0xe9, 0xe6, 0xe0, 0x5, 
0xf2, 0xf8, 0xea, 0xe6, 0xa, 0xf2, 0x0, 0xfe, 0xe, 0xef, 0xfe, 0xfd, 0xe8, 0x17, 0xb, 0xfc, 0xff, 0xfb, 0xf2, 0x15, 
0xf8, 0xc, 0xe3, 0x3, 0xe8, 0xf4, 0xf9, 0xfa, 0xe7, 0x4, 0xf7, 0xf7, 0x3, 0xfa, 0xe, 0x7, 0xf3, 0xf2, 0x9, 0xc, 
0xf3, 0xe6, 0xc, 0xee, 0xf8, 0x6, 0xec, 0xfc, 0xf8, 0x10, 0xfe, 0xfb, 0xfd, 0x0, 0xfc, 0xb, 0xee, 0xf4, 0xee, 0xec, 
0xed, 0x5, 0xfa, 0xf0, 0x13, 0xd, 0xee, 0x4, 0x7, 0xfd, 0x5, 0xef, 0xf9, 0xf8, 0xe5, 0xf, 0xa, 0x5, 0xf2, 0xf5, 
0xf6, 0x16, 0xf4, 0xe, 0x1, 0x12, 0xeb, 0x1, 0xeb, 0x3, 0x17, 0xe8, 0xd, 0xfa, 0xe2, 0xe6, 0xf6, 0xf6, 0xf4, 0x8, 
0xfd, 0xfa, 0xda, 0x2, 0xe3, 0xef, 0xf1, 0xed, 0x25, 0x5, 0xb, 0xec, 0xfb, 0xef, 0x2, 0x8, 0xdf, 0x9, 0x5, 0xa, 
0xa, 0xed, 0x15, 0xfa, 0xf9, 0xee, 0x1, 0xf8, 0x5, 0xfd, 0xed, 0x8, 0xf8, 0x1, 0xf6, 0xf2, 0xf5, 0xe8, 0xf6, 0xf7, 
0xd, 0x9, 0xf, 0x4, 0xe8, 0xf4, 0xf0, 0xf, 0xf9, 0x6, 0x0, 0xf9, 0x0, 0xf1, 0x12, 0x0, 0x4, 0x12, 0xf6, 0xec, 
0x10, 0x9, 0xfd, 0xea, 0x6, 0x0, 0xf9, 0xb, 0x12, 0xf1, 0xf2, 0xf0, 0xe, 0xe, 0xf2, 0x4, 0xa, 0xf, 0xfd, 0xa, 
0xfb, 0x6, 0xef, 0xf5, 0x16, 0xea, 0xe7, 0xdf, 0x10, 0x4, 0x0, 0x25, 0xeb, 0x1e, 0xe7, 0xfd, 0xf3, 0x9, 0xf1, 0x15, 
0x10, 0xd, 0xef, 0xf7, 0x21, 0xef, 0xe8, 0xf3, 0xf5, 0x1b, 0x2, 0x0, 0x3, 0xf2, 0x2, 0xec, 0xf4, 0x7, 0x5, 0x2, 
0x14, 0x5, 0x6, 0xd, 0xf7, 0x3, 0xa, 0xf6, 0xfe, 0x17, 0xf8, 0x5, 0x11, 0xa, 0xed, 0xf0, 0xfe, 0x5, 0x0, 0xf0, 
0x22, 0xe, 0xff, 0xea, 0xfd, 0xfd, 0xb, 0xe, 0x3, 0xef, 0xfd, 0x2, 0x18, 0xf9, 0xe9, 0xf, 0x10, 0x15, 0xfe, 0xde, 
0xea, 0x7, 0xf6, 0x13, 0x11, 0xfd, 0xfe, 0xf4, 0xa, 0xf9, 0xe, 0xf7, 0x1a, 0x2, 0xfb, 0xf6, 0xe3, 0xfd, 0xb, 0x16, 
0xf7, 0xd, 0x12, 0x4, 0xf8, 0x13, 0xf1, 0x7, 0xf0, 0xa, 0xef, 0xf3, 0x11, 0xe9, 0xe3, 0xea, 0xb, 0xf2, 0xc, 0xfd, 
0x2, 0xf9, 0x1, 0xf9, 0xf0, 0x3, 0x13, 0xfe, 0xeb, 0xfb, 0x2, 0xf3, 0x3, 0xd3, 0x5, 0xf1, 0xd, 0x11, 0xed, 0xe9, 
0xef, 0x1, 0x0, 0xe2, 0xb, 0xf7, 0xff, 0xf7, 0x8, 0x5, 0x1f, 0xe1, 0x7, 0xef, 0xf8, 0x0, 0xff, 0x1, 0xf1, 0xe9, 
0xfe, 0x6, 0xf7, 0x1b, 0xf5, 0xf1, 0xf6, 0xe3, 0x3, 0x18, 0xb, 0x9, 0xf2, 0x1, 0x8, 0x1, 0xf9, 0x9, 0x7, 0xfc, 
0x2, 0xf6, 0x0, 0x5, 0x9, 0x2, 0xa, 0xfa, 0x9, 0xc, 0x6, 0x0, 0xf4, 0x11, 0x3, 0xe2, 0xee, 0x3, 0x13, 0xf9, 
0xfa, 0xf6, 0xf8, 0x4, 0xe5, 0xf4, 0xff, 0xfe, 0x4, 0x18, 0xf3, 0xe6, 0x15, 0x4, 0xf8, 0xf8, 0x3, 0x9, 0xf0, 0xb, 
0xf5, 0xfe, 0xf7, 0xe5, 0xf9, 0xd6, 0xed, 0x2b, 0xe8, 0xe9, 0x1, 0xe, 0x3, 0x13, 0xf1, 0xf9, 0x4, 0xfe, 0x3, 0xf3, 
0xe9, 0xf5, 0xff, 0xf3, 0x19, 0xdc, 0x4, 0x1, 0x2, 0x2, 0x0, 0xeb, 0x15, 0x11, 0xe5, 0xf2, 0x4, 0xec, 0xfe, 0xe, 
0x2, 0xd7, 0xfb, 0xee, 0x2, 0xed, 0xf6, 0x0, 0x1a, 0xfb, 0xec, 0xf1, 0x12, 0x5, 0xf4, 0xf9, 0x6, 0xfa, 0x3, 0x5, 
0x7, 0x2, 0xfa, 0xfb, 0x13, 0xc, 0xf8, 0xf7, 0xfb, 0xfd, 0x9, 0xe9, 0xed, 0xeb, 0xe, 0x9, 0xfc, 0x2, 0x5, 0x6, 
0xa, 0xf7, 0xf2, 0xc, 0xfb, 0xf7, 0xfd, 0xf, 0xf3, 0x8, 0x4, 0xf8, 0x4, 0x2, 0xfe, 0x2, 0x7, 0xeb, 0xfb, 0x1b, 
0xf3, 0xff, 0xfd, 0xc, 0xf2, 0xfe, 0xc, 0xf8, 0xf0, 0x1d, 0xf2, 0xf1, 0xb, 0xfc, 0xff, 0x10, 0xe2, 0xde, 0xf2, 0xb, 
0xf7, 0x8, 0x7, 0x4, 0x25, 0xf5, 0xfd, 0xff, 0xd, 0xbe, 0x5, 0xe, 0xfb, 0xee, 0xd, 0x4, 0xb, 0xc7, 0xfc, 0x17, 
0x13, 0xf9, 0xf2, 0xf3, 0x14, 0xdf, 0xe4, 0x4, 0x1, 0xfe, 0x3, 0xc, 0x14, 0xfb, 0x7, 0xff, 0xf6, 0xf9, 0xf, 0x2, 
0x13, 0xe7, 0xe7, 0xfd, 0xfe, 0xfa, 0xea, 0xf8, 0xf3, 0xf3, 0x7, 0xff, 0xea, 0x5, 0xef, 0xff, 0x1c, 0xfa, 0xf9, 0xfc, 
0xe3, 0xef, 0xf4, 0x11, 0x5, 0xe7, 0xa, 0x10, 0x16, 0xf7, 0x14, 0xb, 0xf, 0x6, 0xf7, 0xa, 0x10, 0x6, 0x14, 0x9, 
0xc, 0xea, 0x4, 0xfe, 0x1d, 0xf1, 0xfe, 0x0, 0x1b, 0xf3, 0xfc, 0x4, 0xf2, 0xfa, 0xf0, 0xde, 0xec, 0x8, 0xe, 0xb, 
0xf8, 0xff, 0xfc, 0x9, 0x9, 0xfd, 0xf4, 0x5, 0x1, 0xe1, 0xe7, 0xff, 0xff, 0xf2, 0x2e, 0xf4, 0xfd, 0x13, 0xf6, 0x10, 
0xe5, 0xd1, 0x22, 0x5, 0xc5, 0xe7, 0x2, 0x16, 0x7, 0xd6, 0x1, 0x7, 0x4, 0x4, 0x3, 0xa, 0x3, 0xe5, 0xf3, 0xa, 
0xfa, 0xf6, 0xff, 0xff, 0x4, 0x5, 0x2, 0xfd, 0xe, 0x13, 0xe9, 0xc, 0x7, 0xfb, 0xf3, 0x4, 0xfb, 0xf6, 0xff, 0x8, 
0xfd, 0xec, 0xd1, 0xf4, 0xf9, 0x4, 0xe4, 0x2, 0xef, 0xf8, 0xf9, 0x13, 0x1, 0xfb, 0x2, 0x14, 0xfc, 0xa, 0x9, 0xf9, 
0x16, 0x2, 0xec, 0x7, 0x14, 0xf4, 0x2, 0xfd, 0x11, 0xe7, 0x0, 0xfa, 0xe, 0xef, 0xef, 0x3, 0x10, 0xf2, 0xf4, 0x18, 
0xf2, 0x1, 0xf9, 0xe, 0x5, 0x5, 0xf5, 0xff, 0xfb, 0x8, 0x4, 0xd, 0xf, 0xb, 0xf6, 0x8, 0x9, 0xef, 0xef, 0xfd, 
0xb, 0xfc, 0xff, 0xf5, 0xf6, 0xf4, 0xf5, 0xfc, 0x1, 0xf7, 0xff, 0xef, 0x21, 0xe7, 0x19, 0x19, 0xc, 0x5, 0x9, 0xed, 
0xf5, 0xdf, 0x0, 0x2e, 0x13, 0x12, 0xb, 0x3, 0x13, 0x3, 0xfa, 0x14, 0xed, 0x10, 0xf0, 0xfe, 0xf0, 0xa, 0xf8, 0x23, 
0x21, 0xf8, 0xef, 0x3, 0x8, 0xdd, 0x8, 0xa, 0xfb, 0xc, 0xfb, 0xe1, 0xf6, 0xfa, 0xe, 0x4, 0xc, 0xf2, 0xf0, 0x4, 
0xf4, 0xf5, 0x5, 0xe8, 0x1, 0x19, 0x18, 0x0, 0xe3, 0xf0, 0xf6, 0xfa, 0x8, 0xf, 0xfb, 0xfb, 0x9, 0xe, 0xf5, 0xfb, 
0x14, 0xe7, 0xb, 0xee, 0x16, 0x1, 0x4, 0x1f, 0x3, 0xf5, 0xed, 0xef, 0xd, 0x9, 0xfe, 0xeb, 0xff, 0xa, 0x10, 0xe9, 
0xfa, 0xe2, 0xf6, 0xe7, 0x9, 0xf3, 0x6, 0xd, 0xf6, 0x3, 0x7, 0x1, 0xf6, 0x21, 0x1a, 0x6, 0xfb, 0xf9, 0xf3, 0xf2, 
0xe, 0x1, 0xa, 0xf2, 0xfd, 0xd7, 0xfb, 0xe9, 0x1, 0x17, 0xf2, 0xe7, 0x4, 0xe4, 0xff, 0xf4, 0xfd, 0xee, 0x2, 0xde, 
0xee, 0xef, 0x2d, 0xfc, 0xe7, 0xef, 0xf, 0xea, 0xf2, 0xe3, 0xff, 0xf7, 0x7, 0xf0, 0xfe, 0x9, 0xe4, 0xf4, 0xfb, 0xf1, 
0xb, 0xf9, 0xf7, 0xe0, 0x1, 0xe7, 0xf6, 0xf4, 0xf9, 0xfc, 0xe8, 0xfa, 0xfa, 0xe5, 0x4, 0xd8, 0xf2, 0xfd, 0xe9, 0xfd, 
0xf4, 0xf9, 0xf2, 0xdf, 0xef, 0xfc, 0xfc, 0xda, 0x7, 0xf9, 0xf8, 0xeb, 0xeb, 0xfa, 0x2, 0x5, 0x10, 0xf6, 0xf8, 0x24, 
0x9, 0xa, 0x1, 0xfb, 0xfc, 0x5, 0x10, 0xf, 0xfb, 0x5, 0x9, 0x10, 0x1e, 0xed, 0xeb, 0x10, 0x1a, 0x6, 0x23, 0xd, 
0x6, 0xf5, 0xe, 0x26, 0xf4, 0xf0, 0x1a, 0x9, 0xef, 0x16, 0xfb, 0x0, 0xf7, 0x13, 0x1, 0x0, 0x1e, 0xf5, 0xee, 0xff, 
0xfd, 0xf0, 0x15, 0xc, 0xfe, 0x9, 0xe4, 0x9, 0xa, 0xb, 0xe, 0xfe, 0x1d, 0xf9, 0xff, 0x7, 0xf5, 0xf, 0xfd, 0xd9, 
0xf8, 0x3, 0xf7, 0xf3, 0xf0, 0xeb, 0xea, 0xf6, 0xee, 0x3, 0xda, 0xf9, 0x2, 0x7, 0xf5, 0xfb, 0xef, 0xf, 0xef, 0xf0, 
0xf8, 0xf7, 0xdd, 0xf1, 0x8, 0xf3, 0xfe, 0xf2, 0xd2, 0xec, 0x2, 0x10, 0xee, 0xec, 0xf6, 0xe, 0xa, 0x9, 0xf, 0xf5, 
0x16, 0xf7, 0xb, 0xfd, 0xe3, 0xf1, 0x24, 0x7, 0xe, 0xfb, 0xe1, 0x19, 0x1a, 0xf5, 0xc, 0xed, 0x9, 0xe9, 0xfe, 0x11, 
0x9, 0xf8, 0xef, 0xef, 0xed, 0xf7, 0xfc, 0x12, 0x15, 0xf7, 0x24, 0xf9, 0xfb, 0xdb, 0x1a, 0x17, 0xb, 0x15, 0x8, 0x11, 
0x6, 0xf9, 0xec, 0x4, 0xff, 0x10, 0xc, 0xf4, 0xfd, 0xfe, 0xf, 0x5, 0x18, 0xe9, 0xf6, 0x2, 0xc, 0x15, 0xfb, 0x6, 
0x3, 0x6, 0x5, 0xd, 0xf4, 0xfb, 0xec, 0x15, 0xf5, 0x18, 0xf0, 0xee, 0xef, 0x6, 0xf6, 0xf9, 0xf9, 0xf3, 0xf8, 0x1, 
0xed, 0xfd, 0xf4, 0xea, 0xf2, 0xf7, 0xfc, 0x34, 0x8, 0xf9, 0x4, 0xef, 0xf8, 0x18, 0x6, 0x7, 0x34, 0x1, 0x9, 0xed, 
0xed, 0x8, 0x7, 0x1d, 0xfd, 0x1, 0xf2, 0x7, 0xf4, 0x16, 0xfd, 0xf7, 0x19, 0xfe, 0x0, 0xfb, 0xe, 0xf1, 0x18, 0xf4, 
0x10, 0xd, 0xec, 0x15, 0x1, 0x13, 0xe, 0xfc, 0x0, 0xff, 0x5, 0x4, 0xfd, 0xf8, 0x8, 0xec, 0xf0, 0xf9, 0xe3, 0x13, 
0x3, 0xef, 0xf2, 0xfe, 0x0, 0xf2, 0xfe, 0x0, 0xff, 0xed, 0x2, 0x3, 0x7, 0xfc, 0xb, 0xfb, 0xe2, 0x4, 0xfd, 0x16, 
0xec, 0x8, 0x8, 0xb, 0xff, 0xfe, 0xf1, 0xeb, 0x5, 0xf4, 0xd, 0x3, 0xff, 0x6, 0xee, 0x11, 0xed, 0xf9, 0xf4, 0xfc, 
0xf7, 0xe9, 0xe2, 0xe6, 0xfc, 0xf6, 0xd, 0xf3, 0xf9, 0x0, 0xd, 0x7, 0xff, 0xe9, 0x3, 0x6, 0xf1, 0xf1, 0x8, 0xf7, 
0xd, 0xed, 0x13, 0xfc, 0xed, 0x3, 0xf9, 0x10, 0x4, 0xee, 0x11, 0xf9, 0x15, 0x1f, 0xf8, 0x2, 0xf8, 0xff, 0x6, 0xe4, 
0xe8, 0x1b, 0xfc, 0x12, 0xf, 0xc, 0xf7, 0xfe, 0xf3, 0xe, 0xe, 0xf5, 0xf4, 0xb, 0xeb, 0xd, 0x6, 0x17, 0xd, 0xfc, 
0xa, 0x1e, 0xe9, 0x14, 0xef, 0x1f, 0xe, 0xc, 0xf7, 0x14, 0xe6, 0x7, 0xe7, 0xb, 0xf2, 0xf7, 0x16, 0x17, 0xfd, 0xe2, 
0xfd, 0xfc, 0xfd, 0x7, 0xfb, 0xf8, 0xd, 0xf4, 0xf6, 0xff, 0xe0, 0x5, 0xf7, 0xff, 0x1, 0xf3, 0xf, 0x8, 0xe5, 0xfa, 
0xfb, 0xf7, 0x4, 0xfd, 0xf6, 0xe0, 0xf4, 0x17, 0xe1, 0xfe, 0xf0, 0xf4, 0xf3, 0xfc, 0xdf, 0xed, 0xfd, 0x5, 0xff, 0xfa, 
0xff, 0xe7, 0x1, 0x7, 0xef, 0xf9, 0x8, 0xf4, 0xe8, 0xec, 0xfc, 0x12, 0xf2, 0xe, 0x3, 0xf6, 0xf2, 0xa, 0xfe, 0x9, 
0xf4, 0xe7, 0x7, 0x15, 0x6, 0x15, 0x7, 0x1b, 0x10, 0x7, 0xfd, 0xf7, 0xd8, 0x1d, 0xf5, 0x19, 0x15, 0x18, 0x2, 0x16, 
0xa, 0xb, 0xfd, 0x8, 0x4, 0xc, 0xeb, 0xef, 0xf8, 0x10, 0x1, 0xfd, 0xee, 0xb, 0xf2, 0xf, 0xfc, 0x17, 0x2, 0xef, 
0x13, 0xfc, 0xf1, 0xf9, 0xdc, 0xf3, 0xe1, 0xe, 0xe9, 0xd, 0xd, 0xfa, 0x3, 0x48, 0xe9, 0xc9, 0x7, 0xa, 0xf1, 0xe, 
0x18, 0x3, 0xc3, 0xfb, 0xce, 0x1, 0x22, 0xd1, 0x18, 0x19, 0xfe, 0xf3, 0x15, 0x1c, 0x5, 0x6, 0x7, 0xff, 0xf9, 0xf4, 
0xea, 0x3, 0xe, 0xc, 0x6, 0xfb, 0x5, 0xed, 0x8, 0xfd, 0xf1, 0xfd, 0xff, 0xb, 0xf6, 0xfd, 0xdf, 0xf1, 0xf4, 0x2, 
0xe6, 0xeb, 0x6, 0xd, 0x8, 0x9, 0x1b, 0xfe, 0xec, 0x18, 0xf5, 0xec, 0xf, 0x1a, 0xf1, 0x3, 0xde, 0xe6, 0x3, 0x24, 
0x0, 0xfb, 0x4, 0xf6, 0xfd, 0x13, 0xc, 0xf7, 0x19, 0x7, 0xfa, 0xf6, 0x0, 0xd3, 0xe, 0xfc, 0xc, 0x6, 0xf3, 0xfb, 
0x9, 0x0, 0x2, 0xfe, 0x1, 0x4, 0xf2, 0xf3, 0xef, 0xf0, 0xf5, 0xf9, 0x0, 0xff, 0xfc, 0xd, 0xfa, 0xff, 0xf3, 0x8, 
0xed, 0x0, 0xf5, 0xfc, 0xf, 0x4e, 0x9, 0xd6, 0x1b, 0x1f, 0xfb, 0xeb, 0x18, 0xeb, 0xc2, 0xf, 0xe9, 0xf9, 0xe2, 0x16, 
0x27, 0x28, 0xe9, 0xdb, 0x17, 0x39, 0xec, 0xf5, 0x12, 0xe8, 0xfe, 0x17, 0xda, 0xfb, 0xf0, 0x29, 0xc, 0xf4, 0xf6, 0xe3, 
0x4, 0x13, 0x7, 0xf7, 0xf3, 0xf9, 0xfa, 0xf1, 0xf7, 0xef, 0xf4, 0xe2, 0xe6, 0xe0, 0xf, 0x14, 0x20, 0xfe, 0xa, 0xde, 
0x1, 0x9, 0x5, 0xfd, 0xf4, 0xc, 0xfd, 0x19, 0xf2, 0xe, 0x15, 0xd, 0x11, 0x9, 0x7, 0xf8, 0xe, 0x12, 0x3, 0x5, 
0xf5, 0x2, 0xe, 0xeb, 0xf8, 0x17, 0xff, 0xf1, 0xe5, 0x1, 0xb, 0xfb, 0xf1, 0xed, 0xdb, 0x6, 0xfd, 0xfe, 0xdc, 0xed, 
0xf0, 0xa, 0xf0, 0x6, 0xe6, 0x4, 0xf3, 0xf0, 0xf2, 0x5, 0xe0, 0xee, 0xf7, 0xf7, 0xd8, 0xfe, 0xec, 0x1e, 0xe, 0xe8, 
0x8, 0xfe, 0xfe, 0xe, 0x1d, 0xfb, 0xeb, 0x4, 0xf8, 0x27, 0xeb, 0x1f, 0xf9, 0x18, 0xe3, 0xe9, 0x1, 0x4e, 0x14, 0x7, 
0x5, 0x24, 0xf1, 0x21, 0xe7, 0x16, 0x1e, 0x13, 0xc, 0xd, 0xeb, 0xe0, 0xed, 0x1e, 0x7, 0xf4, 0x5, 0xf7, 0xe7, 0xc, 
0xfd, 0xfd, 0x9, 0xfd, 0xea, 0xed, 0xf, 0xf9, 0x19, 0xf3, 0x18, 0xf1, 0x1f, 0x16, 0x4, 0x0, 0xfe, 0xfc, 0x17, 0xe, 
0x1, 0x13, 0xf6, 0xf4, 0xf2, 0xf4, 0x4, 0xfd, 0xfc, 0xef, 0x1, 0xb, 0xed, 0xfa, 0xf0, 0xe, 0xed, 0x1d, 0xfd, 0x1a, 
0xf2, 0xe9, 0x4, 0xf1, 0xec, 0x16, 0xd7, 0x8, 0xb, 0xf, 0xe5, 0xe6, 0xde, 0x1b, 0x17, 0x1d, 0xe9, 0x16, 0xfd, 0xf9, 
0xf0, 0xa, 0xc1, 0xa, 0x18, 0x13, 0xdb, 0xd7, 0xe5, 0x4, 0xc, 0x4, 0xfb, 0x14, 0xe5, 0x1b, 0xff, 0x12, 0xb, 0x7, 
0xef, 0xd, 0xe7, 0x13, 0xf7, 0x11, 0xfa, 0xe6, 0xd7, 0xff, 0xa, 0x2, 0x8, 0xc9, 0x4, 0xf5, 0x0, 0xfc, 0x16, 0x3, 
0xf7, 0x6, 0xf2, 0x7, 0xe8, 0xf0, 0xf2, 0xd3, 0x3, 0xe2, 0x2, 0xe5, 0x9, 0xf1, 0x16, 0xe0, 0xf3, 0xfd, 0x2d, 0x0, 
0xc, 0x25, 0x5, 0xf8, 0xff, 0xdf, 0x7, 0xfc, 0x0, 0x11, 0x11, 0xd9, 0xf8, 0x1f, 0xe3, 0xf3, 0xdb, 0xf2, 0x3, 0xd8, 
0x9, 0xf, 0xe1, 0x1a, 0xf5, 0x4, 0xea, 0x0, 0xde, 0x10, 0xfe, 0xf5, 0xec, 0x1, 0xe, 0xeb, 0x2, 0xec, 0xf2, 0xfe, 
0xcf, 0xfe, 0x2, 0xf2, 0xe7, 0x1d, 0x3c, 0x35, 0x1, 0xfd, 0x1b, 0xe3, 0xef, 0x1f, 0xe8, 0x6, 0x27, 0x24, 0xe, 0xfe, 
0xf3, 0xdd, 0x4, 0xd, 0xf6, 0x12, 0xf4, 0xf9, 0xe, 0xfe, 0xf, 0xe2, 0xe9, 0xd9, 0xf5, 0x3, 0xf2, 0xf7, 0x3, 0xeb, 
0xf2, 0xeb, 0xfc, 0xe0, 0x4, 0xed, 0x9, 0xfe, 0xfe, 0xdc, 0xdd, 0x0, 0xe5, 0xf0, 0xff, 0xe8, 0xf, 0x21, 0xf0, 0xff, 
0x19, 0x21, 0x10, 0x6, 0x30, 0x2d, 0xfe, 0xf0, 0x0, 0x3, 0x3, 0xf8, 0x1a, 0x2, 0x2, 0x4, 0xf5, 0xd7, 0xa, 0xfc, 
0xef, 0x3, 0x11, 0xe9, 0x18, 0xf6, 0xd2, 0xf4, 0xdc, 0xea, 0x0, 0x3, 0xfb, 0xc6, 0xde, 0xf8, 0xfc, 0xe9, 0xe8, 0xfe, 
0xfa, 0xd, 0xf0, 0xf, 0xf3, 0xdc, 0x3, 0xdc, 0x8, 0xd, 0xa, 0xf8, 0x13, 0x1, 0xa, 0xeb, 0xf1, 0xf8, 0x2c, 0x2f, 
0x9, 0xb, 0xf, 0xef, 0xf5, 0xfb, 0xb, 0x6, 0xff, 0x3, 0xf4, 0x13, 0xc, 0xfd, 0xf9, 0x1, 0xef, 0xea, 0xf, 0xe1, 
0xfa, 0x9, 0x6, 0x16, 0x8, 0xfc, 0xf9, 0x1, 0xf7, 0x2, 0xe9, 0xff, 0x1, 0xf0, 0x27, 0x9, 0x2, 0xf7, 0xe, 0xe, 
0xe9, 0xfc, 0x1, 0x12, 0xff, 0x7, 0xf1, 0x12, 0xf2, 0x4, 0x1b, 0xf0, 0xf0, 0xf8, 0xb, 0xf, 0xf4, 0xf6, 0xfd, 0x12, 
0xc, 0xfa, 0x0, 0xb, 0xe6, 0xf5, 0x1b, 0xef, 0x2, 0xf6, 0x9, 0x1, 0xfa, 0xed, 0xb, 0x10, 0x16, 0xf5, 0x0, 0xfc, 
0x0, 0xef, 0x17, 0xfd, 0x3, 0xf1, 0x1b, 0x8, 0xf4, 0x0, 0x9, 0x8, 0xa, 0xe9, 0x1, 0xe, 0x1, 0x5, 0x13, 0xe8, 
0xfb, 0x1, 0xf9, 0xa, 0xed, 0xf4, 0xfd, 0xfc, 0x0, 0x0, 0xf8, 0xd, 0xf6, 0x0, 0x21, 0xec, 0x4, 0xf9, 0xfe, 0x22, 
0xfa, 0xfa, 0xff, 0x6, 0x17, 0x5, 0xe7, 0x15, 0xe6, 0xf2, 0x1e, 0xe4, 0x8, 0xf1, 0x11, 0xf5, 0x7, 0xa, 0xf8, 0xf1, 
0x3, 0xeb, 0xe7, 0x11, 0xe0, 0xec, 0x21, 0xde, 0xed, 0xee, 0x15, 0x12, 0xea, 0x0, 0xf6, 0xf6, 0x2, 0xfc, 0xff, 0x12, 
0xee, 0x6, 0x1a, 0xdd, 0x6, 0xdb, 0x9, 0xb, 0xf9, 0xf7, 0xf0, 0xf0, 0xf6, 0xf9, 0xe8, 0xf8, 0xe9, 0x7, 0x12, 0xe6, 
0xfa, 0xf7, 0xef, 0xf9, 0xea, 0xfa, 0x2, 0xe4, 0xf, 0xec, 0xf9, 0x15, 0xfd, 0x4, 0x18, 0x2, 0xf9, 0xe8, 0x9, 0xf5, 
0xef, 0xf1, 0x1, 0x2, 0xf9, 0xe7, 0xfc, 0xe, 0xfa, 0x8, 0x14, 0x1, 0xfd, 0x0, 0xf7, 0xfb, 0xf4, 0xec, 0xa, 0xfa, 
0x17, 0xf5, 0xf6, 0x15, 0xf4, 0xec, 0x1d, 0xf8, 0x5, 0xee, 0x6, 0xf5, 0xe6, 0xf3, 0x6, 0x0, 0xb, 0x0, 0xfb, 0x13, 
0xf7, 0x6, 0xfd, 0xf1, 0x7, 0xfc, 0x5, 0x4, 0xf3, 0x9, 0x0, 0xf3, 0x15, 0xf3, 0xf6, 0x13, 0xf6, 0x2, 0xfe, 0x4, 
0xf3, 0xfd, 0xf9, 0xff, 0x3, 0xed, 0xfe, 0xf7, 0xf8, 0xeb, 0xf7, 0xfc, 0xe7, 0xfe, 0x19, 0xfc, 0xf5, 0xea, 0x2, 0xf9, 
0xf1, 0xee, 0xea, 0xf2, 0xf9, 0x6, 0x5, 0xf, 0xea, 0xeb, 0xff, 0xf7, 0x2, 0xeb, 0xfa, 0xf6, 0xf9, 0xef, 0xfe, 0x1, 
0xfa, 0xfe, 0x1, 0x11, 0x3, 0xfc, 0xfb, 0x4, 0xed, 0xef, 0xf7, 0xf4, 0xeb, 0xe7, 0xf8, 0x2, 0x5, 0xee, 0x0, 0xfa, 
0xf6, 0xf, 0x1a, 0xfe, 0xa, 0x3, 0xff, 0x4, 0x8, 0xfe, 0xfd, 0xe9, 0xfe, 0x5, 0x8, 0x2, 0xf6, 0xf4, 0x13, 0x2, 
0xfe, 0xa, 0xf1, 0xff, 0xeb, 0xe0, 0xe8, 0x6, 0x7, 0xfe, 0xea, 0xfc, 0xf7, 0xfd, 0xb, 0xfa, 0xf1, 0xf5, 0x5, 0x4, 
0xa, 0xf4, 0xf2, 0xfe, 0x10, 0xf2, 0xe0, 0x4, 0xf9, 0xc, 0x10, 0xf3, 0xe9, 0x6, 0x7, 0xfc, 0x5, 0x2, 0x3, 0x3, 
0x8, 0x0, 0xec, 0x1, 0xf9, 0x0, 0x13, 0xfc, 0xf3, 0xfe, 0xf3, 0x5, 0xf0, 0xf3, 0xef, 0x4, 0xfd, 0x3, 0xf0, 0x9, 
0xeb, 0xf8, 0x6, 0x5, 0xf9, 0xa, 0xea, 0x1, 0xf3, 0xf0, 0x3, 0x5, 0xfc, 0xe8, 0xf4, 0xd, 0xe2, 0x7, 0xa, 0xfc, 
0xec, 0xf6, 0xf8, 0xfe, 0x7, 0xf4, 0xf2, 0xf9, 0x13, 0xf9, 0x1, 0x0, 0xed, 0xf0, 0x15, 0xe5, 0xe4, 0xf2, 0xe9, 0xc, 
0x6, 0xe9, 0xf2, 0xec, 0x9, 0xf4, 0xe9, 0xfe, 0xfa, 0xf1, 0x15, 0xe7, 0xee, 0x12, 0xf4, 0x5, 0xec, 0xf3, 0xe8, 0xef, 
0xf9, 0xf7, 0xfc, 0x5, 0x7, 0xff, 0xf, 0xfa, 0xe9, 0x2, 0x4, 0x3, 0xe, 0xf4, 0xf9, 0xef, 0xf9, 0xec, 0xfa, 0xf, 
0xf7, 0xa, 0x14, 0xeb, 0xef, 0xf2, 0xf3, 0x7, 0xf0, 0xfb, 0xb, 0xf6, 0x5, 0xf3, 0xf2, 0xe, 0xf4, 0xf4, 0x1a, 0xfa, 
0xec, 0xfe, 0xf9, 0x4, 0xf5, 0xf3, 0x0, 0xfe, 0x4, 0xe7, 0xfd, 0xff, 0xe8, 0x0, 0x5, 0xe8, 0xfb, 0xf9, 0x1, 0x10, 
0xec, 0x6, 0xf7, 0xf3, 0x14, 0xfc, 0x4, 0xc, 0xed, 0xfe, 0x7, 0xe6, 0xf9, 0xf5, 0xfe, 0xf, 0x3, 0x9, 0x0, 0x7, 
0x14, 0xf5, 0xec, 0xa, 0xed, 0xfe, 0xf, 0xee, 0xea, 0xf8, 0x9, 0x11, 0x4, 0xb, 0xf5, 0xec, 0x19, 0xff, 0xfc, 0x5, 
0xfd, 0xf8, 0x5, 0xf6, 0xf8, 0x8, 0xf7, 0x4, 0xfc, 0x3, 0xf8, 0xfc, 0xfd, 0x6, 0xc, 0xfb, 0x4, 0x1, 0xf1, 0xf6, 
0x7, 0x5, 0xff, 0x2, 0xfe, 0xa, 0xfe, 0x5, 0xf4, 0x6, 0x6, 0x2, 0xf9, 0x1, 0x9, 0xf1, 0x8, 0x3, 0xff, 0x0, 
0x5, 0xfc, 0xf1, 0xf0, 0xf5, 0xfd, 0xb, 0xf4, 0xf0, 0xf5, 0xf4, 0x7, 0x6, 0x3, 0x3, 0x6, 0xfa, 0xfd, 0xf2, 0xfb, 
0x3, 0x3, 0xf5, 0xb, 0x5, 0xf8, 0x7, 0xf7, 0xf7, 0xf5, 0xf2, 0xf5, 0x3, 0x4, 0xf4, 0x9, 0xfc, 0xf7, 0xfb, 0x8, 
0xfd, 0x3, 0x9, 0xf4, 0xf4, 0xfa, 0x8, 0x0, 0xf0, 0xf6, 0xfd, 0x3, 0xfb, 0xfb, 0xf2, 0xee, 0xc, 0xfc, 0x5, 0x2, 
0xf2, 0xf2, 0x5, 0xc, 0x3, 0xf1, 0xff, 0xee, 0xee, 0xf4, 0xfa, 0x4, 0xee, 0xef, 0xf5, 0xf0, 0xf1, 0xfd, 0xf8, 0xfb, 
0x9, 0x3, 0xfe, 0x2, 0xf9, 0xfc, 0xf2, 0x4, 0xef, 0x9, 0xf9, 0xff, 0xfc, 0xef, 0xfe, 0xf8, 0xed, 0xf4, 0xf0, 0xf5, 
0x1, 0xf5, 0xf2, 0x8, 0xfa, 0xfa, 0x2, 0xf0, 0xfc, 0x7, 0xf2, 0x2, 0xf1, 0x4, 0x9, 0x7, 0xfa, 0xee, 0xf9, 0xf1, 
0xfc, 0xf1, 0x2, 0xf1, 0xa, 0xff, 0xfc, 0xf7, 0x6, 0xf0, 0xf4, 0xff, 0xff, 0x8, 0x8, 0xb, 0x5, 0x1, 0xf4, 0x2, 
0xfd, 0xf0, 0x9, 0xf8, 0xb, 0x3, 0x5, 0x2, 0xf2, 0xf7, 0xf2, 0xf5, 0x7, 0xfc, 0x6, 0xf2, 0xfa, 0xa, 0xff, 0xf7, 
0xa, 0xf2, 0xff, 0x1, 0xf5, 0xf5, 0x2, 0xf6, 0xb, 0xf1, 0xf5, 0xfa, 0xf2, 0xff, 0xf5, 0x1, 0xf1, 0xb, 0xf6, 0xf0, 
0xf9, 0xf0, 0xf4, 0xfe, 0xff, 0xa, 0xf3, 0x8, 0x0, 0x3, 0x9, 0x8, 0x5, 0xf9, 0x6, 0xf2, 0xf6, 0x5, 0x4, 0xa, 
0xfc, 0xf2, 0xfb, 0x3, 0xb, 0xf3, 0x3, 0x2, 0xf5, 0xfc, 0x9, 0xfe, 0xfb, 0x4, 0x1, 0xf1, 0x1, 0x3, 0xb, 0xb, 
0x1, 0xfb, 0xa, 0xf1, 0xb, 0xfd, 0xfe, 0xee, 0x4, 0x4, 0xc, 0x9, 0x6, 0x1, 0xff, 0xf9, 0xf6, 0x1, 0xc, 0x8, 
0x4, 0x5, 0x6, 0xef, 0x9, 0xf7, 0xf6, 0xfa, 0xef, 0xf5, 0xfe, 0xfb, 0xf8, 0xf8, 0xfd, 0xf4, 0xff, 0xff, 0x7, 0x2, 
0xf4, 0x5, 0x1, 0xfc, 0xb, 0x5, 0x6, 0xf8, 0xff, 0xa, 0x8, 0x0, 0xf5, 0x0, 0x2, 0xf0, 0xfd, 0xf2, 0x8, 0xf6, 
0x2, 0xf8, 0x8, 0x3, 0x5, 0xfc, 0xfb, 0x5, 0xf3, 0xfd, 0x9, 0xfd, 0x5, 0xfc, 0xf1, 0xf4, 0x6, 0xfb, 0xfe, 0xfe, 
0xf1, 0xf4, 0xff, 0xf1, 0x5, 0xfd, 0xfb, 0x6, 0xc, 0xef, 0xfa, 0xfa, 0x5, 0xf1, 0xef, 0xf7, 0x1, 0x8, 0xf1, 0x8, 
0xf3, 0xf8, 0xa, 0xf6, 0xef, 0x1, 0xfa, 0xf4, 0x3, 0xf6, 0xff, 0xee, 0xf6, 0xf6, 0xfc, 0x4, 0xf4, 0x6, 0x9, 0x9, 
0xef, 0xfd, 0x5, 0x3, 0x2, 0x2, 0xf2, 0x9, 0xf2, 0xf9, 0xf5, 0x7, 0xa, 0x9, 0xfb, 0x1, 0xfa, 0xfc, 0xf3, 0x5, 
0xf2, 0xf5, 0xff, 0x2, 0xf9, 0xd, 0x8, 0xf9, 0xa, 0x2, 0x8, 0x3, 0xf8, 0xf1, 0xfa, 0xf1, 0x0, 0xf2, 0xf9, 0x1, 
0xfb, 0x7, 0x9, 0xf0, 0x0, 0xfa, 0xf5, 0xf2, 0x9, 0xa, 0x0, 0xf4, 0x1, 0x3, 0xf9, 0xf1, 0x7, 0xf8, 0x4, 0x8, 
0xfc, 0x2, 0xfc, 0xef, 0xf5, 0xf1, 0xf8, 0xf9, 0xfe, 0xfc, 0x3, 0x6, 0x8, 0x9, 0xa, 0xf7, 0x6, 0xfd, 0x5, 0xfb, 
0xa, 0xd, 0x2, 0xf2, 0x2, 0xf8, 0xfd, 0xfa, 0xf4, 0xf9, 0xf2, 0xf9, 0xb, 0xfc, 0xb, 0xf2, 0xf0, 0xf3, 0xf0, 0xf7, 
0x0, 0x9, 0xfe, 0xfb, 0x6, 0xf4, 0xb, 0x2, 0xf7, 0xa, 0x1, 0x9, 0x4, 0xff, 0xef, 0xfd, 0xf7, 0xfc, 0xf6, 0x2, 
0xf6, 0x9, 0xf4, 0xef, 0xfc, 0xf6, 0xf6, 0xf7, 0xf5, 0xfa, 0xfe, 0xf7, 0x9, 0xf4, 0xf8, 0x9, 0xf0, 0xd, 0x6, 0x5, 
0xf0, 0xf3, 0xf2, 0x8, 0xef, 0xf7, 0x1, 0xf5, 0xfc, 0xb, 0x2, 0x1, 0xf9, 0xf6, 0xff, 0xf6, 0x7, 0xa, 0xff, 0xfd, 
0xf8, 0x3, 0xf3, 0xf6, 0x9, 0x9, 0xf3, 0xf8, 0x2, 0x7, 0x1, 0xfa, 0xf3, 0x5, 0xef, 0x8, 0x6, 0xf9, 0xf0, 0x4, 
0xff, 0xf2, 0xff, 0xfa, 0xb, 0xf3, 0x3, 0xfb, 0xb, 0xfe, 0xf3, 0xfd, 0x1, 0x2, 0xfe, 0x9, 0x9, 0x7, 0xfb, 0x6, 
0xc, 0x0, 0x8, 0xfa, 0x8, 0xf6, 0x4, 0xf3, 0x9, 0xf8, 0x1, 0x2, 0xf6, 0xf2, 0xf0, 0xfe, 0xf3, 0xfe, 0xf1, 0xfd, 
0xf4, 0xfd, 0xf7, 0x9, 0xfd, 0xf8, 0xf4, 0xf1, 0x8, 0xf6, 0xf3, 0xff, 0xf4, 0xfc, 0xf5, 0x3, 0xf8, 0x6, 0xfe, 0x5, 
0xfc, 0xf7, 0x6, 0xff, 0xf1, 0xfa, 0xf8, 0xfe, 0x0, 0xf8, 0xff, 0xc, 0x6, 0xa, 0xf0, 0xfd, 0xf2, 0xfb, 0x0, 0xa, 
0xfc, 0x9, 0xfe, 0x2, 0xf6, 0x3, 0xf0, 0xf8, 0xf2, 0x7, 0x5, 0x7, 0xef, 0x3, 0xf2, 0x9, 0x1, 0xf0, 0x4, 0xf2, 
0xf5, 0xf2, 0xf9, 0xef, 0x3, 0x1, 0xff, 0xf8, 0xf1, 0xfc, 0xf1, 0x5, 0xff, 0xf6, 0x4, 0xef, 0xf9, 0xfc, 0xf5, 0xfb, 
0x6, 0xff, 0xfa, 0x2, 0x2, 0xf2, 0xfb, 0xfa, 0xf9, 0xf4, 0xf4, 0xf7, 0xf7, 0xf3, 0x7, 0x1, 0xfc, 0xf8, 0xf4, 0x7, 
0xf8, 0x3, 0xf7, 0xef, 0xfc, 0xfe, 0xff, 0xfb, 0xfc, 0xfc, 0xf3, 0xf1, 0xc, 0x1, 0xfb, 0xf1, 0xf4, 0xf5, 0xf9, 0xfa, 
0xa, 0xf2, 0xa, 0xf5, 0xf2, 0x5, 0x6, 0xf8, 0xf3, 0xf9, 0x0, 0xf2, 0xef, 0xff, 0x9, 0x9, 0x0, 0xfc, 0xff, 0x8, 
0xf1, 0xf4, 0xf2, 0x6, 0xe, 0xf8, 0x6, 0xf3, 0x0, 0x8, 0x5, 0xfa, 0x4, 0xf6, 0xf6, 0xf6, 0xf6, 0xa, 0xfc, 0xef, 
0xfd, 0x0, 0xf1, 0xf6, 0xf5, 0xb, 0x7, 0xf4, 0x5, 0x9, 0x1, 0x3, 0xa, 0xef, 0xb, 0xfa, 0x7, 0xfc, 0xf8, 0xf3, 
0x5, 0x9, 0x7, 0xfb, 0xfe, 0x5, 0xf0, 0xff, 0x4, 0xfd, 0xfb, 0xfb, 0xf4, 0xf1, 0xa, 0xf1, 0xff, 0xfe, 0xff, 0xfc, 
0xf4, 0xfa, 0xf3, 0xfd, 0xf4, 0xfb, 0xf7, 0xa, 0x1, 0x1, 0xf2, 0xf6, 0xff, 0x4, 0xf6, 0xf3, 0xff, 0xff, 0x7, 0xf1, 
0xe, 0x3, 0xf0, 0xc, 0xf4, 0x5, 0xfa, 0xff, 0xf8, 0x7, 0x2, 0xfe, 0xb, 0xa, 0xf8, 0x3, 0xfc, 0xfc, 0xfa, 0x3, 
0xf1, 0xa, 0xf5, 0xd, 0xf3, 0x7, 0xfd, 0x2, 0x2, 0x3, 0xf6, 0xf1, 0x3, 0x0, 0x7, 0xf9, 0xe, 0xf7, 0xfb, 0xc, 
0xfb, 0xf3, 0xfa, 0xd, 0xf1, 0xf9, 0xb, 0xf2, 0xf2, 0xf9, 0xf0, 0x5, 0xf4, 0xd, 0xf9, 0xf3, 0x0, 0x1, 0xb, 0xfc, 
0xfb, 0xfe, 0x5, 0x8, 0xb, 0xef, 0x8, 0x6, 0x0, 0x9, 0x2, 0xfb, 0x7, 0xa, 0xfb, 0xe, 0xf6, 0xf9, 0x3, 0x2, 
0xfb, 0xc, 0xff, 0xb, 0xf0, 0x0, 0x3, 0x9, 0xf6, 0x6, 0xb, 0xa, 0x0, 0xfd, 0xa, 0x5, 0x8, 0xf1, 0x4, 0xf7, 
0xd, 0x3, 0x5, 0xf3, 0xc, 0x4, 0x7, 0xfb, 0x8, 0x2, 0xfd, 0x2, 0xd, 0x9, 0xf2, 0x6, 0xfc, 0x0, 0xfd, 0x9, 
0xff, 0x5, 0xf6, 0x1, 0xf5, 0x3, 0x5, 0x0, 0xb, 0x8, 0xfc, 0x1, 0x5, 0x3, 0x0, 0xff, 0xf7, 0xc, 0x3, 0xf9, 
0xf3, 0x3, 0xf6, 0xfd, 0xf2, 0xf5, 0xf0, 0xff, 0xb, 0xf5, 0x9, 0x1, 0xfa, 0xa, 0x6, 0xfe, 0xf3, 0xf8, 0xf1, 0xfa, 
0xf8, 0x6, 0xc, 0xfa, 0xf7, 0x1, 0xff, 0x5, 0xf6, 0x0, 0x9, 0x8, 0x2, 0xff, 0xf0, 0x5, 0xfb, 0xfe, 0xfa, 0x4, 
0xf1, 0x7, 0x4, 0x9, 0x1, 0xf1, 0xf8, 0x8, 0xfe, 0xf8, 0x0, 0xff, 0xf0, 0xe, 0xf5, 0x6, 0x9, 0xfa, 0xe, 0xfb, 
0xf7, 0x5, 0xf8, 0x7, 0x2, 0x3, 0x0, 0xf5, 0x7, 0x1, 0xf2, 0x3, 0x3, 0x4, 0xf2, 0xf7, 0x9, 0xfa, 0x0, 0xfa, 
0xff, 0xf1, 0xf9, 0xfe, 0xf0, 0x4, 0xc, 0x6, 0xf8, 0xff, 0xf9, 0x0, 0xfd, 0xfe, 0xf4, 0xf5, 0xf9, 0xf4, 0xb, 0xa, 
0xf0, 0xfa, 0xf8, 0xfa, 0xf1, 0xf9, 0x6, 0x7, 0x6, 0xf0, 0x3, 0xfc, 0x2, 0x3, 0x5, 0x3, 0xf4, 0x2, 0x4, 0x5, 
0x9, 0x9, 0x8, 0xd, 0x5, 0xf4, 0xf5, 0xf2, 0xe, 0xf7, 0x7, 0xfc, 0xd, 0x0, 0x6, 0xfe, 0xfc, 0x3, 0x3, 0xf4, 
0xe, 0x7, 0xf4, 0x2, 0xfb, 0xd, 0xf7, 0xc, 0xfe, 0xf9, 0x9, 0x4, 0x8, 0x9, 0xfa, 0xd, 0x2, 0x2, 0x0, 0x3, 
0x6, 0xf6, 0x3, 0xf6, 0xfb, 0xf6, 0xfe, 0xe, 0xa, 0xfa, 0xf8, 0xfa, 0xf1, 0xf4, 0x4, 0xfa, 0x7, 0x8, 0x1, 0xf3, 
0xfa, 0x8, 0xa, 0xf3, 0xf1, 0xf5, 0xf7, 0xff, 0x0, 0x7, 0xf5, 0xef, 0x6, 0x6, 0xf9, 0xc, 0xf7, 0x5, 0xf4, 0xf2, 
0xef, 0xfd, 0x7, 0x1, 0x0, 0xf8, 0xf3, 0xf4, 0xfa, 0x6, 0xf2, 0x8, 0xf2, 0xf3, 0x3, 0xf4, 0xf1, 0xf0, 0xd, 0xb, 
0x7, 0xef, 0x8, 0x6, 0xf7, 0xf3, 0xff, 0xf5, 0x6, 0xfd, 0xf1, 0x6, 0x2, 0xfa, 0xf9, 0xf0, 0x0, 0xf6, 0x9, 0xf4, 
0xc, 0x5, 0xfd, 0x6, 0x4, 0x2, 0xf1, 0xf0, 0x8, 0xf1, 0xfd, 0xf4, 0xf0, 0xf6, 0xfb, 0x7, 0xfd, 0xf9, 0xc, 0x8, 
0xee, 0x8, 0x9, 0xf2, 0xf2, 0xf1, 0xff, 0x7, 0xf0, 0xef, 0x1, 0x0, 0x1, 0xf2, 0xc, 0x9, 0xfc, 0xfb, 0xf1, 0x1, 
0x9, 0x6, 0x1, 0x4, 0xfc, 0x0, 0xf2, 0xf1, 0xff, 0xf8, 0xf4, 0x5, 0x9, 0x8, 0x8, 0xfb, 0xfd, 0xef, 0xfb, 0xf6, 
0xfb, 0xfa, 0xf2, 0xd, 0xfe, 0xf7, 0xfa, 0x1, 0xf8, 0xf4, 0x3, 0xf1, 0xfe, 0x6, 0xf3, 0x8, 0xf2, 0xfb, 0xfd, 0xf6, 
0x9, 0xf6, 0xf4, 0x6, 0xf5, 0xf9, 0xf5, 0x9, 0xf6, 0x7, 0x7, 0xf3, 0x5, 0xb, 0x8, 0x4, 0x6, 0x4, 0x0, 0x9, 
0xf1, 0xf1, 0xf9, 0xf8, 0x5, 0x5, 0x1, 0xf5, 0x3, 0xf1, 0x4, 0x5, 0xf0, 0xfc, 0xa, 0x4, 0xf1, 0xfa, 0x2, 0xee, 
0x8, 0xf3, 0xff, 0xff, 0x2, 0x8, 0xfc, 0xa, 0x2, 0x7, 0x5, 0xff, 0xc, 0x3, 0x3, 0x3, 0xf2, 0xc, 0xf3, 0xf1, 
0x7, 0xf8, 0x8, 0x4, 0xfa, 0xfb, 0xff, 0x0, 0xf1, 0xf4, 0xf1, 0x0, 0x2, 0xfa, 0xf2, 0xf4, 0xfb, 0xf6, 0xfa, 0x0, 
0x0, 0xa, 0x1, 0xf0, 0xa, 0x3, 0x6, 0xf9, 0xfa, 0xa, 0xfb, 0xf7, 0xfb, 0xf9, 0xf0, 0x2, 0x0, 0x1, 0x7, 0x1, 
0x3, 0x7, 0xfa, 0x7, 0xf2, 0xf9, 0x2, 0x6, 0xf2, 0xb, 0xf9, 0xfb, 0xf4, 0x5, 0x6, 0x3, 0x0, 0xfd, 0xf5, 0xef, 
0xfa, 0xfb, 0xfb, 0xf1, 0xf0, 0xf3, 0xff, 0xef, 0xa, 0x6, 0xef, 0x8, 0xf0, 0x6, 0x7, 0x5, 0xa, 0x7, 0xb, 0xb, 
0x9, 0xfc, 0xfd, 0xfc, 0xb, 0x9, 0xfb, 0x5, 0xf7, 0xef, 0x2, 0x8, 0x0, 0x5, 0xb, 0x2, 0xf2, 0xf5, 0xf2, 0x3, 
0xfa, 0xf4, 0xf5, 0xfe, 0xfe, 0xfe, 0x3, 0x5, 0xfd, 0xf0, 0x3, 0xf3, 0x4, 0xa, 0xa, 0xb, 0xf1, 0xf9, 0x8, 0xb, 
0x8, 0xfa, 0xf1, 0xf4, 0xff, 0x8, 0xb, 0xf0, 0xf3, 0xf6, 0xf6, 0xf7, 0xf8, 0xa, 0xff, 0xfe, 0x5, 0x0, 0xf3, 0x6, 
0x2, 0x7, 0xf4, 0x3, 0xfa, 0x8, 0x9, 0xf3, 0x7, 0xfa, 0x1, 0xef, 0xfc, 0x8, 0x7, 0xf7, 0xfd, 0x7, 0xf9, 0xf5, 
0xf1, 0x3, 0xff, 0x6, 0xf1, 0xf4, 0x4, 0xfb, 0x0, 0xa, 0x8, 0x0, 0xf2, 0xf1, 0xfb, 0x2, 0xf2, 0xfd, 0x9, 0xef, 
0xfe, 0x8, 0xb, 0xff, 0xf3, 0xf9, 0xf7, 0xf1, 0xf4, 0xfa, 0xef, 0xff, 0xfd, 0xfb, 0xf4, 0x7, 0xef, 0xf6, 0x2, 0xf5, 
0xf1, 0x0, 0x2, 0x1, 0x2, 0xf0, 0xa, 0x2, 0x2, 0x6, 0xc, 0x5, 0x2, 0xf5, 0xf4, 0xfc, 0xf6, 0x2, 0xf2, 0x5, 
0xfd, 0x9, 0xf5, 0x7, 0xb, 0xf3, 0xff, 0x5, 0x2, 0xfa, 0xa, 0xf1, 0xf8, 0xfd, 0xfd, 0xfc, 0x5, 0xf4, 0xef, 0xf4, 
0x4, 0xff, 0xfb, 0xfd, 0xfc, 0x4, 0xf5, 0xfb, 0xff, 0xfc, 0x3, 0xf4, 0xf1, 0xfd, 0x7, 0xfd, 0xf2, 0x5, 0xef, 0x6, 
0xf5, 0xf4, 0x2, 0x2, 0xf4, 0xf5, 0xd, 0xfa, 0xf5, 0xff, 0x3, 0xf5, 0xfb, 0xef, 0x0, 0x1, 0xf6, 0x8, 0xf5, 0xf0, 
0xfd, 0x6, 0xf2, 0x8, 0x4, 0x9, 0xf7, 0xed, 0x7, 0x6, 0xfe, 0xf7, 0xfc, 0x1, 0xf8, 0xf7, 0xf8, 0xfd, 0xb, 0xfd, 
0xf3, 0xc, 0xf2, 0xfa, 0x3, 0xa, 0x8, 0x7, 0xa, 0xf7, 0xff, 0x3, 0x5, 0x0, 0xc, 0xf5, 0x5, 0x2, 0xf3, 0x9, 
0xfd, 0xed, 0x1, 0x6, 0x9, 0xf2, 0xf5, 0xb, 0x5, 0xf2, 0xfc, 0xf5, 0xfd, 0x4, 0x6, 0xf8, 0xf6, 0x2, 0x5, 0x6, 
0xfb, 0xf4, 0x7, 0xf4, 0xb, 0xfb, 0x9, 0x5, 0xf5, 0x0, 0xf5, 0x3, 0xa, 0x2, 0xf8, 0xf1, 0x1, 0x0, 0xf0, 0xf4, 
0xf2, 0xf1, 0xfc, 0xf0, 0xf2, 0xfb, 0xc, 0x9, 0x1, 0xf4, 0xf9, 0xfd, 0xf3, 0x6, 0x3, 0xfe, 0xff, 0x9, 0xc, 0xf, 
0xc, 0xf6, 0x11, 0x10, 0xc, 0x3, 0xf3, 0x2, 0xf9, 0xed, 0xee, 0xfd, 0xf4, 0xf3, 0x7, 0xf9, 0x4, 0xf1, 0x3, 0xff, 
0xf3, 0x2, 0xf4, 0xff, 0xf8, 0xf5, 0x3, 0x4, 0x6, 0x6, 0xb, 0xf6, 0xf3, 0xf7, 0xf8, 0xef, 0x2, 0xfd, 0xf8, 0x0, 
0xf1, 0xed, 0x6, 0xf8, 0xfc, 0x5, 0xfd, 0xfc, 0x4, 0xf7, 0xfc, 0xfa, 0x9, 0xf4, 0x4, 0x1, 0xf1, 0xfc, 0xfc, 0xf8, 
0xa, 0xa, 0x4, 0xf4, 0xfc, 0xf3, 0xf4, 0xf7, 0x1, 0xfc, 0xf7, 0xf4, 0xfd, 0x6, 0xf0, 0x7, 0x3, 0xf1, 0xa, 0x9, 
0xc, 0x4, 0xf7, 0x3, 0x0, 0xf7, 0xb, 0x9, 0xfe, 0xfd, 0x5, 0xfe, 0xfa, 0xf1, 0x9, 0xf8, 0xf2, 0xff, 0xfc, 0xfa, 
0x7, 0xfa, 0xf8, 0x0, 0xd, 0xf4, 0xfd, 0x8, 0xfa, 0xa, 0x2, 0x6, 0x6, 0xfd, 0xf5, 0x5, 0xd, 0x5, 0xee, 0xed, 
0x2, 0xc, 0x5, 0x9, 0xc, 0xf4, 0xf9, 0x9, 0xf2, 0xf3, 0xfd, 0xf5, 0x0, 0xf6, 0xa, 0xfc, 0x9, 0xb, 0xfb, 0xf6, 
0x6, 0x8, 0xf2, 0xff, 0xf0, 0x0, 0x7, 0x2, 0xf3, 0xf4, 0xa, 0xc, 0x0, 0xf7, 0x7, 0x7, 0xff, 0xf8, 0x9, 0xf8, 
0xf1, 0x0, 0x2, 0x3, 0xa, 0xf8, 0x4, 0x3, 0xf3, 0xfc, 0xfe, 0x2, 0xf4, 0xa, 0xfe, 0x4, 0xf2, 0x2, 0xfd, 0xfa, 
0x1, 0xf7, 0x7, 0xf2, 0xb, 0x2, 0xf6, 0xf7, 0x9, 0x3, 0xfe, 0xfe, 0xf1, 0xf7, 0x1, 0xf0, 0xf0, 0xf4, 0xf9, 0xfc, 
0xb, 0xf4, 0xf2, 0xa, 0xff, 0xfd, 0xa, 0x6, 0x7, 0xf9, 0xf8, 0xf3, 0xf4, 0x5, 0x4, 0xf0, 0xff, 0x0, 0xfa, 0xf9, 
0xff, 0xef, 0xf1, 0x5, 0xf0, 0xf3, 0x0, 0xf2, 0x2, 0xf0, 0xef, 0xf8, 0xfb, 0xf7, 0xef, 0xf7, 0xf5, 0x3, 0x1, 0x8, 
0x7, 0x5, 0x1, 0xfc, 0xf9, 0xa, 0xff, 0xf5, 0x5, 0xee, 0x1, 0xb, 0xfa, 0xfd, 0xfb, 0xef, 0xb, 0x4, 0x0, 0xfa, 
0x5, 0xa, 0x6, 0xf9, 0xc, 0x8, 0xfe, 0xfc, 0xf0, 0xf2, 0x7, 0xfb, 0x0, 0xf4, 0xf3, 0xf6, 0xfa, 0x1, 0xef, 0xfd, 
0x3, 0x1, 0xf7, 0xa, 0xf0, 0xfa, 0xfe, 0xa, 0xb, 0xfe, 0x0, 0xf1, 0x6, 0xf9, 0xf4, 0xf2, 0xfe, 0xc, 0xf9, 0x3, 
0x3, 0x4, 0x9, 0xef, 0x2, 0x7, 0xf9, 0xfd, 0xfd, 0xf3, 0xfe, 0xf8, 0xf4, 0xf0, 0xfc, 0xfe, 0x2, 0xf4, 0x0, 0x5, 
0x3, 0xf4, 0xf5, 0xf7, 0xf9, 0xf7, 0x0, 0x6, 0xec, 0x0, 0xa, 0xf9, 0x7, 0xfa, 0x4, 0x3, 0xf4, 0x5, 0xf8, 0xf1, 
0xfd, 0xf0, 0xfc, 0x6, 0x8, 0xfc, 0x2, 0xff, 0xa, 0x4, 0xfb, 0x9, 0xf9, 0xf3, 0xf3, 0xfa, 0xf4, 0xf9, 0xff, 0xf6, 
0xff, 0xf3, 0x3, 0x7, 0xf9, 0xf4, 0xf1, 0x1, 0x3, 0x0, 0x9, 0xfb, 0x7, 0xf8, 0x6, 0xfb, 0x7, 0xff, 0x6, 0xf4, 
0xff, 0xef, 0xf4, 0x8, 0x0, 0xfb, 0xf9, 0xf2, 0x5, 0xa, 0xf2, 0x1, 0xfe, 0x2, 0x1, 0xf1, 0xfa, 0xfe, 0xf6, 0x6, 
0xf6, 0xff, 0xf4, 0xf8, 0xf3, 0xfd, 0xef, 0xf7, 0xf6, 0x3, 0xf1, 0xf2, 0xf5, 0xa, 0xf8, 0xf8, 0xee, 0xc, 0xb, 0x0, 
0x0, 0xa, 0xf0, 0xb, 0xf8, 0xf7, 0xb, 0xf7, 0xee, 0xf1, 0xf0, 0xf9, 0x8, 0x9, 0x8, 0x5, 0x1, 0x2, 0x3, 0xf5, 
0x5, 0x0, 0xf8, 0xfe, 0x2, 0xfc, 0x8, 0x4, 0xfc, 0x7, 0xff, 0x9, 0xfd, 0xee, 0xf0, 0xf6, 0x2, 0xf2, 0xf0, 0xc, 
0x2, 0xf6, 0x7, 0xff, 0xa, 0x5, 0xfb, 0xfe, 0xb, 0x1, 0xd, 0xa, 0xff, 0xf7, 0xef, 0x8, 0xfe, 0x5, 0xf0, 0xfc, 
0x3, 0xfa, 0xfb, 0xf0, 0xfe, 0xf2, 0xf2, 0xfb, 0xff, 0x9, 0xfe, 0x8, 0x4, 0xff, 0xf5, 0xb, 0x3, 0xf1, 0xfd, 0x5, 
0xf9, 0xf9, 0xf7, 0xfb, 0xfa, 0x4, 0xf0, 0xfd, 0xef, 0xfc, 0x5, 0xfd, 0x3, 0xfa, 0xf9, 0xf3, 0xf8, 0x6, 0x4, 0x7, 
0xa, 0xee, 0xf6, 0xf1, 0xfb, 0x6, 0x9, 0xfc, 0xf1, 0xf4, 0x6, 0x7, 0xf2, 0xc, 0x3, 0x2, 0xfd, 0xf2, 0xdd, 0xe, 
0xf, 0xf7, 0xf4, 0xef, 0x1, 0xf0, 0x0, 0x4, 0xf6, 0x4, 0xfc, 0xee, 0xa, 0xe6, 0xed, 0xa, 0xf8, 0xf5, 0xff, 0x3, 
0xeb, 0xe8, 0xb, 0xf3, 0xed, 0xc, 0xed, 0xf5, 0xf1, 0xf6, 0xff, 0xd, 0xeb, 0xec, 0x0, 0xf5, 0x4, 0xe9, 0xfb, 0xfc, 
0xfd, 0xec, 0x8, 0x15, 0xf9, 0x7, 0x0, 0xc, 0xf2, 0xb, 0xfd, 0xfa, 0xa, 0xef, 0x1c, 0x18, 0x7, 0xeb, 0xe, 0x7, 
0x7, 0x7, 0x4, 0x15, 0xd, 0xf1, 0xf, 0x13, 0xf0, 0x0, 0xf4, 0x18, 0x6, 0x2, 0xfc, 0xf8, 0x11, 0xf2, 0xf7, 0xf, 
0x2, 0x0, 0x9, 0x6, 0xf5, 0xf3, 0x1b, 0x5, 0x11, 0xfc, 0x18, 0xff, 0x15, 0xe2, 0x4, 0xfe, 0xf2, 0xf3, 0x5, 0x0, 
0xeb, 0xef, 0x4, 0xf8, 0xf, 0x1, 0xf1, 0x2, 0x8, 0xb, 0xf7, 0x8, 0x18, 0xfd, 0x9, 0xfc, 0xfb, 0xe8, 0xff, 0x6, 
0xe4, 0xf9, 0xf9, 0xa, 0xf1, 0xf4, 0xf9, 0xf9, 0x5, 0xea, 0xf3, 0xfe, 0xfa, 0xfa, 0x4, 0xf8, 0xfb, 0xff, 0xe8, 0xf, 
0xfe, 0xf3, 0x8, 0x1, 0xff, 0x4, 0x17, 0xfc, 0x12, 0x8, 0x2, 0xf7, 0x0, 0xfe, 0x5, 0x13, 0xfd, 0xfb, 0xc, 0xf, 
0xf0, 0xd, 0x24, 0xf8, 0x11, 0xfb, 0x13, 0x6, 0x19, 0xf8, 0x3, 0xf4, 0xf7, 0x1, 0x6, 0xfc, 0xf3, 0xa, 0x1, 0x15, 
0xed, 0x2, 0xfe, 0x1f, 0x1a, 0xe2, 0xe6, 0xb, 0xf2, 0xf8, 0x11, 0xed, 0xee, 0xfd, 0x0, 0x8, 0xf0, 0xec, 0x7, 0x27, 
0xed, 0xf3, 0x1f, 0x4, 0xfe, 0xfe, 0x11, 0x0, 0xf7, 0xf5, 0xef, 0x5, 0xf2, 0xf7, 0xee, 0xe, 0x1, 0xf1, 0xf3, 0xdc, 
0xfc, 0xc, 0xe4, 0xf8, 0x7, 0xfa, 0xf3, 0xf6, 0xea, 0xee, 0x7, 0xf1, 0xe8, 0x1, 0xb, 0x7, 0x10, 0xfb, 0xe7, 0xa, 
0xff, 0x8, 0x6, 0xe0, 0xfe, 0x7, 0x6, 0xf8, 0xa, 0xfd, 0xeb, 0x1b, 0xff, 0xfd, 0xf8, 0xfb, 0xf, 0xa, 0x2a, 0xf7, 
0xa, 0x4, 0x1a, 0xa, 0xd, 0xfe, 0x15, 0x9, 0xfb, 0xf3, 0x8, 0xb, 0x4, 0xfe, 0x10, 0xf0, 0x10, 0xeb, 0x15, 0xf8, 
0x1, 0x2, 0xfa, 0xee, 0xf6, 0x4, 0xfd, 0xff, 0xf1, 0xf3, 0xd, 0xf1, 0xe3, 0xfb, 0x2, 0xf8, 0xf6, 0x0, 0xfc, 0xfa, 
0x18, 0xc, 0x21, 0xe8, 0xfd, 0xfb, 0x10, 0xfc, 0x0, 0xf5, 0xe, 0xc, 0xfe, 0x7, 0xf9, 0x0, 0xf9, 0xf3, 0x9, 0x1, 
0xf0, 0xeb, 0xe7, 0x2e, 0xf4, 0xe3, 0xed, 0xc, 0xee, 0x1, 0xf7, 0xf9, 0xb, 0xeb, 0xdb, 0x17, 0xff, 0x14, 0x5, 0xf9, 
0x18, 0x4, 0x7, 0x0, 0xe2, 0x1, 0xa, 0x6, 0xc, 0x4, 0xe4, 0x18, 0xe9, 0xf7, 0xfc, 0xea, 0x7, 0x9, 0x4, 0xea, 
0xf4, 0xf2, 0xe5, 0x10, 0x7, 0x8, 0xf9, 0x20, 0xff, 0x11, 0x7, 0x7, 0x8, 0x7, 0x3, 0x13, 0xf6, 0x12, 0xc, 0xe, 
0xf5, 0xb, 0xfb, 0x21, 0xea, 0x15, 0x1, 0xfe, 0xf5, 0x2, 0xfd, 0x9, 0x13, 0x4, 0x1, 0xf6, 0xb, 0x1d, 0xc, 0x7, 
0x7, 0xe9, 0xff, 0xf8, 0xe3, 0xf1, 0x9, 0x7, 0xc, 0xf1, 0x2, 0xf1, 0x2, 0xf, 0x1f, 0x0, 0xfa, 0xf7, 0xd, 0x2, 
0xe0, 0xe8, 0x18, 0xff, 0x5, 0xf4, 0xd, 0xee, 0x2, 0x6, 0x4, 0xe9, 0x6, 0xee, 0x9, 0x15, 0xe0, 0xfc, 0xfe, 0x1e, 
0xe9, 0xff, 0xfa, 0x10, 0x1, 0x3, 0xfc, 0x10, 0xe0, 0x25, 0xb, 0xf8, 0x1c, 0xb, 0xfe, 0xe6, 0xfe, 0xe0, 0x1a, 0x1c, 
0xee, 0xd, 0xf1, 0xf, 0xde, 0xc, 0xf6, 0xed, 0xd, 0xc, 0x10, 0x5, 0xf2, 0xe9, 0x8, 0x20, 0xfe, 0xfc, 0x11, 0x16, 
0xe2, 0x20, 0x1b, 0xfe, 0x14, 0x20, 0x10, 0x21, 0x8, 0x9, 0x6, 0x9, 0xff, 0x13, 0xf3, 0xe, 0xfd, 0x11, 0xc, 0xf6, 
